<unk>	0
<s>	0
</s>	0
,	-2.88133
▁the	-3.2456
.	-3.50799
▁and	-3.77382
▁to	-3.86391
s	-3.93912
▁of	-3.96322
▁a	-4.11705
▁in	-4.45856
▁he	-4.56874
▁I	-4.58319
▁was	-4.59664
▁that	-4.65581
'	-4.65938
▁his	-4.75654
▁"	-4.79828
▁it	-4.8027
▁her	-4.86214
▁with	-4.97483
▁had	-5.00258
;	-5.02373
▁you	-5.02591
▁not	-5.11506
▁	-5.11969
▁'	-5.13984
▁she	-5.19919
ing	-5.20713
ed	-5.23179
▁at	-5.32384
▁for	-5.33115
▁as	-5.34178
▁him	-5.36081
▁on	-5.37601
▁is	-5.39417
▁be	-5.50698
t	-5.52339
▁said	-5.55155
-	-5.59494
▁but	-5.62269
▁me	-5.67819
▁have	-5.68307
▁which	-5.75519
▁all	-5.76739
!	-5.79795
:	-5.80782
."	-5.82022
▁from	-5.87632
▁by	-5.89713
▁one	-5.904
d	-5.91533
▁so	-5.9158
▁my	-5.92586
▁The	-5.92902
▁this	-5.96619
▁they	-6.00604
▁were	-6.01541
ly	-6.01819
▁would	-6.03843
▁He	-6.06374
I	-6.10184
▁who	-6.19624
▁an	-6.23538
▁out	-6.23642
▁there	-6.24697
▁no	-6.25296
--	-6.26113
▁them	-6.27572
▁what	-6.28433
▁up	-6.28631
▁when	-6.30032
▁are	-6.30578
▁been	-6.30767
?	-6.34476
▁could	-6.34612
e	-6.34825
,"	-6.36522
n	-6.36768
▁did	-6.40173
▁their	-6.40305
▁or	-6.41116
▁more	-6.41135
?"	-6.4173
▁do	-6.42037
▁about	-6.43599
▁will	-6.43628
▁if	-6.44877
▁now	-6.4664
▁like	-6.55458
!"	-6.55865
▁very	-6.55896
▁She	-6.56287
▁then	-6.58578
▁your	-6.61101
▁only	-6.61919
▁time	-6.63044
y	-6.65951
,'	-6.67485
▁into	-6.68844
▁see	-6.71075
▁some	-6.7363
▁But	-6.74686
▁little	-6.75894
er	-6.76309
▁It	-6.76808
▁know	-6.78839
▁himself	-6.80363
a	-6.80499
▁And	-6.80904
▁over	-6.81317
▁man	-6.82574
?'	-6.83109
.'	-6.84189
▁Levin	-6.84312
!'	-6.8577
▁thought	-6.86094
▁go	-6.86759
▁down	-6.87135
▁than	-6.8821
▁can	-6.88828
m	-6.89384
▁went	-6.9045
p	-6.90648
▁other	-6.90802
−	-6.95357
r	-6.96402
▁we	-6.97638
re	-6.98353
▁K	-6.98645
▁has	-6.98948
▁am	-6.99118
▁again	-7.01674
▁made	-7.03007
▁before	-7.03864
▁two	-7.04199
▁good	-7.04791
▁long	-7.0544
▁just	-7.05577
▁come	-7.05842
▁hand	-7.06163
ll	-7.06815
▁back	-7.0689
▁even	-7.06978
▁eyes	-7.08006
▁must	-7.10591
es	-7.10919
▁should	-7.10944
▁say	-7.11106
▁way	-7.11123
▁still	-7.1201
▁any	-7.12047
▁how	-7.12113
▁face	-7.12609
▁its	-7.12657
▁much	-7.12769
▁without	-7.13361
in	-7.15609
c	-7.15783
▁A	-7.16819
▁–	-7.17616
al	-7.17796
▁came	-7.18906
▁head	-7.19372
▁after	-7.20332
▁first	-7.20989
▁never	-7.21669
▁don	-7.22934
▁too	-7.23177
▁day	-7.24683
▁seemed	-7.2496
▁away	-7.25027
▁felt	-7.25272
▁where	-7.25891
▁well	-7.26806
▁such	-7.27792
▁door	-7.27802
▁asked	-7.28674
▁looked	-7.29773
▁here	-7.29953
▁room	-7.30613
▁old	-7.31446
▁think	-7.31638
b	-7.33963
▁nothing	-7.34561
▁something	-7.34977
▁began	-7.35198
▁saw	-7.3542
▁upon	-7.35652
▁love	-7.35757
▁these	-7.3765
▁once	-7.37903
or	-7.38016
ve	-7.39473
▁those	-7.40157
▁through	-7.40265
▁because	-7.42383
▁quite	-7.42728
▁last	-7.43333
▁life	-7.43434
g	-7.43973
▁great	-7.44034
▁Vronsky	-7.44518
▁Anna	-7.45386
▁own	-7.45484
▁always	-7.45525
it	-7.45636
▁get	-7.46454
▁look	-7.47502
▁moment	-7.47919
▁make	-7.48162
▁off	-7.48612
▁C	-7.4903
▁while	-7.49368
You	-7.49379
▁people	-7.49587
▁being	-7.49743
▁took	-7.50544
▁same	-7.52675
▁They	-7.52724
▁herself	-7.52936
▁right	-7.5388
▁heard	-7.54036
▁de	-7.54648
▁take	-7.5626
▁put	-7.56973
▁under	-7.57243
Yes	-7.57596
▁You	-7.57914
▁might	-7.57921
▁left	-7.58879
ness	-7.59004
o	-7.59151
▁un	-7.59281
▁us	-7.59297
▁Tom	-7.59786
What	-7.59818
▁every	-7.61783
▁shall	-7.62286
▁knew	-7.62709
▁Then	-7.63773
▁another	-7.63882
▁going	-7.64027
▁tell	-7.64209
▁round	-7.64327
▁voice	-7.64484
▁new	-7.65761
▁In	-7.66898
▁Kitty	-7.6716
▁house	-7.67904
▁yet	-7.6824
▁heart	-7.68476
▁having	-7.68822
Oh	-7.68845
▁let	-7.69638
l	-7.69729
▁turned	-7.70449
le	-7.71949
▁got	-7.72008
▁night	-7.72054
▁against	-7.72838
and	-7.7291
▁young	-7.73023
▁Oblonsky	-7.73543
▁found	-7.73858
en	-7.74323
▁want	-7.74738
▁re	-7.7488
▁hands	-7.74882
▁work	-7.74986
▁There	-7.75097
▁three	-7.75176
f	-7.75336
▁our	-7.75375
"	-7.77201
Well	-7.78087
▁(	-7.78161
u	-7.78499
▁things	-7.78652
▁Mr	-7.7944
▁This	-7.79607
▁words	-7.80243
▁better	-7.80299
A	-7.80522
▁At	-7.81124
▁wife	-7.81594
▁everything	-7.81951
st	-7.82002
▁anything	-7.82296
▁thing	-7.82328
▁When	-7.82356
▁give	-7.82444
▁woman	-7.82503
▁mother	-7.82669
No	-7.82678
on	-7.83191
▁though	-7.83528
▁find	-7.8461
▁place	-7.84868
▁mind	-7.85029
▁between	-7.85151
▁soon	-7.85847
▁end	-7.8652
—	-7.86567
▁What	-7.8776
▁whole	-7.87772
▁far	-7.87837
▁many	-7.88267
▁ever	-7.88304
▁side	-7.88336
▁looking	-7.88415
▁men	-7.88648
▁seen	-7.88649
▁replied	-7.8865
It	-7.89279
▁smile	-7.8932
▁most	-7.89635
▁light	-7.89847
k	-7.89977
▁already	-7.89997
▁stood	-7.90733
And	-7.91704
▁both	-7.91754
▁whom	-7.92065
th	-7.92067
▁understand	-7.92122
ar	-7.92386
▁also	-7.92666
▁Karenin	-7.9314
▁girl	-7.93521
▁each	-7.93648
...	-7.93918
▁done	-7.94111
▁sat	-7.94267
S	-7.95219
▁brother	-7.95636
est	-7.95807
w	-7.95856
ce	-7.95923
▁half	-7.96049
▁told	-7.96858
▁S	-7.97533
But	-7.98306
ur	-7.98704
▁may	-8.00198
▁child	-8.00351
▁does	-8.00568
ra	-8.0088
il	-8.00901
i	-8.01769
▁window	-8.01886
ity	-8.02282
ic	-8.04519
▁wanted	-8.04729
_	-8.04735
less	-8.05274
▁husband	-8.05338
▁called	-8.05404
an	-8.05585
▁home	-8.05785
ation	-8.05877
▁myself	-8.06901
▁Dolly	-8.06925
▁gave	-8.07135
▁longer	-8.07445
▁morning	-8.07805
▁alone	-8.07805
▁B	-8.07988
▁rose	-8.08111
▁speak	-8.084
h	-8.09075
TER	-8.1011
▁bed	-8.10384
▁His	-8.10593
▁passed	-8.10604
▁word	-8.10751
ion	-8.11634
ent	-8.11665
▁table	-8.12861
▁few	-8.12939
▁open	-8.1308
▁Miss	-8.13221
▁nor	-8.13859
▁help	-8.14572
HAP	-8.14614
▁wish	-8.14678
▁cannot	-8.15123
)	-8.15389
▁white	-8.1554
▁full	-8.15711
▁behind	-8.15837
▁name	-8.1644
us	-8.1653
te	-8.16722
▁large	-8.16733
▁poor	-8.16844
▁course	-8.16857
▁black	-8.17075
is	-8.17221
the	-8.17423
▁order	-8.17431
▁M	-8.17574
ri	-8.17724
▁talk	-8.17754
▁That	-8.17849
▁suddenly	-8.17874
▁God	-8.1843
▁almost	-8.18834
▁evening	-8.19233
li	-8.19386
▁sir	-8.19432
de	-8.20349
as	-8.20828
▁why	-8.20917
▁enough	-8.21401
▁near	-8.21564
▁really	-8.22029
▁question	-8.22093
at	-8.22274
▁Alice	-8.22447
▁arm	-8.22573
▁feel	-8.22641
▁children	-8.22974
▁air	-8.23194
▁kind	-8.23741
able	-8.23829
▁feeling	-8.24552
▁hear	-8.25106
▁Rochester	-8.25381
▁matter	-8.26198
ers	-8.26243
▁Emma	-8.26743
▁taken	-8.27092
...'	-8.27253
▁keep	-8.2754
▁p	-8.2779
▁father	-8.28405
▁whose	-8.28874
▁As	-8.28978
▁brought	-8.29243
▁answer	-8.29276
▁front	-8.29549
▁leave	-8.29603
▁water	-8.29837
▁Charles	-8.30375
▁tried	-8.30457
▁along	-8.30548
▁part	-8.30624
▁world	-8.31232
▁added	-8.313
▁continued	-8.3132
la	-8.31333
▁believe	-8.31537
That	-8.32367
▁c	-8.32383
▁priest	-8.32386
▁arms	-8.3247
▁sort	-8.32815
▁fine	-8.32976
,−−	-8.33026
▁set	-8.33118
▁g	-8.33241
▁All	-8.33413
▁soul	-8.33791
▁answered	-8.33814
ro	-8.34036
▁next	-8.34143
▁master	-8.34177
▁eye	-8.34242
▁small	-8.34322
room	-8.34379
▁whether	-8.3444
▁hair	-8.34464
▁together	-8.34736
▁fire	-8.35063
▁_	-8.35252
ne	-8.35607
▁since	-8.35845
▁We	-8.35856
am	-8.36151
▁above	-8.36233
▁others	-8.36241
▁lay	-8.36401
The	-8.36455
et	-8.3652
▁fell	-8.36535
▁If	-8.36551
▁Gringoire	-8.36838
▁read	-8.36864
▁conversation	-8.37142
▁So	-8.37408
▁Mrs	-8.3783
el	-8.38403
▁fact	-8.38436
▁women	-8.38676
▁saying	-8.38767
▁cried	-8.40234
▁king	-8.40369
▁gone	-8.40387
▁toward	-8.40442
▁No	-8.40665
ment	-8.40722
came	-8.40727
▁rather	-8.40863
▁years	-8.41263
▁become	-8.41559
▁low	-8.4181
▁themselves	-8.41816
▁court	-8.42133
▁point	-8.42747
▁Princess	-8.42799
▁appeared	-8.42989
▁live	-8.43293
▁possible	-8.43423
▁least	-8.43424
▁stopped	-8.43428
▁opened	-8.43493
▁sister	-8.44452
ter	-8.44569
un	-8.44597
ling	-8.44675
▁best	-8.44683
▁ask	-8.44861
▁feet	-8.45062
▁Jane	-8.4517
▁state	-8.45197
ul	-8.45278
▁often	-8.45407
ry	-8.45973
▁around	-8.46129
▁need	-8.46609
ive	-8.46853
▁less	-8.46938
ch	-8.46966
▁lost	-8.47067
▁won	-8.47068
Why	-8.47125
ted	-8.47429
ge	-8.47572
▁else	-8.47726
ate	-8.47857
em	-8.4814
▁days	-8.4818
▁E	-8.48234
to	-8.48261
▁doubt	-8.48284
▁church	-8.48322
▁followed	-8.4867
▁Paris	-8.48739
▁pleasure	-8.48749
▁among	-8.4875
▁till	-8.48805
▁towards	-8.48807
▁la	-8.49117
▁hour	-8.4931
▁tone	-8.4935
▁ran	-8.49637
▁position	-8.49814
ous	-8.49971
▁wished	-8.50189
se	-8.50304
▁entered	-8.50365
▁remained	-8.50391
▁Gregor	-8.50489
▁sure	-8.5061
▁foot	-8.50879
▁short	-8.50925
▁-	-8.51089
▁P	-8.51155
▁Madame	-8.51171
▁Now	-8.51174
lo	-8.5149
▁given	-8.51514
▁either	-8.51522
▁taking	-8.51525
▁fear	-8.51689
▁turn	-8.518
▁coming	-8.5223
▁turning	-8.52421
▁present	-8.52518
led	-8.52936
▁One	-8.53215
▁o	-8.53415
E	-8.53445
ir	-8.53492
▁lips	-8.5351
▁high	-8.53619
▁strange	-8.53668
▁cold	-8.53722
ol	-8.54112
▁hope	-8.54704
He	-8.54799
▁money	-8.551
▁held	-8.55107
▁perhaps	-8.55135
▁idea	-8.55322
▁returned	-8.55456
▁dark	-8.55556
▁sound	-8.55637
▁thousand	-8.55832
▁hard	-8.55874
▁yourself	-8.562
▁able	-8.56327
but	-8.56383
▁kept	-8.56939
▁b	-8.57226
▁How	-8.57551
▁silence	-8.57684
▁making	-8.57687
z	-8.57757
▁country	-8.58063
How	-8.58214
▁Saint	-8.58435
▁Monsieur	-8.58527
ies	-8.5862
▁ought	-8.58815
he	-8.58967
▁lawyer	-8.59173
▁For	-8.59425
▁especially	-8.59571
▁glad	-8.59572
that	-8.59785
▁doctor	-8.59952
▁death	-8.59952
▁usual	-8.59953
▁itself	-8.59965
▁T	-8.60563
▁business	-8.6071
▁On	-8.60804
▁necessary	-8.61106
▁wall	-8.61129
▁talking	-8.61172
▁red	-8.61305
▁clear	-8.61496
▁close	-8.61664
▁happy	-8.61883
▁dear	-8.61989
▁d	-8.62004
▁rest	-8.62112
▁thus	-8.62274
▁book	-8.62418
▁certain	-8.628
▁mean	-8.6313
▁sent	-8.63466
▁case	-8.6471
ful	-8.64763
▁F	-8.64793
▁friend	-8.64892
▁impossible	-8.65454
▁second	-8.65454
▁expression	-8.65481
x	-8.65622
▁H	-8.65852
▁steps	-8.65963
pe	-8.66204
▁change	-8.66456
▁beautiful	-8.66674
▁family	-8.66674
▁school	-8.66711
uasimodo	-8.67084
▁call	-8.673
O	-8.67323
▁hold	-8.67416
ow	-8.67419
R	-8.67705
▁hardly	-8.67769
▁noticed	-8.68483
▁son	-8.68659
▁Koznyshev	-8.6874
▁attention	-8.6874
▁daughter	-8.6874
▁sun	-8.68772
▁repeated	-8.68842
▁Her	-8.68876
ant	-8.69018
▁thinking	-8.69219
D	-8.69441
▁four	-8.69615
▁however	-8.69625
▁dead	-8.69629
▁times	-8.6975
▁st	-8.70057
▁met	-8.70111
▁waiting	-8.70415
▁true	-8.70427
▁lady	-8.70454
▁reached	-8.70659
▁crowd	-8.7085
▁used	-8.71426
▁ground	-8.71743
▁Huck	-8.72638
▁D	-8.72771
▁reason	-8.72798
▁dinner	-8.73006
▁bring	-8.73024
▁To	-8.73034
▁bad	-8.73109
▁moved	-8.73149
ring	-8.73232
▁joy	-8.73398
▁hall	-8.73484
▁body	-8.73881
ng	-8.74188
▁sitting	-8.74337
im	-8.74344
▁show	-8.7441
▁ready	-8.74505
▁beneath	-8.74764
▁sight	-8.74944
▁spoke	-8.75482
▁boy	-8.75577
ad	-8.75651
day	-8.75838
no	-8.75908
▁year	-8.76467
▁tears	-8.76478
▁John	-8.76553
▁exclaimed	-8.76553
▁sleep	-8.76911
▁Mary	-8.77512
▁glance	-8.77645
▁pass	-8.77769
ated	-8.77906
▁mouth	-8.77917
▁understood	-8.77917
you	-8.78202
▁horse	-8.78345
um	-8.78396
▁past	-8.78664
▁quickly	-8.78943
▁speaking	-8.79016
▁thoughts	-8.79397
▁St	-8.79452
ty	-8.80067
▁Bovary	-8.80232
▁afraid	-8.80232
P	-8.8055
ck	-8.80584
▁standing	-8.80699
▁getting	-8.80767
▁care	-8.80938
▁straight	-8.8109
▁fellow	-8.81199
▁doing	-8.81414
ine	-8.81519
ance	-8.81701
ure	-8.81805
ish	-8.81927
id	-8.82125
T	-8.8214
ig	-8.82146
for	-8.82176
▁raised	-8.82187
▁immediately	-8.82634
Ah	-8.82749
▁W	-8.82783
ting	-8.83011
▁carriage	-8.83082
▁dis	-8.83242
▁happened	-8.83305
▁please	-8.83318
▁closed	-8.83507
▁trying	-8.84026
▁living	-8.84539
▁co	-8.84773
▁con	-8.84942
▁archdeacon	-8.85029
▁manner	-8.85034
▁certainly	-8.85333
▁use	-8.85661
▁late	-8.85692
▁stone	-8.85721
▁drawing	-8.8585
▁pale	-8.86236
▁hat	-8.86289
▁silent	-8.86769
▁en	-8.86928
▁letter	-8.87177
ta	-8.8741
▁considered	-8.87477
▁gypsy	-8.87517
▁town	-8.87571
▁ill	-8.87637
▁sometimes	-8.88023
▁slowly	-8.88091
▁quiet	-8.88286
ut	-8.88432
▁ten	-8.88829
Do	-8.8895
▁person	-8.89065
▁power	-8.89087
▁G	-8.89104
▁corner	-8.89223
▁chair	-8.8941
▁dress	-8.89435
▁form	-8.89475
▁stay	-8.89503
▁drew	-8.89552
▁hundred	-8.89552
our	-8.89807
▁different	-8.89822
▁Why	-8.89962
▁Phoebus	-8.90126
one	-8.90444
▁bit	-8.90596
▁prince	-8.90745
▁calm	-8.90774
ble	-8.90909
▁Oh	-8.91079
▁fall	-8.91105
▁After	-8.91187
▁trouble	-8.91354
▁wind	-8.91672
▁struck	-8.91675
ci	-8.9186
▁loved	-8.91866
▁dream	-8.91869
),	-8.92064
▁t	-8.92088
ver	-8.92122
▁beginning	-8.92161
▁ma	-8.92405
during	-8.92407
▁remember	-8.92682
▁V	-8.92793
ress	-8.92803
▁pleased	-8.92986
▁neck	-8.93218
▁therefore	-8.93218
▁human	-8.9324
▁sp	-8.93313
▁THE	-8.93314
▁mere	-8.94007
ke	-8.94099
▁indeed	-8.94304
▁important	-8.9432
▁judge	-8.94802
▁neither	-8.94831
▁boys	-8.94993
▁sit	-8.95117
▁within	-8.95141
▁return	-8.95396
There	-8.95485
▁floor	-8.95952
▁yes	-8.9603
man	-8.96084
▁stand	-8.96103
▁liked	-8.96167
▁cut	-8.96243
▁beside	-8.96376
▁sign	-8.96501
▁nature	-8.96865
▁grew	-8.97023
▁pity	-8.97088
▁minutes	-8.97163
▁R	-8.97319
▁garden	-8.97578
▁although	-8.97578
▁cross	-8.97649
sh	-8.97715
▁Prince	-8.98099
▁My	-8.98338
▁deep	-8.98338
▁picture	-8.98378
▁Do	-8.98413
▁bell	-8.98988
▁~	-8.99134
▁friends	-8.99137
▁lived	-8.99169
▁gentlemen	-8.99269
▁evidently	-8.99332
▁cause	-8.99561
▁walked	-8.99707
▁remembered	-8.99832
H	-8.99892
--"	-8.99951
▁smiled	-9.0008
▁run	-9.00093
me	-9.0011
▁expected	-9.00207
▁listened	-9.00263
ical	-9.00483
▁consider	-9.00898
▁fresh	-9.00926
▁With	-9.01099
▁try	-9.01203
▁six	-9.02127
▁reply	-9.02138
▁free	-9.02483
ist	-9.02536
▁sweet	-9.0267
C	-9.02708
v	-9.02711
▁married	-9.02722
▁big	-9.02759
▁step	-9.02863
If	-9.02893
▁w	-9.03136
▁art	-9.03189
▁five	-9.03439
▁received	-9.03448
▁watch	-9.03462
▁subject	-9.03756
▁Moscow	-9.03902
N	-9.04074
▁deal	-9.04245
▁bent	-9.04267
age	-9.04274
vi	-9.04386
▁ago	-9.04482
▁means	-9.04514
▁laugh	-9.04592
▁later	-9.04649
▁filled	-9.04718
▁finished	-9.05357
▁Well	-9.05613
F	-9.05632
▁wrong	-9.05698
▁interest	-9.05784
▁opinion	-9.06201
▁Homais	-9.06914
▁glass	-9.06994
▁earth	-9.07046
▁clerk	-9.07528
▁probably	-9.07528
▁terrible	-9.07528
▁middle	-9.07528
ud	-9.07572
We	-9.07628
▁meet	-9.07651
▁forward	-9.07931
▁forget	-9.08132
▁Claude	-9.08145
▁account	-9.08145
▁effect	-9.08145
▁simple	-9.08145
▁send	-9.08148
▁tea	-9.08213
▁horses	-9.08293
▁covered	-9.0838
bo	-9.08445
▁seem	-9.08705
▁several	-9.08766
▁presence	-9.08766
▁mo	-9.08791
▁Jehan	-9.08794
▁general	-9.09147
▁ex	-9.09344
▁French	-9.09378
▁noise	-9.09535
−−	-9.09703
▁wait	-9.09739
▁placed	-9.09823
▁bright	-9.10015
▁captain	-9.1002
▁Countess	-9.10021
▁Joe	-9.10021
▁anyone	-9.10122
▁broken	-9.10159
B	-9.10436
all	-9.10703
▁sense	-9.11246
▁nurse	-9.11269
▁ladies	-9.11297
▁wood	-9.11352
She	-9.11506
pi	-9.11701
▁figure	-9.11938
▁led	-9.12327
▁desire	-9.12339
▁bear	-9.12556
▁happiness	-9.12585
▁fixed	-9.12692
ally	-9.12714
▁holding	-9.12788
▁seeing	-9.12814
▁drive	-9.13226
▁fingers	-9.13246
▁effort	-9.13256
▁candle	-9.13257
Come	-9.13275
▁pain	-9.13463
▁r	-9.13496
ious	-9.13698
na	-9.1384
▁carried	-9.13879
▁view	-9.13923
▁across	-9.13961
be	-9.14242
▁pretty	-9.14537
▁pleasant	-9.14537
▁strong	-9.14838
▁smiling	-9.14952
▁character	-9.15197
do	-9.15241
▁seems	-9.15282
▁e	-9.15555
▁started	-9.15703
▁chance	-9.15794
up	-9.15822
▁strength	-9.15826
▁blood	-9.15866
▁twenty	-9.15866
morrow	-9.15866
clock	-9.1593
▁pre	-9.16124
▁die	-9.16127
ie	-9.16432
▁blue	-9.16537
▁caught	-9.16538
▁trial	-9.16569
tis	-9.16612
▁street	-9.16635
M	-9.1668
▁allowed	-9.1694
bl	-9.1706
▁visit	-9.1715
▁bank	-9.17231
▁mine	-9.1727
▁King	-9.17299
▁showed	-9.17348
▁shouted	-9.174
▁walk	-9.1753
▁meant	-9.17782
▁Varenka	-9.1792
men	-9.18003
que	-9.18015
min	-9.18318
▁legs	-9.18336
▁listening	-9.18423
Now	-9.1856
▁shut	-9.18604
▁arrived	-9.18644
▁servant	-9.18761
▁piece	-9.18825
▁follow	-9.18882
▁wild	-9.1902
▁imp	-9.19031
▁changed	-9.19036
▁ear	-9.19044
▁seat	-9.19057
▁law	-9.19067
▁beyond	-9.19267
▁stop	-9.19272
▁dressed	-9.19291
▁painter	-9.19324
▁Master	-9.19383
▁cry	-9.19462
▁remain	-9.19589
ence	-9.19901
▁burst	-9.19962
▁war	-9.19969
▁handsome	-9.20001
ped	-9.20037
▁outside	-9.20073
▁hung	-9.20477
▁despair	-9.20661
▁easy	-9.20661
▁threw	-9.20661
▁begin	-9.20691
▁iron	-9.20745
My	-9.20894
▁ba	-9.20971
▁listen	-9.21002
ha	-9.21362
▁asleep	-9.21365
▁until	-9.21372
ian	-9.2142
▁spread	-9.21598
▁approached	-9.21603
▁clearly	-9.21808
▁cap	-9.21849
▁Here	-9.21925
▁village	-9.22075
▁land	-9.22422
▁coat	-9.22537
▁known	-9.22694
▁road	-9.22799
▁real	-9.22837
▁wide	-9.22937
▁office	-9.22945
▁box	-9.22953
tter	-9.22958
▁cast	-9.23032
▁age	-9.23121
ac	-9.23143
▁play	-9.23149
▁hours	-9.23209
▁f	-9.23313
▁decided	-9.23346
ia	-9.23421
▁third	-9.23508
▁further	-9.23509
▁pay	-9.23777
ph	-9.23852
if	-9.24042
▁windows	-9.24181
ily	-9.24212
▁bound	-9.24309
▁start	-9.24341
ain	-9.24368
▁pro	-9.24566
▁shoulders	-9.24871
▁nearly	-9.24913
▁regard	-9.24963
▁gentleman	-9.24972
▁rain	-9.24976
▁movement	-9.2526
▁besides	-9.2533
ward	-9.25532
▁everybody	-9.25714
▁breath	-9.25776
▁notice	-9.25788
au	-9.25848
▁trees	-9.25941
ever	-9.26033
ti	-9.26046
▁chief	-9.26192
ib	-9.26238
▁secret	-9.26429
▁Fairfax	-9.26439
▁shook	-9.26441
▁fl	-9.26915
▁Leon	-9.27209
▁post	-9.27255
▁Notre	-9.27269
▁pressed	-9.27317
ock	-9.27762
▁length	-9.27937
▁distance	-9.27937
▁forgotten	-9.27937
▁public	-9.27941
▁talked	-9.28021
▁shoulder	-9.28173
ary	-9.28286
▁truth	-9.28677
▁Sviyazhsky	-9.28695
▁giving	-9.28695
op	-9.2876
▁feelings	-9.28832
▁throw	-9.28885
▁explain	-9.28925
com	-9.28962
▁force	-9.2905
▁cha	-9.29176
av	-9.29215
▁self	-9.29446
▁grass	-9.29482
G	-9.29732
▁difficult	-9.30082
▁thin	-9.30141
▁except	-9.3015
▁walls	-9.30197
▁teeth	-9.30227
▁heaven	-9.30228
▁sky	-9.30232
▁uncle	-9.3025
▁peasants	-9.30403
ard	-9.30418
▁respect	-9.30588
▁spirit	-9.30671
▁says	-9.30895
▁chamber	-9.31003
▁spite	-9.31011
L	-9.3102
▁laid	-9.31036
▁eat	-9.31225
To	-9.31303
▁broke	-9.31611
Then	-9.31636
▁gold	-9.31752
▁Petersburg	-9.31784
▁leaving	-9.31784
▁Louis	-9.3181
▁interrupted	-9.31899
▁act	-9.31919
▁knees	-9.3219
▁paper	-9.32264
▁girls	-9.32339
Y	-9.32528
▁Bessie	-9.32571
▁worse	-9.32571
▁beauty	-9.32571
▁company	-9.32573
▁Du	-9.32598
▁Adele	-9.32607
ions	-9.32683
▁passing	-9.32723
nt	-9.32841
▁Reed	-9.32901
ni	-9.33004
▁knowing	-9.33089
▁fair	-9.33319
▁city	-9.33457
▁caused	-9.33746
▁natural	-9.3392
▁appear	-9.34127
▁devil	-9.34165
▁peculiar	-9.34165
▁resumed	-9.34165
▁memory	-9.34165
▁heavy	-9.34166
▁matters	-9.3418
▁spring	-9.3419
▁Let	-9.34222
▁From	-9.34245
▁entirely	-9.34278
like	-9.34342
▁remarked	-9.34508
▁expect	-9.34562
▁line	-9.34585
▁fa	-9.34891
▁Rodolphe	-9.34971
▁contrary	-9.34971
▁seized	-9.35149
ov	-9.35423
▁po	-9.35682
▁reader	-9.35706
▁sake	-9.35796
▁square	-9.35811
▁di	-9.35958
▁du	-9.36047
▁surprised	-9.3605
▁dog	-9.36132
▁forth	-9.36151
▁week	-9.36319
▁move	-9.36386
▁draw	-9.36565
▁sick	-9.36607
▁running	-9.36613
▁green	-9.36652
▁break	-9.36879
▁j	-9.36993
red	-9.37418
▁beheld	-9.3743
▁rising	-9.37431
▁tired	-9.37457
▁passion	-9.37644
Dame	-9.37652
Who	-9.37722
ot	-9.37763
ub	-9.37891
▁surprise	-9.37992
▁suppose	-9.38014
nd	-9.38036
▁meeting	-9.38178
▁ha	-9.38179
So	-9.38214
▁thick	-9.38241
▁Place	-9.38264
▁group	-9.38264
▁write	-9.38264
▁service	-9.38265
go	-9.38469
▁quietly	-9.38665
▁lead	-9.38839
her	-9.38862
▁reading	-9.38935
▁watched	-9.39019
▁waited	-9.39036
▁impression	-9.39104
▁pocket	-9.39104
▁Having	-9.39104
▁fault	-9.39104
▁warm	-9.39197
ma	-9.39346
ial	-9.39362
▁drink	-9.39399
co	-9.39654
▁ch	-9.39886
▁marriage	-9.39952
▁wrote	-9.39952
▁top	-9.39965
▁peace	-9.40224
▁Besides	-9.40287
▁brow	-9.40607
▁laughing	-9.40733
▁empty	-9.40806
▁unhappy	-9.40806
▁l	-9.40906
▁bare	-9.4105
~	-9.41115
▁grave	-9.41243
▁peasant	-9.41471
▁Society	-9.41668
▁grand	-9.41668
▁fortune	-9.41668
▁fond	-9.41704
▁cell	-9.41717
Tis	-9.4172
▁carefully	-9.41778
ber	-9.41789
▁whispered	-9.41959
▁La	-9.42002
night	-9.42058
▁sc	-9.42263
▁single	-9.42559
▁comp	-9.42658
▁charm	-9.42909
▁An	-9.43007
▁creature	-9.43445
▁h	-9.43522
▁questions	-9.43651
▁study	-9.43744
▁glanced	-9.4394
▁cat	-9.43942
▁walking	-9.44126
▁N	-9.44285
▁English	-9.44287
▁XI	-9.44294
▁Veslovsky	-9.443
▁confused	-9.443
▁afterwards	-9.44302
▁moving	-9.44308
▁meaning	-9.44647
▁address	-9.44664
tic	-9.44822
Not	-9.44833
▁mad	-9.44896
▁direction	-9.45063
▁future	-9.45193
▁simply	-9.45193
▁sorry	-9.45193
▁fetch	-9.45194
▁angry	-9.45194
▁Rue	-9.45205
▁allow	-9.45333
mi	-9.45387
▁cur	-9.45408
ug	-9.45569
In	-9.45667
▁per	-9.45736
▁star	-9.45828
▁worth	-9.45967
▁roof	-9.45975
▁occupied	-9.46094
▁wore	-9.46094
▁rich	-9.46105
▁ball	-9.46119
di	-9.46216
law	-9.46245
▁goat	-9.46325
▁express	-9.46412
ise	-9.46439
ned	-9.46856
▁enter	-9.46884
▁ears	-9.46906
▁comes	-9.46966
ier	-9.46972
▁sad	-9.46981
▁circle	-9.47003
▁asking	-9.4704
▁spent	-9.47051
▁frightened	-9.47105
▁difficulty	-9.47153
les	-9.47251
▁sa	-9.4727
j	-9.47312
mo	-9.47324
con	-9.47343
▁Yes	-9.47356
▁charming	-9.47574
ff	-9.47618
▁following	-9.47728
ade	-9.47901
▁These	-9.47919
▁narrow	-9.4792
▁settled	-9.48052
▁However	-9.48059
ities	-9.48067
▁cart	-9.48131
▁note	-9.48489
▁condition	-9.48776
▁Nicholas	-9.48846
▁chemist	-9.48846
▁clean	-9.48846
ened	-9.48882
▁lit	-9.49021
▁gazed	-9.49051
▁grow	-9.4906
▁early	-9.49175
▁result	-9.49722
▁horror	-9.49781
▁instead	-9.49781
▁scene	-9.49782
ating	-9.4985
▁Russian	-9.49871
▁Ch	-9.50178
▁pointed	-9.50386
▁soft	-9.50444
▁minute	-9.50484
▁By	-9.50541
▁Only	-9.50544
▁forgive	-9.50597
ou	-9.50637
▁relations	-9.50645
▁finger	-9.50696
▁broad	-9.50724
▁patient	-9.50724
▁winter	-9.50733
ach	-9.51173
▁tall	-9.5133
▁L	-9.51361
ue	-9.51419
▁serious	-9.51432
▁particular	-9.51432
ev	-9.5144
They	-9.51471
▁hate	-9.51486
▁fast	-9.51568
▁kitchen	-9.51677
▁influence	-9.51681
▁train	-9.51683
▁died	-9.51716
so	-9.51823
▁makes	-9.51827
▁stranger	-9.51902
my	-9.52032
▁reach	-9.52161
▁lower	-9.52454
▁interested	-9.5252
▁shame	-9.52553
ism	-9.52556
▁bread	-9.52605
▁obliged	-9.52638
▁explanation	-9.52638
▁nice	-9.52639
out	-9.52663
▁le	-9.52679
▁Serezha	-9.52682
we	-9.52731
▁unable	-9.52823
▁grown	-9.52825
she	-9.5289
▁drawn	-9.52901
▁taste	-9.53333
lu	-9.53366
▁Not	-9.53485
▁advantage	-9.53609
▁breakfast	-9.53609
▁breast	-9.53609
▁honour	-9.53609
▁silver	-9.53609
▁lamp	-9.53609
table	-9.53747
▁none	-9.54237
va	-9.5428
der	-9.54424
▁bottom	-9.54589
▁stupid	-9.54589
▁purpose	-9.54591
▁dull	-9.54695
▁path	-9.54738
▁below	-9.54797
ations	-9.55146
▁knows	-9.55372
▁key	-9.55581
▁duty	-9.55598
▁marry	-9.55599
▁deaf	-9.556
▁formed	-9.55658
▁disappeared	-9.55785
▁offered	-9.56098
▁O	-9.56114
▁music	-9.56305
▁nose	-9.56379
▁tower	-9.564
▁believed	-9.56522
▁flowers	-9.56562
▁Becky	-9.56579
▁Betsy	-9.56579
▁entrance	-9.56579
▁pavement	-9.56579
▁reckon	-9.56579
▁official	-9.5666
▁sh	-9.56854
▁prepared	-9.5686
▁forced	-9.56975
▁ho	-9.56983
▁faces	-9.57025
▁affairs	-9.57166
▁splendid	-9.5759
▁summer	-9.5759
▁opposite	-9.5759
▁begun	-9.57603
▁number	-9.57613
▁Constantine	-9.57617
▁finally	-9.57675
act	-9.57749
▁Some	-9.57774
X	-9.57827
▁whatever	-9.57845
▁heads	-9.5822
▁suffering	-9.5823
▁suffer	-9.58556
▁writing	-9.5861
▁laughter	-9.58649
▁guard	-9.58734
▁leaning	-9.58772
▁moments	-9.58804
▁houses	-9.59105
▁kissed	-9.59122
▁des	-9.59335
by	-9.59359
▁seated	-9.59433
▁letters	-9.59466
▁lot	-9.5949
▁written	-9.59641
▁river	-9.59641
▁hearing	-9.59704
▁shadow	-9.59785
▁habit	-9.59852
▁completely	-9.59868
▁weak	-9.60013
how	-9.60056
▁uttered	-9.60066
Where	-9.60077
od	-9.60088
▁laughed	-9.60567
▁Eyre	-9.60683
▁seven	-9.60689
▁catch	-9.60757
▁sigh	-9.60784
▁darkness	-9.60828
▁clothes	-9.6086
▁ease	-9.60943
▁stretched	-9.60961
▁spoken	-9.61088
▁bowed	-9.61095
▁quick	-9.61374
per	-9.61449
▁plain	-9.6149
▁vague	-9.6149
▁instant	-9.61491
▁books	-9.61695
▁pa	-9.61725
▁blind	-9.61735
▁divorce	-9.61735
▁grey	-9.61736
▁aware	-9.61736
▁importance	-9.61738
▁education	-9.61738
▁Thornfield	-9.61764
▁familiar	-9.61784
▁moon	-9.61795
che	-9.61839
▁shade	-9.61847
▁tear	-9.61948
what	-9.62075
▁avoid	-9.62263
▁learn	-9.62377
▁loud	-9.62446
▁agree	-9.62499
let	-9.62563
▁vi	-9.62639
▁kiss	-9.62701
▁attempt	-9.62799
▁terror	-9.62799
▁former	-9.62806
▁month	-9.63026
▁double	-9.63471
Don	-9.63731
way	-9.63817
▁gazing	-9.63874
▁hurt	-9.63875
▁tongue	-9.63877
▁excited	-9.63905
▁architecture	-9.63942
▁observed	-9.6413
qui	-9.64132
V	-9.64161
▁lie	-9.64176
▁wonder	-9.644
▁firm	-9.64717
▁comfort	-9.64929
▁gentle	-9.64938
▁enormous	-9.64961
▁yesterday	-9.64961
▁France	-9.64967
▁mistress	-9.64968
▁row	-9.65025
▁plan	-9.65093
▁slightly	-9.65102
▁touched	-9.65487
os	-9.65761
▁inter	-9.65837
art	-9.65983
▁Lydia	-9.6606
▁gently	-9.6606
▁snow	-9.66065
▁Every	-9.66067
▁Leni	-9.66068
▁latter	-9.66091
uff	-9.66167
▁Alexis	-9.66212
rate	-9.66444
▁fashion	-9.66562
▁presented	-9.6661
▁complete	-9.66651
Is	-9.66776
▁pen	-9.66936
▁months	-9.66946
▁Ingram	-9.67171
▁gallery	-9.67171
▁situation	-9.67171
▁staircase	-9.67171
▁crown	-9.67182
▁story	-9.67184
▁paid	-9.67186
▁appearance	-9.67192
rs	-9.67291
▁sea	-9.67395
▁hot	-9.67728
▁feared	-9.67739
▁ruin	-9.67812
Let	-9.68009
▁spot	-9.68056
▁shop	-9.68058
▁dare	-9.68113
▁chin	-9.68409
▁wine	-9.68561
▁Don	-9.6861
▁lifted	-9.68637
▁hanging	-9.68745
▁touch	-9.68764
▁offer	-9.69059
tion	-9.6907
▁mistake	-9.69259
▁occasion	-9.6942
▁common	-9.69427
▁pride	-9.69431
▁blame	-9.69431
▁existence	-9.69439
▁fancy	-9.69439
▁scarce	-9.69446
▁proud	-9.69449
▁intention	-9.69465
▁exactly	-9.69547
▁fallen	-9.69583
mon	-9.69635
▁promised	-9.69645
▁opening	-9.6975
▁happen	-9.69862
▁needed	-9.701
▁ro	-9.70176
▁Who	-9.70331
tive	-9.7035
▁hurry	-9.70581
▁reproach	-9.70581
▁forehead	-9.70581
▁class	-9.70583
▁awful	-9.7061
▁falling	-9.70635
▁building	-9.70699
▁Just	-9.70882
▁leg	-9.70946
Good	-9.71138
▁pan	-9.71319
ite	-9.71454
▁receive	-9.71472
▁rise	-9.71589
▁height	-9.71594
▁unpleasant	-9.71692
All	-9.71722
▁Ivanovna	-9.71743
▁Sunday	-9.71743
▁ashamed	-9.71743
▁opportunity	-9.71743
▁baby	-9.71755
▁businessman	-9.71783
▁lying	-9.71877
fer	-9.71926
▁maid	-9.71928
▁midst	-9.71944
▁experienced	-9.71981
▁working	-9.72129
ide	-9.72181
▁success	-9.7235
og	-9.72361
▁content	-9.72385
▁growing	-9.72432
▁details	-9.72472
▁Gr	-9.72617
▁Ma	-9.72783
▁eight	-9.72802
▁towers	-9.7285
▁danger	-9.72899
▁While	-9.7292
▁yellow	-9.7292
▁stairs	-9.7292
▁curious	-9.72933
▁chest	-9.72974
▁sub	-9.73136
—"	-9.73193
▁pushed	-9.7326
▁rushed	-9.73287
▁v	-9.73349
ight	-9.7341
▁Be	-9.73441
▁delight	-9.73447
▁fit	-9.73568
▁cl	-9.73792
ny	-9.73907
▁blow	-9.7402
ship	-9.74088
▁gesture	-9.7411
▁trembling	-9.7411
▁director	-9.74152
▁ceased	-9.74191
▁station	-9.7421
▁pulled	-9.74506
house	-9.74737
▁rang	-9.74739
▁expressed	-9.74815
▁bar	-9.75108
▁health	-9.75192
▁favour	-9.75309
▁bottle	-9.75315
Would	-9.75317
▁according	-9.75372
▁dry	-9.75388
▁somewhat	-9.75452
▁Pa	-9.75484
▁object	-9.75592
▁wishing	-9.75612
▁Le	-9.75646
▁affair	-9.75823
▁finish	-9.76003
Of	-9.76022
▁friendly	-9.7605
▁pause	-9.76266
▁save	-9.76341
time	-9.76373
▁labour	-9.7639
▁lo	-9.76432
▁watching	-9.76444
▁hill	-9.76486
▁cloth	-9.76515
▁conscious	-9.76532
▁Diana	-9.76535
▁cathedral	-9.76535
▁easily	-9.76535
▁example	-9.76535
▁frame	-9.76535
▁poet	-9.76556
ueen	-9.7659
ice	-9.76607
▁inquired	-9.76624
rus	-9.76742
▁looks	-9.76761
▁learned	-9.7715
br	-9.77227
▁pointing	-9.77385
▁news	-9.77406
▁imagine	-9.77496
▁gaze	-9.77513
▁special	-9.77524
▁sudden	-9.77528
▁mass	-9.77756
ile	-9.77761
▁ancient	-9.77769
▁marble	-9.77769
▁remark	-9.77773
▁shone	-9.77786
▁passage	-9.77802
▁gloomy	-9.77855
▁sought	-9.77936
▁seek	-9.78
▁dared	-9.78079
not	-9.78422
This	-9.78431
ning	-9.78443
▁leaves	-9.78736
▁servants	-9.78764
▁streets	-9.78837
▁clock	-9.78908
▁abroad	-9.79019
▁solemn	-9.79019
▁nine	-9.79022
▁dropped	-9.79028
ably	-9.79154
▁bend	-9.79284
▁knee	-9.79606
▁car	-9.79773
of	-9.79988
▁private	-9.80285
▁coachman	-9.80291
ified	-9.80536
Very	-9.80585
▁party	-9.80862
▁presently	-9.81162
▁faith	-9.81208
▁sharp	-9.81321
▁dreadful	-9.81332
▁defend	-9.8155
▁Katavasov	-9.81567
▁Nevertheless	-9.81567
▁Temple	-9.81567
▁governess	-9.81568
▁lose	-9.81599
▁putt	-9.81624
▁edge	-9.81626
▁str	-9.81653
▁dust	-9.81711
side	-9.81787
▁disturbed	-9.81902
▁utter	-9.82085
▁forest	-9.82121
▁acquaintance	-9.82225
ps	-9.82272
▁Re	-9.82323
▁field	-9.82331
For	-9.82395
▁mi	-9.82522
▁tender	-9.82586
▁escape	-9.82593
▁painful	-9.82655
ER	-9.82804
▁degree	-9.82866
▁journey	-9.82866
▁supper	-9.82866
▁thrust	-9.82866
▁honest	-9.82866
▁Even	-9.82866
▁dying	-9.82868
▁faint	-9.82869
▁tenderness	-9.82917
▁Jacques	-9.8295
▁Sid	-9.82958
▁arranged	-9.8313
▁regret	-9.83154
▁paused	-9.83157
▁ray	-9.83445
▁doors	-9.83452
▁spirits	-9.83501
▁pure	-9.83537
▁Of	-9.83607
▁carry	-9.83654
▁aid	-9.8373
▁race	-9.83822
▁qu	-9.84125
▁Italian	-9.84182
▁marsh	-9.84182
▁space	-9.84184
▁occurred	-9.84184
▁affection	-9.84196
▁desk	-9.84236
Are	-9.84287
▁su	-9.84366
▁Yet	-9.8438
▁Ho	-9.84455
▁Th	-9.84517
▁generally	-9.84699
▁carrying	-9.84735
▁Come	-9.84781
▁sighed	-9.84856
Be	-9.8514
▁experience	-9.85243
▁depend	-9.85486
▁fool	-9.85513
rstner	-9.85515
▁smooth	-9.85515
▁nevertheless	-9.85515
▁glancing	-9.8552
▁Christian	-9.85521
▁motionless	-9.85534
▁soldiers	-9.85534
▁trust	-9.85559
▁wise	-9.85635
▁stern	-9.8571
ving	-9.85873
▁approaching	-9.85981
▁amid	-9.86073
▁bow	-9.8614
chair	-9.86259
work	-9.86261
▁kill	-9.86331
▁recall	-9.86332
▁join	-9.86332
▁share	-9.86466
light	-9.86555
ries	-9.866
ING	-9.86866
▁immense	-9.86866
▁spectacle	-9.86866
▁uniform	-9.86866
▁alive	-9.86876
▁rock	-9.86905
▁Two	-9.8692
▁vain	-9.86951
▁satisfied	-9.86962
RE	-9.87026
▁ordered	-9.87029
▁perceived	-9.87045
oo	-9.8709
▁powerful	-9.87187
▁ver	-9.87204
▁ideas	-9.87205
▁rid	-9.87348
▁circumstances	-9.87526
du	-9.87585
with	-9.87626
▁officer	-9.87848
▁song	-9.87903
▁playing	-9.87906
io	-9.87973
ction	-9.88082
▁Esmeralda	-9.88236
▁accused	-9.88236
▁century	-9.88236
▁singular	-9.88236
▁carpet	-9.88236
▁flesh	-9.88237
▁stick	-9.88237
▁flat	-9.88261
▁lack	-9.88296
▁produced	-9.88336
▁trembled	-9.8834
▁rapidly	-9.88366
▁burning	-9.88563
▁recognized	-9.88573
▁wet	-9.88615
▁da	-9.8867
▁reasons	-9.88808
▁quarter	-9.8907
▁bird	-9.89085
▁mention	-9.89141
▁explained	-9.89203
▁shoes	-9.89261
▁smoke	-9.89349
▁hurried	-9.89382
▁tr	-9.89427
▁fully	-9.8953
▁involuntarily	-9.89625
▁spend	-9.89625
▁cool	-9.8968
▁plate	-9.8968
▁gay	-9.89764
▁stepp	-9.89772
▁hum	-9.89779
▁Dom	-9.89897
▁discovered	-9.8994
▁succeeded	-9.89966
ged	-9.90049
ray	-9.90213
▁nearer	-9.90249
ille	-9.90265
king	-9.90423
▁accept	-9.90495
▁edifice	-9.90502
iv	-9.90896
ich	-9.90957
▁arch	-9.90977
▁secure	-9.91034
▁speech	-9.91034
▁task	-9.91034
▁visible	-9.91034
▁shirt	-9.91034
▁drove	-9.91034
▁difference	-9.91035
▁flame	-9.9104
▁Thus	-9.91065
▁pair	-9.9108
▁suit	-9.91146
▁dining	-9.9119
nder	-9.91224
▁hurriedly	-9.91282
▁painted	-9.91344
▁va	-9.91383
▁birds	-9.91585
▁Go	-9.9183
▁addressed	-9.91885
▁boots	-9.91918
▁concern	-9.91927
▁torture	-9.92186
▁sisters	-9.92239
tu	-9.92297
▁excuse	-9.92304
▁admit	-9.92441
▁advice	-9.92462
▁afternoon	-9.92462
▁arrival	-9.92462
▁gleam	-9.92462
▁distant	-9.92462
▁meadow	-9.92462
▁merry	-9.92463
▁veil	-9.92473
▁game	-9.92475
▁doorkeeper	-9.92486
▁aunt	-9.92492
tel	-9.92578
▁exist	-9.92764
▁harm	-9.92789
▁beat	-9.92795
▁showing	-9.92802
fully	-9.92871
gi	-9.92939
▁recalled	-9.93031
ory	-9.93203
land	-9.93208
tri	-9.93585
▁crying	-9.93607
▁promise	-9.93639
▁shape	-9.93657
▁action	-9.93702
▁tree	-9.93817
▁Meanwhile	-9.93911
▁anybody	-9.93911
▁delicate	-9.93911
▁religion	-9.93911
▁tranquil	-9.93911
▁silk	-9.93912
▁evil	-9.93912
▁food	-9.93916
▁Mikhaylovna	-9.93917
▁Roman	-9.93921
▁mood	-9.93927
▁guilty	-9.93964
▁pour	-9.94052
▁intended	-9.94088
▁remind	-9.94091
▁jumped	-9.94206
▁particularly	-9.94285
ED	-9.94329
▁parents	-9.94385
▁wishes	-9.9442
are	-9.94432
▁Did	-9.94438
▁Where	-9.94772
Have	-9.94775
▁drop	-9.94903
▁played	-9.94996
▁trans	-9.95166
▁interesting	-9.9524
▁crossed	-9.95311
▁Yashvin	-9.95382
▁coffee	-9.95382
▁upstairs	-9.95382
▁busy	-9.95384
▁shaking	-9.95393
▁buy	-9.95458
▁dressing	-9.9548
▁cup	-9.95493
ah	-9.95558
▁rough	-9.95569
ga	-9.95572
▁blushed	-9.95634
▁pressing	-9.9565
▁charge	-9.95699
▁someone	-9.95734
!--	-9.95904
▁tip	-9.96272
▁pick	-9.96341
▁sorrow	-9.96346
▁expecting	-9.96393
▁visitors	-9.96426
▁cloud	-9.96438
▁companion	-9.96439
▁ru	-9.96472
▁understanding	-9.96595
▁voices	-9.96633
▁perfect	-9.96635
ay	-9.9672
▁whence	-9.96756
ments	-9.9685
▁Agath	-9.96875
▁Rouen	-9.96875
▁Yonville	-9.96875
▁cloak	-9.96875
▁lofty	-9.96875
▁thirty	-9.96875
▁stream	-9.96875
▁innocent	-9.96875
▁loose	-9.96877
▁roubles	-9.96877
▁angel	-9.96878
▁excitement	-9.96879
raising	-9.96879
▁bitter	-9.96892
▁surrounded	-9.96976
▁youth	-9.9731
▁par	-9.97428
▁Have	-9.97496
▁deeply	-9.9753
▁wants	-9.97677
▁badly	-9.97721
▁fe	-9.97789
▁conduct	-9.97849
▁support	-9.97852
▁telling	-9.97954
▁dim	-9.97987
uch	-9.98094
▁prove	-9.98247
▁continue	-9.98254
this	-9.98312
▁Clopin	-9.9839
▁German	-9.9839
▁countenance	-9.9839
▁grief	-9.9839
▁language	-9.9839
▁society	-9.9839
▁animal	-9.9839
▁forgot	-9.98394
▁profound	-9.98394
▁bedroom	-9.98554
▁gathered	-9.98584
▁sides	-9.98651
Ma	-9.98784
tre	-9.98885
ois	-9.98893
▁pin	-9.98922
−−"	-9.98985
Go	-9.99146
▁suffered	-9.99185
!...	-9.99336
▁examin	-9.99375
Mr	-9.99715
bye	-9.99852
▁gate	-9.99882
▁cruel	-9.99912
▁Lheureux	-9.99928
▁courage	-9.99928
▁indifferent	-9.99928
▁melancholy	-9.99928
▁progress	-9.99928
▁pupil	-9.99928
▁sentiment	-9.99928
▁intimate	-9.99928
▁estate	-9.99929
▁despite	-9.99935
▁sentence	-9.99967
▁stayed	-9.99984
▁footman	-9.99986
▁somewhere	-9.99992
▁golden	-10.0001
▁Lord	-10.0006
▁formerly	-10.0028
▁Nothing	-10.0029
▁na	-10.0031
▁safe	-10.0037
ched	-10.0064
▁fields	-10.0069
▁ring	-10.0086
▁torment	-10.0097
▁sha	-10.01
ON	-10.0104
▁scholar	-10.0112
▁severe	-10.0125
▁candles	-10.0142
▁Fleur	-10.0149
▁Injun	-10.0149
▁druggist	-10.0149
▁hollow	-10.0149
▁horrible	-10.0149
▁irritated	-10.0149
▁miserable	-10.0149
▁neighbor	-10.0149
▁report	-10.0149
▁velvet	-10.0149
▁Again	-10.0149
▁mud	-10.0149
▁becoming	-10.015
▁history	-10.015
▁difficulties	-10.0153
▁actually	-10.0156
▁March	-10.0156
▁anyway	-10.0161
ery	-10.0179
▁artist	-10.018
▁features	-10.0188
kin	-10.0198
▁whisper	-10.0199
▁approach	-10.0199
▁hang	-10.0202
▁custom	-10.022
▁belong	-10.0223
▁lover	-10.0224
▁willing	-10.0251
▁attack	-10.0254
▁aside	-10.0258
▁lock	-10.0258
▁colour	-10.0263
▁se	-10.0268
▁cases	-10.0274
▁regular	-10.0283
▁likely	-10.0285
▁ga	-10.0294
▁fate	-10.0296
▁Vasenka	-10.0308
▁portrait	-10.0308
▁science	-10.0308
▁virtue	-10.0308
▁capital	-10.0308
▁furniture	-10.0308
▁various	-10.0308
▁couple	-10.0308
▁consist	-10.0308
▁sank	-10.0309
▁Hall	-10.0313
▁upset	-10.0321
Aunt	-10.0331
▁perfectly	-10.0334
▁miss	-10.0338
▁agreed	-10.0349
▁fun	-10.0349
▁hide	-10.037
place	-10.0382
▁entering	-10.0404
K	-10.0409
▁pull	-10.0416
Take	-10.0434
TH	-10.0442
looking	-10.0449
▁greater	-10.0463
▁bath	-10.0465
▁keeping	-10.0466
▁brilliant	-10.0469
▁corridor	-10.0469
▁decision	-10.0469
▁emotion	-10.0469
▁nobody	-10.0469
▁knowledge	-10.0469
▁weather	-10.0469
▁cousin	-10.0469
Lys	-10.047
▁cardinal	-10.047
▁skin	-10.047
▁anger	-10.0471
▁noticing	-10.0472
▁sin	-10.0477
▁continually	-10.0478
ire	-10.0481
▁knife	-10.0484
▁refused	-10.0487
▁leant	-10.0491
they	-10.0492
▁weary	-10.0502
▁count	-10.0502
▁firmly	-10.0506
▁brown	-10.0508
rie	-10.0514
▁possessed	-10.0518
▁sla	-10.0518
▁erect	-10.0518
▁orders	-10.0571
▁prevent	-10.0579
▁hoped	-10.0593
▁cheek	-10.0605
▁struggle	-10.0605
▁stones	-10.0615
▁J	-10.0621
▁tale	-10.0621
▁efforts	-10.0625
who	-10.0631
▁Moreover	-10.0633
▁disgust	-10.0633
▁Church	-10.0633
▁otherwise	-10.0633
▁Sometimes	-10.0633
▁boat	-10.0633
▁centre	-10.0633
▁theatre	-10.0636
▁ca	-10.0638
▁philosopher	-10.064
▁forty	-10.0645
▁cost	-10.0649
bout	-10.0659
▁helped	-10.0664
lar	-10.0669
lung	-10.067
▁softly	-10.0676
▁higher	-10.0687
▁pictures	-10.0709
Your	-10.0718
▁places	-10.0721
▁Ba	-10.0734
▁movements	-10.0737
iled	-10.074
▁confess	-10.0743
▁ice	-10.0757
Here	-10.0782
▁beard	-10.0792
▁dread	-10.0798
▁resist	-10.0798
▁false	-10.0799
ron	-10.08
▁Golenishchev	-10.08
▁comrade	-10.08
▁muttered	-10.08
▁platform	-10.08
▁thread	-10.08
▁entreat	-10.08
▁attitude	-10.08
▁instance	-10.08
▁returning	-10.0801
▁flew	-10.0801
▁clever	-10.0801
▁extraordinary	-10.0801
▁trace	-10.0801
▁consciousness	-10.0807
▁Everything	-10.0812
▁required	-10.0816
▁swa	-10.0828
W	-10.0837
▁closer	-10.084
▁graceful	-10.0845
▁beg	-10.0847
▁wearing	-10.0855
▁calling	-10.0857
▁wip	-10.0861
▁mentioned	-10.0864
▁fat	-10.0872
▁wondered	-10.0883
▁wear	-10.0892
▁rate	-10.0898
▁pray	-10.0904
▁closely	-10.0906
▁farm	-10.0935
▁mental	-10.0945
▁fifteen	-10.0966
▁attend	-10.0967
▁provost	-10.0969
▁monsieur	-10.0969
▁drunk	-10.0969
▁collar	-10.0969
▁distress	-10.0969
▁vault	-10.0969
▁Helen	-10.097
▁confidence	-10.0974
▁vast	-10.0975
▁doorway	-10.098
▁justice	-10.0981
▁illness	-10.0987
▁moral	-10.0993
▁goes	-10.1011
▁served	-10.1013
▁weeks	-10.1029
ette	-10.1035
ered	-10.1064
▁murmur	-10.1088
▁wound	-10.1088
▁born	-10.109
▁rush	-10.109
▁measure	-10.1114
▁entire	-10.1117
▁bore	-10.1126
▁quarrel	-10.114
▁Turtle	-10.1142
▁bridge	-10.1142
▁chimney	-10.1142
▁command	-10.1142
▁excellent	-10.1142
▁gradually	-10.1142
▁joke	-10.1142
▁leather	-10.1142
▁twelve	-10.1142
▁yonder	-10.1142
▁correct	-10.1142
▁mystery	-10.1142
▁mercy	-10.1142
▁tail	-10.1142
▁Mason	-10.1142
▁insult	-10.1142
▁freedom	-10.1143
▁personal	-10.1143
▁cook	-10.1143
▁everywhere	-10.1145
▁nursery	-10.1147
ew	-10.1155
▁cheeks	-10.1172
▁escaped	-10.1178
▁imagined	-10.118
▁clouds	-10.1192
air	-10.121
▁mis	-10.121
▁ways	-10.121
▁killed	-10.121
▁lines	-10.1211
▁fill	-10.1216
ui	-10.1242
▁thank	-10.1242
Jane	-10.1257
When	-10.1257
▁pretend	-10.1261
▁lift	-10.1264
▁demand	-10.1264
cle	-10.1279
▁anxious	-10.1292
▁slow	-10.1295
▁cal	-10.1297
▁Alexander	-10.1317
▁Ivanich	-10.1317
▁steward	-10.1317
▁consequence	-10.1317
ttle	-10.1318
▁connection	-10.1319
▁flung	-10.132
▁beam	-10.132
▁greatly	-10.1321
▁handkerchief	-10.1323
▁fish	-10.1324
▁lace	-10.1342
Thank	-10.1342
▁removed	-10.1347
▁knocked	-10.1351
aking	-10.1364
▁demanded	-10.1371
▁hid	-10.1388
▁joined	-10.1394
▁papers	-10.1396
▁direct	-10.1416
▁enjoy	-10.1437
▁fail	-10.1448
▁persons	-10.1452
▁fro	-10.1477
▁Russia	-10.1478
▁Brocklehurst	-10.1496
▁Frollo	-10.1496
▁Marshal	-10.1496
▁ceiling	-10.1496
▁eternal	-10.1496
▁exercise	-10.1496
▁liberty	-10.1496
▁phrase	-10.1496
▁sensation	-10.1496
▁similar	-10.1496
▁brain	-10.1496
▁moreover	-10.1496
▁storm	-10.1496
▁tick	-10.1496
▁twice	-10.1496
▁ladder	-10.1496
▁organ	-10.1497
▁cor	-10.1497
▁wings	-10.1499
▁stir	-10.1501
▁usher	-10.1506
▁vanished	-10.1507
▁behold	-10.1512
bri	-10.1515
▁hay	-10.1523
▁reflected	-10.1529
▁worked	-10.1537
▁Was	-10.1538
▁failed	-10.155
▁belonged	-10.1557
▁hated	-10.157
▁cover	-10.1573
▁intervals	-10.1576
cent	-10.1595
▁sorts	-10.1595
▁warn	-10.1602
▁lad	-10.162
▁Ah	-10.1621
▁yield	-10.1624
▁sheet	-10.1638
ound	-10.164
arm	-10.1642
▁dance	-10.1644
▁sole	-10.1645
▁bearing	-10.1653
▁gloom	-10.1664
▁inside	-10.1666
▁"~	-10.1672
▁Rivers	-10.1677
▁Tristan	-10.1677
▁bonnet	-10.1677
▁choice	-10.1677
▁conclusion	-10.1677
▁misfortune	-10.1677
▁throng	-10.1677
▁treasure	-10.1677
▁unusual	-10.1677
▁widow	-10.1677
▁Though	-10.1677
▁job	-10.1677
▁straw	-10.1677
▁glow	-10.168
▁convinced	-10.1682
▁mingled	-10.1684
ky	-10.1685
▁assumed	-10.1685
▁everyone	-10.1696
▁descended	-10.1705
even	-10.1713
▁sing	-10.1718
▁consideration	-10.1718
▁flu	-10.1742
was	-10.1742
▁desired	-10.1774
book	-10.1806
Did	-10.1808
▁flash	-10.1809
▁push	-10.1809
▁crack	-10.181
there	-10.1822
▁im	-10.1823
▁curtain	-10.1861
▁wake	-10.1862
▁Alexandrovich	-10.1863
▁Gryphon	-10.1863
▁Hatter	-10.1863
▁anxiety	-10.1863
▁conscience	-10.1863
▁palace	-10.1863
▁slept	-10.1863
▁absence	-10.1863
Those	-10.1863
▁loving	-10.1863
▁frock	-10.1864
▁Pope	-10.1864
▁robe	-10.1865
▁manage	-10.1868
▁absorbed	-10.1868
▁Count	-10.1869
▁resolved	-10.1869
▁student	-10.187
▁tiny	-10.1871
▁jealousy	-10.1874
▁introduced	-10.1877
cul	-10.1882
.−−	-10.189
▁yard	-10.1894
▁accustomed	-10.19
▁sum	-10.1929
▁band	-10.1931
▁concerned	-10.1933
▁hole	-10.1936
▁examined	-10.1941
▁races	-10.195
use	-10.1953
rum	-10.1958
▁miles	-10.1978
Just	-10.1991
ank	-10.2023
▁separate	-10.2024
▁slight	-10.2025
▁soldier	-10.2049
▁England	-10.2051
▁Grubach	-10.2051
▁engaged	-10.2051
▁imagination	-10.2051
▁landowner	-10.2051
▁swear	-10.2051
▁sympathy	-10.2051
▁contact	-10.2051
▁request	-10.2051
▁worn	-10.2051
▁Lowood	-10.2051
▁lord	-10.2051
▁shining	-10.2051
▁stiff	-10.2053
▁witness	-10.2055
▁apartment	-10.2058
▁wooden	-10.2064
▁conditions	-10.2066
▁Your	-10.2068
▁slipped	-10.2074
▁button	-10.2089
▁fly	-10.2093
▁wretched	-10.2094
▁statue	-10.211
▁farming	-10.2114
wn	-10.2115
▁weight	-10.2115
ency	-10.2129
▁search	-10.2134
▁shout	-10.2137
▁sounded	-10.2138
val	-10.2153
▁tri	-10.2163
▁possess	-10.2181
▁princes	-10.2184
▁ye	-10.2204
▁cure	-10.2234
▁neighbour	-10.2243
▁elbow	-10.2244
▁Charmolue	-10.2244
▁accompanied	-10.2244
▁fifty	-10.2244
▁murder	-10.2244
▁mysterious	-10.2244
▁ordinary	-10.2244
▁pillow	-10.2244
▁plough	-10.2244
▁milk	-10.2244
▁earlier	-10.2244
▁delay	-10.2244
▁repent	-10.2244
▁Polly	-10.2244
▁hastily	-10.2244
▁dragged	-10.2244
▁pardon	-10.2244
▁sack	-10.2247
▁joyous	-10.2253
▁useless	-10.2256
▁control	-10.2257
▁pronounced	-10.2258
▁physical	-10.2261
▁main	-10.2272
▁mistaken	-10.2273
▁fo	-10.2278
▁documents	-10.2284
▁unless	-10.2289
▁Will	-10.2294
und	-10.2301
▁wonderful	-10.2349
▁base	-10.2356
▁proceed	-10.2385
One	-10.2403
As	-10.2411
▁advance	-10.2412
▁cheerful	-10.2416
uc	-10.2435
rous	-10.2438
▁Block	-10.244
▁recluse	-10.244
▁sombre	-10.244
▁coarse	-10.244
▁wrapp	-10.244
▁Steve	-10.244
▁retreat	-10.244
▁scattered	-10.244
▁smell	-10.244
▁proceedings	-10.2441
▁hideous	-10.2442
gh	-10.2444
▁wedding	-10.2445
▁heap	-10.2457
▁possession	-10.2458
▁claim	-10.2458
AN	-10.2463
▁advanced	-10.2467
▁fi	-10.248
▁flower	-10.2485
pan	-10.2486
▁seriously	-10.2491
▁proceeded	-10.2493
▁murmured	-10.2501
old	-10.2503
ze	-10.2506
▁picked	-10.2511
ancy	-10.2512
▁touching	-10.2538
▁aim	-10.2557
▁Ca	-10.2567
▁rent	-10.2573
▁stretch	-10.2586
▁value	-10.2612
▁raise	-10.2613
▁evident	-10.2615
▁points	-10.2619
low	-10.2625
▁indifference	-10.264
▁judgment	-10.264
▁sacrifice	-10.264
▁somebody	-10.264
▁worry	-10.264
▁Virgin	-10.264
▁bought	-10.264
▁buried	-10.264
▁sleeve	-10.264
▁sword	-10.264
▁thunder	-10.264
▁Duchess	-10.264
▁Therefore	-10.264
▁level	-10.264
▁Court	-10.264
▁hidden	-10.264
itude	-10.264
▁porch	-10.264
▁Potter	-10.2641
▁wax	-10.2641
▁information	-10.2641
▁fight	-10.2641
▁Italy	-10.2642
▁beast	-10.2642
▁OF	-10.2642
▁dangerous	-10.2643
▁farther	-10.2644
▁comfortable	-10.2645
▁pack	-10.2655
▁lovely	-10.2678
▁painting	-10.2683
▁mist	-10.2684
▁loudly	-10.2686
▁repeating	-10.2691
▁lightly	-10.2697
ught	-10.2704
▁string	-10.2731
▁ruined	-10.2736
ton	-10.2738
iff	-10.2756
some	-10.2761
ration	-10.277
▁whip	-10.2774
▁wheels	-10.2774
which	-10.2783
▁disturb	-10.2789
▁guess	-10.279
▁grace	-10.279
▁breathing	-10.2791
▁lighted	-10.28
did	-10.2816
▁jealous	-10.2831
▁Se	-10.2832
▁apart	-10.2837
▁Po	-10.2841
cy	-10.2842
▁First	-10.2844
▁Sergius	-10.2844
▁aspect	-10.2844
▁gallop	-10.2844
▁principle	-10.2844
▁pursued	-10.2844
▁worst	-10.2844
▁Presently	-10.2844
▁extent	-10.2844
▁bishop	-10.2844
▁accent	-10.2844
▁vision	-10.2844
▁sofa	-10.2845
▁stirred	-10.2845
▁Still	-10.2846
▁unknown	-10.2846
▁hatred	-10.2848
▁passionate	-10.2849
▁chill	-10.2849
▁jacket	-10.2849
▁lightning	-10.2851
▁cave	-10.2852
▁serve	-10.2852
▁due	-10.2853
▁upright	-10.2854
▁maybe	-10.2855
▁hint	-10.2855
come	-10.2863
▁tied	-10.2863
▁worthy	-10.2873
▁managed	-10.2874
▁offended	-10.288
ark	-10.288
▁upper	-10.2882
▁rank	-10.2894
▁shown	-10.2925
▁whi	-10.2958
▁event	-10.2959
▁hit	-10.2984
Perhaps	-10.2991
cast	-10.2992
▁mark	-10.2996
▁plans	-10.2999
▁shadows	-10.3023
▁ended	-10.3026
▁unexpected	-10.3027
▁sufficient	-10.3027
▁rule	-10.3028
▁XX	-10.3029
▁officials	-10.3035
▁careful	-10.3036
▁bourgeois	-10.3052
▁curiosity	-10.3052
▁instinct	-10.3052
▁machine	-10.3052
▁majesty	-10.3052
▁nervous	-10.3052
▁beggar	-10.3052
▁praise	-10.3052
▁aloud	-10.3052
▁francs	-10.3052
▁Rome	-10.3054
▁Hence	-10.3058
▁spare	-10.306
▁considerable	-10.3062
▁abruptly	-10.3063
▁arrangement	-10.3064
▁Pierre	-10.3064
line	-10.3066
▁relation	-10.307
▁fastened	-10.3077
▁directly	-10.3081
▁separated	-10.3082
▁prayer	-10.3083
~,	-10.3088
▁collect	-10.3097
▁saved	-10.3099
--'	-10.3111
▁directed	-10.3115
▁calmly	-10.3151
ches	-10.3161
don	-10.3166
▁names	-10.3174
▁dreams	-10.3174
▁troubled	-10.3174
can	-10.3203
oe	-10.3204
▁bag	-10.321
▁distinguish	-10.3211
▁pieces	-10.3222
▁horizon	-10.3248
▁figures	-10.3264
▁Oudarde	-10.3265
▁Stahl	-10.3265
▁angrily	-10.3265
▁deputy	-10.3265
▁individual	-10.3265
▁defence	-10.3265
▁block	-10.3265
▁invalid	-10.3265
▁material	-10.3265
▁shelter	-10.3265
▁attractive	-10.3266
▁sang	-10.3268
▁stage	-10.3271
▁sell	-10.3277
▁frowning	-10.3288
▁wave	-10.3293
▁roofs	-10.3294
▁condemned	-10.3296
▁sleeping	-10.331
▁naturally	-10.3331
ther	-10.3338
▁supposed	-10.3355
▁depths	-10.3361
▁fan	-10.3369
look	-10.337
Our	-10.3372
▁Mo	-10.3373
▁repeat	-10.3374
AT	-10.34
▁Mar	-10.3403
rin	-10.3409
▁happens	-10.3412
▁accord	-10.3427
▁succeed	-10.3429
▁strain	-10.343
▁gain	-10.3446
▁partly	-10.345
▁lives	-10.3451
EN	-10.3451
▁recognize	-10.3468
▁employ	-10.348
rab	-10.3481
▁thou	-10.3482
▁Europe	-10.3482
▁awkward	-10.3482
▁border	-10.3482
▁contrast	-10.3482
▁nonsense	-10.3482
▁prospect	-10.3482
▁reputation	-10.3482
▁foreign	-10.3482
▁suspicion	-10.3482
hearted	-10.3482
▁profit	-10.3482
▁ornament	-10.3482
▁adventure	-10.3482
▁store	-10.3487
▁relief	-10.3488
▁portion	-10.3489
▁hungry	-10.3489
▁lawyers	-10.3492
▁absolutely	-10.3495
▁cake	-10.3498
▁rope	-10.3501
▁Once	-10.3503
▁Ga	-10.3504
mme	-10.3513
▁blushing	-10.3521
▁faithful	-10.3544
natured	-10.3545
▁noble	-10.3546
▁pot	-10.3549
▁locked	-10.3556
▁tar	-10.3592
▁seeking	-10.36
shed	-10.3603
▁goodness	-10.3621
▁meal	-10.363
Will	-10.3644
glass	-10.3644
▁sire	-10.3645
▁rooms	-10.3646
lin	-10.3649
?...	-10.366
▁Pr	-10.3672
▁extreme	-10.368
cap	-10.3682
▁kindly	-10.3686
▁Christ	-10.3703
▁bailiff	-10.3704
▁column	-10.3704
▁energy	-10.3704
▁resolution	-10.3704
▁throat	-10.3704
▁scythe	-10.3704
▁eleven	-10.3704
▁bride	-10.3705
▁Thatcher	-10.3705
Listen	-10.3705
▁property	-10.3706
▁proof	-10.3706
▁kingdom	-10.3707
▁manufacturer	-10.3707
▁frightful	-10.3708
Dieu	-10.3708
▁connected	-10.371
▁anywhere	-10.3711
▁add	-10.3711
▁remembering	-10.3712
▁size	-10.3714
▁acquired	-10.3715
▁sobs	-10.3715
▁weakness	-10.3715
▁constantly	-10.3716
▁sand	-10.3723
▁realized	-10.3738
▁burnt	-10.3744
ify	-10.375
▁concealed	-10.3756
uck	-10.3758
▁Or	-10.3767
tro	-10.3769
An	-10.3772
▁singing	-10.3773
▁rested	-10.3787
▁learnt	-10.379
▁officers	-10.38
▁cro	-10.3805
▁match	-10.3808
▁silently	-10.3815
▁kissing	-10.3821
run	-10.3824
▁judges	-10.3828
ax	-10.3833
▁inward	-10.3837
▁sooner	-10.3849
▁coldly	-10.3858
▁arrest	-10.3878
▁Li	-10.3883
▁haste	-10.3885
cing	-10.3885
▁beating	-10.3892
gue	-10.3897
▁arrange	-10.3898
?--	-10.3898
▁decide	-10.3905
▁definite	-10.3907
▁rare	-10.3911
dom	-10.3915
turn	-10.3921
▁motion	-10.3931
▁waist	-10.3932
▁Coppenole	-10.3932
▁Mahiette	-10.3932
▁Suddenly	-10.3932
▁agitation	-10.3932
▁audience	-10.3932
▁confusion	-10.3932
▁desperate	-10.3932
▁downstairs	-10.3932
▁driving	-10.3932
▁populace	-10.3932
▁religious	-10.3932
▁period	-10.3932
▁vivid	-10.3932
▁nodded	-10.3932
▁spiritual	-10.3932
▁dispute	-10.3932
▁style	-10.3932
▁novel	-10.3932
fect	-10.3932
Frou	-10.3932
▁furious	-10.3933
nted	-10.3933
▁club	-10.3933
▁image	-10.3933
▁angle	-10.3934
▁grant	-10.3934
▁trap	-10.3935
▁authority	-10.3935
▁dirty	-10.3935
▁thoroughly	-10.3936
▁yours	-10.3937
▁hotel	-10.3938
scrib	-10.3938
▁loss	-10.3939
▁Guillaume	-10.3939
▁bone	-10.394
▁curtains	-10.394
▁demon	-10.3943
▁astonished	-10.3946
▁gun	-10.3948
▁recollection	-10.3956
▁frequently	-10.3956
▁cage	-10.3957
▁stars	-10.3958
▁shooting	-10.3963
▁lies	-10.3967
▁interests	-10.3973
▁Tell	-10.3975
▁gown	-10.3976
▁shuddered	-10.3981
▁marked	-10.3991
tree	-10.4
▁island	-10.4004
▁burn	-10.4014
ls	-10.4015
▁Nor	-10.4018
▁onto	-10.4027
▁soup	-10.4027
▁Com	-10.4034
▁avoided	-10.4048
▁bells	-10.405
▁pur	-10.4058
post	-10.4061
iness	-10.4076
▁breaking	-10.4086
▁Ro	-10.4089
ix	-10.4101
ST	-10.4102
Because	-10.4103
▁today	-10.4104
▁conceal	-10.4111
▁shock	-10.4113
▁spoil	-10.4123
▁forms	-10.4139
▁previous	-10.414
▁frequent	-10.414
▁recollect	-10.414
stone	-10.4141
▁mighty	-10.4145
Had	-10.4146
▁shake	-10.4149
▁views	-10.4149
▁proper	-10.415
▁considering	-10.4153
▁author	-10.4161
▁Egypt	-10.4163
▁Gateshead	-10.4164
▁Gothic	-10.4164
▁Rabbit	-10.4164
▁balustrade	-10.4164
▁determined	-10.4164
▁external	-10.4164
▁fruit	-10.4164
▁huge	-10.4164
▁possibility	-10.4164
▁trunk	-10.4164
▁vigorous	-10.4164
▁Before	-10.4164
▁jaw	-10.4164
▁article	-10.4164
▁comprehend	-10.4164
▁damp	-10.4165
▁magic	-10.4165
▁float	-10.4165
▁roused	-10.4165
▁departure	-10.4165
▁sprang	-10.4165
▁household	-10.4167
▁fence	-10.4168
At	-10.417
▁forgetting	-10.4171
ility	-10.4173
▁apparently	-10.4184
▁original	-10.4187
ized	-10.4191
elle	-10.4192
▁thanks	-10.4193
▁halted	-10.4201
▁abandoned	-10.4203
▁opinions	-10.4204
▁hills	-10.4211
bar	-10.4216
▁sounds	-10.4217
▁instantly	-10.4219
▁board	-10.4224
▁shouting	-10.4232
▁teach	-10.4235
eak	-10.4251
▁actions	-10.4252
▁slip	-10.4252
tting	-10.4262
ux	-10.4265
▁turns	-10.4265
iddle	-10.4311
▁eating	-10.4335
▁discover	-10.4336
board	-10.4344
thrown	-10.4345
▁remains	-10.4348
▁maintain	-10.4348
▁wretch	-10.4349
▁laws	-10.4356
Tom	-10.4373
▁unfortunate	-10.4378
▁violent	-10.4378
▁exact	-10.4381
By	-10.439
▁whil	-10.4392
▁endure	-10.4394
▁triumph	-10.4401
▁Georgiana	-10.4402
▁dancing	-10.4402
▁feeble	-10.4402
▁intelligent	-10.4402
▁lantern	-10.4402
▁ridiculous	-10.4402
▁strike	-10.4402
▁Laska	-10.4402
▁check	-10.4402
▁carved	-10.4402
▁betray	-10.4403
▁march	-10.4403
▁mountain	-10.4403
▁drank	-10.4403
▁Pont	-10.4404
▁stuff	-10.4406
▁satisfaction	-10.4408
▁fury	-10.4412
▁purse	-10.4414
▁chosen	-10.4415
▁overcome	-10.4415
▁attentively	-10.4418
▁et	-10.4418
▁wandered	-10.4423
▁chatter	-10.4427
Can	-10.4428
▁bench	-10.4437
▁mat	-10.4441
▁rendered	-10.4449
▁sew	-10.4449
▁rolled	-10.4449
▁risen	-10.4455
▁mounted	-10.4455
▁cares	-10.4457
▁hopes	-10.4468
▁Perhaps	-10.4473
▁ban	-10.4476
▁flow	-10.4491
off	-10.4514
▁lately	-10.4522
pose	-10.4545
cha	-10.4572
ease	-10.4578
~!	-10.4583
Monsieur	-10.4586
when	-10.4586
▁mount	-10.4592
▁alarm	-10.4592
rant	-10.461
LE	-10.4614
▁wi	-10.4625
▁prayers	-10.463
▁super	-10.4641
▁superior	-10.4643
▁cigar	-10.4646
niversity	-10.4646
▁Olivier	-10.4646
▁burden	-10.4646
▁choose	-10.4646
▁divided	-10.4646
▁hospital	-10.4646
▁livres	-10.4646
▁pillory	-10.4646
▁grateful	-10.4646
▁independent	-10.4646
▁Both	-10.4646
▁animated	-10.4646
▁oak	-10.4646
▁leap	-10.4646
▁season	-10.4646
▁horn	-10.4647
▁debt	-10.4647
ole	-10.4647
▁wholly	-10.4648
▁armed	-10.465
▁flight	-10.465
▁retired	-10.4655
▁embarrassed	-10.4656
▁tw	-10.4657
Leave	-10.466
▁discussion	-10.4661
ification	-10.4665
▁stable	-10.4665
▁kisses	-10.4666
▁hastened	-10.4672
▁deserted	-10.4678
▁bill	-10.4708
▁gates	-10.471
▁union	-10.4719
▁flying	-10.4719
▁hearth	-10.4728
▁soil	-10.4731
chi	-10.4768
▁Good	-10.4778
▁Mama	-10.4782
▁lowered	-10.4788
▁rage	-10.48
▁temper	-10.4817
▁acted	-10.4818
▁lessons	-10.4822
▁fled	-10.483
just	-10.4831
▁chairs	-10.4834
will	-10.4836
▁shudder	-10.4843
▁cord	-10.4854
▁parted	-10.4863
▁mama	-10.4864
▁refuse	-10.4869
▁rules	-10.488
▁mill	-10.4886
▁principal	-10.4892
▁Felicite	-10.4896
▁Hannah	-10.4896
▁accident	-10.4896
▁acquittal	-10.4896
▁benefit	-10.4896
▁crime	-10.4896
▁limit	-10.4896
▁midnight	-10.4896
▁military	-10.4896
▁ourselves	-10.4896
▁threshold	-10.4896
▁uncomfortable	-10.4896
▁withdrew	-10.4896
▁built	-10.4896
▁depriv	-10.4896
▁prompt	-10.4896
▁groan	-10.4896
▁lonely	-10.4896
▁memories	-10.4896
▁risk	-10.4896
▁Peter	-10.4896
▁folded	-10.4896
▁print	-10.4896
▁stopping	-10.4896
▁policemen	-10.4897
▁Papa	-10.4897
▁hedge	-10.4899
▁harness	-10.4899
CH	-10.4901
▁incessantly	-10.4902
▁project	-10.4904
▁overcoat	-10.4904
▁reality	-10.4908
▁invited	-10.491
▁revealed	-10.4915
▁nobles	-10.4919
▁extremely	-10.4924
▁proved	-10.4942
▁corn	-10.4953
▁Can	-10.4958
now	-10.4968
▁prevented	-10.4979
▁slate	-10.4993
▁term	-10.4993
▁linen	-10.5011
ES	-10.503
Sh	-10.5036
▁observe	-10.5064
▁IN	-10.5072
▁prepar	-10.5078
Nothing	-10.5092
▁scream	-10.5097
▁treat	-10.5097
▁restrain	-10.5098
▁disappear	-10.5099
~.	-10.5102
▁win	-10.5103
mmed	-10.512
▁char	-10.5123
▁timid	-10.5125
▁rapid	-10.5125
▁sufferings	-10.5128
▁embroider	-10.514
▁submit	-10.5151
▁Arkadyevna	-10.5153
▁Coictier	-10.5153
▁Colonel	-10.5153
▁Harper	-10.5153
▁Philip	-10.5153
▁Serpukhovskoy	-10.5153
▁instrument	-10.5153
▁shriek	-10.5153
▁snatch	-10.5153
▁sunshine	-10.5153
▁supervisor	-10.5153
▁survey	-10.5153
▁tumult	-10.5153
▁brass	-10.5153
▁darling	-10.5153
▁civil	-10.5153
▁solitude	-10.5153
▁divine	-10.5153
▁blew	-10.5153
▁railway	-10.5153
▁cattle	-10.5153
▁attain	-10.5154
▁Grace	-10.5154
▁conviction	-10.5154
▁stroke	-10.5155
▁couch	-10.5155
▁shot	-10.5155
▁friendship	-10.5157
▁coach	-10.5157
▁mansion	-10.5158
▁remarkable	-10.5158
▁Such	-10.5158
▁branches	-10.516
▁useful	-10.5162
▁increased	-10.5165
▁dancer	-10.5173
▁distinctly	-10.5175
▁deny	-10.5176
▁bored	-10.5177
▁timidly	-10.5177
▁TO	-10.5178
▁behave	-10.5187
▁declared	-10.5196
▁bu	-10.5203
▁shoe	-10.5222
▁reflection	-10.5222
Ho	-10.5229
▁handed	-10.5235
▁nu	-10.5249
▁dogs	-10.5252
hood	-10.5254
▁successful	-10.5268
▁curse	-10.5275
▁resemble	-10.5279
▁qua	-10.5343
▁consent	-10.5362
▁indicat	-10.5362
▁jump	-10.5362
box	-10.5363
OR	-10.5375
ien	-10.5379
▁De	-10.5407
▁cheer	-10.5415
▁conc	-10.5416
▁Rouault	-10.5416
▁anguish	-10.5416
▁bosom	-10.5416
▁cheese	-10.5416
▁encourage	-10.5416
▁formidable	-10.5416
▁gibbet	-10.5416
▁merrily	-10.5416
▁necessity	-10.5416
▁sermon	-10.5416
▁shawl	-10.5416
▁apple	-10.5416
▁bellringer	-10.5416
▁entertain	-10.5416
▁jury	-10.5416
▁stool	-10.5416
▁welcome	-10.5416
▁monster	-10.5416
▁magnificent	-10.5416
▁shiver	-10.5416
▁comment	-10.5416
▁social	-10.5416
▁costume	-10.5416
▁changing	-10.5416
▁dawn	-10.5417
▁disagreeable	-10.5417
▁harsh	-10.5417
▁battle	-10.5417
▁curls	-10.5417
▁nest	-10.5418
▁Seine	-10.5418
Shall	-10.5418
▁panting	-10.542
▁slightest	-10.5421
▁pink	-10.5422
▁scent	-10.5427
▁inclined	-10.543
long	-10.543
▁setting	-10.5432
stand	-10.5434
▁announced	-10.5435
!−−	-10.5438
▁previously	-10.5444
▁Tour	-10.5447
▁citizens	-10.545
▁deceived	-10.5451
▁delightful	-10.5454
▁destroyed	-10.5458
▁bark	-10.5464
▁Look	-10.5472
▁Never	-10.5472
:--	-10.5483
▁reli	-10.5489
ans	-10.5496
▁sl	-10.5533
ator	-10.5534
pon	-10.5544
car	-10.5565
▁vagabonds	-10.5568
▁parts	-10.5579
▁scar	-10.5583
▁drinking	-10.5591
▁leading	-10.5592
aux	-10.5613
▁lively	-10.5618
Please	-10.5625
Miss	-10.5626
▁awake	-10.5633
door	-10.5652
▁insist	-10.5658
▁require	-10.5659
▁consult	-10.5673
▁wealth	-10.5673
▁tables	-10.5674
incomprehensible	-10.5686
▁easier	-10.5686
▁expense	-10.5686
▁monument	-10.5686
▁moustache	-10.5686
▁refuge	-10.5686
▁reserve	-10.5686
▁savage	-10.5686
▁skirt	-10.5686
▁striking	-10.5686
▁telegram	-10.5686
▁cherish	-10.5686
▁summit	-10.5686
▁egg	-10.5686
▁dumb	-10.5686
▁keen	-10.5686
▁Greek	-10.5686
▁hoping	-10.5686
▁permission	-10.5687
▁unconscious	-10.5687
▁wept	-10.5688
▁daily	-10.5688
▁humble	-10.569
▁fever	-10.5691
▁hunt	-10.5691
▁cries	-10.5691
▁madame	-10.5693
▁torn	-10.5699
▁issue	-10.5701
▁noon	-10.5702
▁schoolroom	-10.5702
▁VII	-10.5705
▁vexed	-10.5706
▁talent	-10.5707
▁prisoner	-10.5713
▁sufficiently	-10.5718
▁emb	-10.5721
▁attached	-10.5724
▁flatter	-10.573
af	-10.5734
▁specially	-10.5741
▁rear	-10.5751
▁guests	-10.5754
▁subjects	-10.5754
▁distinguished	-10.5755
Ch	-10.5756
cade	-10.5759
▁gloves	-10.5782
▁visitor	-10.5794
▁lesson	-10.58
▁nails	-10.5809
▁Are	-10.5818
mar	-10.5827
▁resembl	-10.5829
▁knock	-10.5854
▁bars	-10.5855
▁roll	-10.5875
▁plac	-10.5886
▁corners	-10.5897
though	-10.5903
▁alter	-10.5911
▁plant	-10.5915
▁render	-10.5919
▁habits	-10.5925
▁See	-10.5929
▁distinct	-10.5933
▁lu	-10.5935
▁arrive	-10.5937
▁respectful	-10.5937
▁brief	-10.5939
▁settle	-10.5942
▁equal	-10.5945
▁execut	-10.5952
▁mor	-10.596
▁fulfil	-10.5962
▁permit	-10.5962
▁Mikhaylov	-10.5963
▁Alexandrovna	-10.5964
▁Dormouse	-10.5964
▁accompany	-10.5964
▁acquainted	-10.5964
▁activity	-10.5964
▁altogether	-10.5964
▁amazement	-10.5964
▁ambition	-10.5964
▁contempt	-10.5964
▁glory	-10.5964
▁intelligence	-10.5964
▁mirror	-10.5964
▁Dmitrich	-10.5964
▁achieve	-10.5964
▁current	-10.5964
▁grimace	-10.5964
▁absent	-10.5964
▁duties	-10.5964
▁trifle	-10.5964
▁pipe	-10.5964
▁Binet	-10.5964
▁gift	-10.5964
▁Latin	-10.5964
▁abyss	-10.5964
▁flee	-10.5964
▁dissatisfied	-10.5964
▁hostile	-10.5964
▁rosy	-10.5965
hapter	-10.5965
▁leaf	-10.5965
▁naive	-10.5968
▁chime	-10.5969
▁procession	-10.5969
▁troubles	-10.5974
▁daylight	-10.5979
On	-10.598
bur	-10.5982
▁Justin	-10.5983
▁admired	-10.599
▁crushed	-10.5994
▁frowned	-10.5994
▁fatal	-10.6004
▁outline	-10.6005
▁fist	-10.6006
▁replac	-10.6008
▁haven	-10.6008
▁stronger	-10.6014
itting	-10.6015
▁kindness	-10.6018
▁painfully	-10.6019
AL	-10.6023
▁WA	-10.6026
▁plainly	-10.603
▁scholars	-10.6031
▁Shcherbatsky	-10.6053
▁tormented	-10.6061
▁missed	-10.6061
▁supported	-10.6064
▁ringing	-10.6068
▁appears	-10.6069
▁limbs	-10.6074
wer	-10.6074
▁satin	-10.6076
▁army	-10.6101
▁pillars	-10.6102
▁Al	-10.611
▁drawers	-10.6117
▁discuss	-10.6122
hole	-10.6132
▁staring	-10.6136
▁Shcherbatskys	-10.6158
▁bother	-10.6162
▁needs	-10.6162
owl	-10.6168
▁powers	-10.6172
▁ob	-10.6176
▁terms	-10.6177
while	-10.6188
With	-10.6189
▁reflect	-10.6192
▁lap	-10.6214
▁bless	-10.6219
▁apparent	-10.6225
▁final	-10.6225
yard	-10.6237
▁protect	-10.6247
cor	-10.6247
▁Grisha	-10.625
▁Jupiter	-10.625
▁Pestsov	-10.625
▁absurd	-10.625
▁admiration	-10.625
▁balcony	-10.625
▁contract	-10.625
▁disgrace	-10.625
▁elegant	-10.625
▁encounter	-10.625
▁glimpse	-10.625
▁incident	-10.625
▁obstacle	-10.625
▁seldom	-10.625
▁snipe	-10.625
▁uneasy	-10.625
▁woke	-10.625
▁taught	-10.625
▁design	-10.625
▁relieved	-10.625
▁Three	-10.625
▁bald	-10.625
▁creak	-10.625
▁speed	-10.625
▁basin	-10.625
▁moonlight	-10.6251
▁tax	-10.6252
▁error	-10.6252
where	-10.6253
▁opera	-10.6253
▁gray	-10.6255
▁senses	-10.6255
▁portal	-10.6257
▁bedside	-10.6257
▁Grand	-10.6261
▁strangers	-10.6262
▁guide	-10.6265
▁bull	-10.6269
▁assured	-10.6274
▁equally	-10.6276
▁properly	-10.628
ook	-10.6295
▁mare	-10.63
▁paint	-10.6306
▁dash	-10.631
▁treated	-10.631
▁wit	-10.6312
▁hunger	-10.6317
La	-10.632
▁flag	-10.6322
▁tin	-10.6329
▁prop	-10.6344
▁wheel	-10.6348
▁whispering	-10.6351
▁stepping	-10.6366
▁contented	-10.6382
▁labourers	-10.6392
Like	-10.6422
▁forces	-10.6423
▁tro	-10.6425
▁pages	-10.6427
▁trot	-10.6456
▁younger	-10.6463
▁paying	-10.6473
pass	-10.6475
Look	-10.6481
porter	-10.6483
▁breathed	-10.6488
▁grasp	-10.649
▁climb	-10.649
▁invent	-10.649
▁fix	-10.6494
ium	-10.6511
▁admire	-10.6516
▁bold	-10.6517
▁elder	-10.6519
▁deceive	-10.6523
▁pile	-10.6523
▁trick	-10.6535
rown	-10.6539
▁bush	-10.6539
▁Oliver	-10.6544
▁Petritsky	-10.6544
▁Sawyer	-10.6544
▁ambassador	-10.6544
▁centuries	-10.6544
▁concluded	-10.6544
▁district	-10.6544
▁drift	-10.6544
▁gratitude	-10.6544
▁impatience	-10.6544
▁medicine	-10.6544
▁mushroom	-10.6544
▁nerve	-10.6544
▁possibly	-10.6544
▁trousers	-10.6544
▁flood	-10.6544
▁strict	-10.6544
▁naked	-10.6544
▁pounds	-10.6544
▁elbows	-10.6544
▁steal	-10.6544
▁Samsa	-10.6544
▁Porte	-10.6544
▁brave	-10.6544
▁arose	-10.6544
▁jerk	-10.6544
▁Another	-10.6545
▁dismal	-10.6545
▁hook	-10.6545
▁favourite	-10.6545
▁spire	-10.6546
▁earn	-10.6547
▁market	-10.6547
▁imitat	-10.6547
▁sold	-10.6547
▁Hare	-10.6547
▁childhood	-10.6548
▁meantime	-10.6548
▁admitted	-10.6549
▁rude	-10.6549
▁stout	-10.6549
▁scale	-10.6549
▁stain	-10.655
▁nation	-10.655
▁events	-10.6554
▁heavily	-10.6555
▁agriculture	-10.6556
▁test	-10.6567
▁tomb	-10.6567
▁moor	-10.6574
elf	-10.6577
▁begged	-10.6582
▁flushed	-10.6584
take	-10.6591
▁altered	-10.6601
▁dwell	-10.6603
▁deeper	-10.6606
▁lion	-10.6614
▁Am	-10.662
▁porter	-10.6625
▁yielded	-10.6632
ists	-10.6634
▁pace	-10.6645
▁den	-10.6647
▁freely	-10.667
▁signs	-10.6671
▁mile	-10.6672
▁career	-10.669
▁wondering	-10.6697
▁cling	-10.6697
▁Co	-10.6706
▁attic	-10.672
▁gives	-10.6742
▁highly	-10.6749
▁fur	-10.6775
J	-10.6786
foot	-10.6787
Never	-10.679
▁recover	-10.6793
▁offend	-10.6793
try	-10.6808
▁port	-10.6812
▁despise	-10.6819
▁press	-10.682
▁impatient	-10.6822
▁Con	-10.6834
▁Lefrancois	-10.6847
▁Province	-10.6847
▁basket	-10.6847
▁cloister	-10.6847
▁disorder	-10.6847
▁eyebrows	-10.6847
▁fatigue	-10.6847
▁humiliation	-10.6847
▁kick	-10.6847
▁knave	-10.6847
▁library	-10.6847
▁nostrils	-10.6847
▁plenty	-10.6847
▁revolt	-10.6847
▁symbol	-10.6847
▁twilight	-10.6847
▁volume	-10.6847
▁closing	-10.6847
▁fancied	-10.6847
▁modern	-10.6847
▁wrath	-10.6847
▁physician	-10.6847
▁waistcoat	-10.6847
▁region	-10.6847
▁House	-10.6848
▁enclosure	-10.6848
▁boil	-10.6848
▁afar	-10.6848
Darya	-10.6848
▁chapel	-10.6848
hether	-10.6849
▁impart	-10.685
▁clad	-10.6851
▁honor	-10.6853
▁washing	-10.6854
▁urged	-10.6858
▁recognised	-10.6858
▁dish	-10.6858
▁host	-10.6864
▁reward	-10.6865
▁fri	-10.6867
▁proposed	-10.6869
▁hopeless	-10.6874
▁highest	-10.6878
▁pet	-10.6881
▁million	-10.6884
any	-10.6884
▁clasped	-10.6889
▁obeyed	-10.6891
▁delivered	-10.6896
Little	-10.6898
Sir	-10.6902
▁insisted	-10.6908
▁feels	-10.691
▁Please	-10.6916
▁Because	-10.6927
▁tie	-10.6934
▁breathe	-10.6938
▁drops	-10.6945
▁occupation	-10.6962
▁longed	-10.6963
▁larger	-10.6963
▁detail	-10.6964
▁boot	-10.6965
other	-10.6973
▁resting	-10.6974
▁delighted	-10.6987
az	-10.6999
▁acquaintances	-10.6999
▁learning	-10.7007
▁remarks	-10.7017
▁gap	-10.7021
▁heat	-10.7042
▁blush	-10.705
ades	-10.7055
▁defi	-10.7095
bel	-10.7096
past	-10.71
Anna	-10.71
VE	-10.7104
▁obtain	-10.7105
▁contain	-10.7105
found	-10.7137
case	-10.7143
▁branch	-10.7151
▁comb	-10.7156
▁spark	-10.7157
▁plea	-10.7157
God	-10.7158
Gossip	-10.7159
▁Eliza	-10.7159
▁Vasily	-10.7159
▁agitated	-10.7159
▁criminal	-10.7159
▁disappointment	-10.7159
▁gallows	-10.7159
▁ghost	-10.7159
▁monstrous	-10.7159
▁mutual	-10.7159
▁slender	-10.7159
▁system	-10.7159
▁Miller	-10.7159
▁overflow	-10.7159
▁pirate	-10.7159
▁traveller	-10.7159
▁enemy	-10.7159
▁plunged	-10.7159
▁splash	-10.7159
▁interior	-10.7159
▁whistle	-10.7159
▁title	-10.716
▁Turk	-10.716
▁Poole	-10.716
▁ugly	-10.716
▁cupboard	-10.716
▁astonishment	-10.716
HAD	-10.716
▁hitherto	-10.716
▁odd	-10.716
▁assistant	-10.7161
▁vexation	-10.7161
▁quitted	-10.7161
▁stuck	-10.7162
▁patch	-10.7162
▁Bohemian	-10.7162
▁swath	-10.7166
rack	-10.7167
▁inner	-10.7171
▁famous	-10.7172
▁rail	-10.7173
▁displeased	-10.7177
▁arches	-10.7179
▁camp	-10.718
▁puzzled	-10.7184
▁established	-10.7184
▁despised	-10.7188
▁oppressed	-10.7189
▁lest	-10.7191
▁older	-10.7191
▁counter	-10.7195
▁sunk	-10.7195
▁May	-10.7198
▁balls	-10.72
▁summoned	-10.7201
▁ability	-10.7203
▁leaned	-10.7209
race	-10.7213
▁objection	-10.7217
▁holy	-10.7234
▁guessed	-10.7243
have	-10.7247
▁cow	-10.725
▁rings	-10.7254
yes	-10.7259
▁edifices	-10.7279
▁member	-10.7285
▁lip	-10.7288
▁personage	-10.7292
▁page	-10.7306
gged	-10.7323
▁hi	-10.7326
▁members	-10.7353
▁Dame	-10.7396
▁que	-10.7405
Tell	-10.7421
▁Ben	-10.7427
▁abandon	-10.7428
Or	-10.743
▁tight	-10.7461
▁assure	-10.7461
▁notion	-10.7476
▁consol	-10.7477
▁govern	-10.7478
xcuse	-10.7481
▁XV	-10.7482
▁Nikolavna	-10.7482
▁Nobility	-10.7482
▁atmosphere	-10.7482
▁awoke	-10.7482
▁enthusiasm	-10.7482
▁harvest	-10.7482
▁hunchback	-10.7482
▁knelt	-10.7482
▁merchant	-10.7482
▁powder	-10.7482
▁precious	-10.7482
▁privilege	-10.7482
▁radiant	-10.7482
▁struggling	-10.7482
▁surface	-10.7482
▁swim	-10.7482
▁tavern	-10.7482
▁thieves	-10.7482
▁thither	-10.7482
▁throne	-10.7482
▁critic	-10.7482
▁purple	-10.7482
▁shrill	-10.7482
▁Robert	-10.7482
▁apply	-10.7482
▁manifest	-10.7482
▁price	-10.7482
▁hush	-10.7482
▁truly	-10.7482
▁Old	-10.7482
▁bond	-10.7482
▁prize	-10.7482
▁spell	-10.7482
▁apron	-10.7482
▁operation	-10.7483
▁amusing	-10.7483
▁bat	-10.7483
▁valet	-10.7483
▁punishment	-10.7484
▁permitted	-10.7485
AND	-10.7486
ference	-10.7489
▁fifteenth	-10.7489
▁agreeable	-10.749
OW	-10.749
▁capable	-10.7494
▁breathless	-10.7496
▁results	-10.7502
▁staying	-10.7505
▁quivering	-10.7507
▁complaint	-10.7513
▁attracted	-10.7518
▁exchanged	-10.7519
▁punished	-10.7522
▁affected	-10.7525
rode	-10.7531
▁recovered	-10.7542
▁sergeants	-10.7544
▁teaching	-10.7559
▁oh	-10.7563
Has	-10.757
coloured	-10.7575
▁hiding	-10.7584
▁warning	-10.7585
closed	-10.7596
▁accepted	-10.7608
▁heath	-10.763
▁teacher	-10.7635
mission	-10.7682
▁seiz	-10.7688
vari	-10.7711
▁respected	-10.7712
▁i	-10.7729
ka	-10.7746
Th	-10.7748
Wait	-10.7754
nothing	-10.7755
▁perform	-10.7759
▁brush	-10.7761
▁destroy	-10.7761
▁deliver	-10.7761
here	-10.7768
Only	-10.7785
▁eager	-10.7791
woman	-10.7792
▁dislike	-10.7794
▁earnest	-10.7794
▁interfere	-10.7796
▁chose	-10.7798
▁IV	-10.7798
▁woods	-10.7804
▁realize	-10.7812
▁architect	-10.7814
Certainly	-10.7815
▁Eshton	-10.7815
▁Government	-10.7815
▁Mademoiselle	-10.7815
▁enterprise	-10.7815
▁intolerable	-10.7815
▁parlour	-10.7815
▁sculpture	-10.7815
▁sobbing	-10.7815
▁swept	-10.7815
▁unnecessary	-10.7815
▁whiskers	-10.7815
▁dignity	-10.7815
▁disposed	-10.7815
▁dreary	-10.7815
▁enchant	-10.7815
▁unnatural	-10.7815
▁wicked	-10.7815
▁altar	-10.7815
▁confine	-10.7815
▁gallant	-10.7815
▁smart	-10.7815
▁attribute	-10.7815
▁composed	-10.7815
▁dragging	-10.7815
▁grating	-10.7815
▁element	-10.7815
▁created	-10.7815
▁stove	-10.7815
▁visage	-10.7815
▁habitual	-10.7815
▁hostess	-10.7815
▁shore	-10.7815
▁desires	-10.7816
▁Through	-10.7816
▁list	-10.7816
▁ignorant	-10.7816
▁stockings	-10.7816
▁solid	-10.7816
▁Justice	-10.7817
▁thy	-10.7818
▁cruelty	-10.7819
▁defendant	-10.782
▁trade	-10.7825
▁mow	-10.7828
▁yards	-10.783
▁hired	-10.783
telet	-10.783
▁Sever	-10.7834
▁Dent	-10.7839
▁tightly	-10.7841
▁questioning	-10.7843
▁wandering	-10.7845
▁briefly	-10.7845
dden	-10.7845
▁accomplished	-10.7846
▁compared	-10.7856
▁Soon	-10.7859
tally	-10.7862
▁dresses	-10.7872
▁obtained	-10.7873
▁contained	-10.7873
▁grasped	-10.7877
letting	-10.7888
▁spectators	-10.7893
▁shocked	-10.7893
▁Ju	-10.7896
head	-10.7896
liness	-10.7897
▁sadly	-10.7907
▁searching	-10.7913
▁elections	-10.7914
▁methods	-10.7914
▁companions	-10.7914
▁enjoyed	-10.7918
▁handle	-10.7922
▁hanged	-10.7931
▁VI	-10.7937
ET	-10.794
▁existed	-10.7941
▁tooth	-10.7946
▁waste	-10.7946
Really	-10.7959
▁vagabond	-10.7964
▁exception	-10.7978
▁etc	-10.8006
▁lean	-10.8032
cut	-10.8038
▁injur	-10.8048
▁offices	-10.8052
▁coats	-10.8058
▁wag	-10.8061
▁waiter	-10.8068
▁spreading	-10.8083
▁bills	-10.8085
▁Mos	-10.8085
ome	-10.8089
horse	-10.81
▁crawl	-10.8104
▁halt	-10.8108
▁ere	-10.8114
hour	-10.812
set	-10.812
well	-10.8125
▁prison	-10.8126
ley	-10.8132
▁introduce	-10.8133
▁quit	-10.8134
▁guilt	-10.8147
▁happi	-10.8155
▁police	-10.8158
▁witch	-10.8158
▁careless	-10.8159
▁Barbara	-10.816
▁Father	-10.816
▁Flemish	-10.816
▁Millcote	-10.816
▁ceremony	-10.816
▁choir	-10.816
▁devotion	-10.816
▁enemies	-10.816
▁pretext	-10.816
▁senior	-10.816
▁studied	-10.816
▁victim	-10.816
▁Montag	-10.816
▁envy	-10.816
▁yawn	-10.816
▁Gervaise	-10.816
▁piano	-10.816
▁mixed	-10.816
▁pencil	-10.816
▁Often	-10.816
▁amount	-10.816
▁convey	-10.816
▁Lady	-10.816
▁lunch	-10.816
▁idle	-10.816
▁Although	-10.816
▁tiptoe	-10.816
▁haunt	-10.816
▁whirl	-10.816
▁fortnight	-10.8161
▁scarlet	-10.8161
▁embarrassment	-10.8161
▁whither	-10.8161
▁Ages	-10.8162
▁detect	-10.8162
▁Town	-10.8163
▁resistance	-10.8163
▁occasionally	-10.8163
▁alley	-10.8164
▁victory	-10.8166
▁undertake	-10.8166
▁sheep	-10.8167
▁moist	-10.8167
▁stock	-10.8167
▁pierced	-10.8168
▁startled	-10.817
▁beaten	-10.8171
▁precisely	-10.8172
▁devoted	-10.8172
▁united	-10.8177
▁Djali	-10.8178
▁wheat	-10.8178
▁forgiveness	-10.8179
▁eagerly	-10.8186
▁executioner	-10.8193
▁suggested	-10.8193
▁devoured	-10.8195
▁rarely	-10.8198
▁somehow	-10.8201
▁glasses	-10.8209
▁ideal	-10.8211
Sire	-10.8217
▁Alas	-10.8221
~!"	-10.8225
ville	-10.8231
▁maintained	-10.8239
▁sincere	-10.8244
▁Cha	-10.8254
▁legal	-10.8267
▁Cat	-10.8284
uite	-10.8288
▁pac	-10.8304
dding	-10.8312
▁ride	-10.8341
fu	-10.8346
▁chains	-10.8353
minded	-10.8357
▁Karenina	-10.8363
▁teachers	-10.8372
midst	-10.8379
then	-10.839
▁descend	-10.8408
▁dine	-10.8425
very	-10.8445
his	-10.8449
▁interrupt	-10.8455
Master	-10.8457
▁chain	-10.8459
maid	-10.8463
agin	-10.8466
▁envelope	-10.8466
ize	-10.8466
hand	-10.8467
▁waves	-10.8475
▁persuade	-10.849
▁tremble	-10.849
▁immediate	-10.8493
acy	-10.8505
▁squa	-10.8505
▁joyful	-10.8507
▁commun	-10.8514
▁celebrat	-10.8517
▁scratch	-10.8517
▁Burns	-10.8517
▁Committee	-10.8517
▁Next	-10.8517
▁Theodore	-10.8517
▁Tuvache	-10.8517
▁audible	-10.8517
▁avenue	-10.8517
▁breeze	-10.8517
▁complicated	-10.8517
▁dazzling	-10.8517
▁exhausted	-10.8517
▁exposed	-10.8517
▁fantastic	-10.8517
▁female	-10.8517
▁gigantic	-10.8517
▁illuminated	-10.8517
▁impulse	-10.8517
▁irritation	-10.8517
▁perceptible	-10.8517
▁president	-10.8517
▁robber	-10.8517
▁smoking	-10.8517
▁solitary	-10.8517
▁vodka	-10.8517
▁client	-10.8517
▁echo	-10.8517
▁fierce	-10.8517
▁problem	-10.8517
▁rapture	-10.8517
▁significant	-10.8517
▁stories	-10.8517
▁disdain	-10.8517
▁improvement	-10.8517
▁regain	-10.8517
▁vanity	-10.8517
▁clapp	-10.8517
Which	-10.8517
▁indulge	-10.8517
▁subtle	-10.8517
▁bolt	-10.8517
▁reign	-10.8517
▁folds	-10.8518
▁select	-10.8518
▁misery	-10.8518
▁track	-10.8519
Could	-10.852
▁Mont	-10.852
▁protection	-10.8521
waving	-10.8523
▁wench	-10.8525
▁plump	-10.8526
▁dart	-10.8526
▁suspended	-10.8526
▁tenant	-10.853
▁intently	-10.8533
▁observation	-10.8537
▁eaten	-10.8537
▁reasonable	-10.854
▁ventured	-10.854
▁confirmed	-10.854
▁unlike	-10.854
▁mon	-10.8541
▁heels	-10.8541
▁frost	-10.8543
▁developed	-10.8544
▁pope	-10.8545
▁boldly	-10.8547
▁fourth	-10.8549
▁lads	-10.8549
▁healthy	-10.8556
▁shy	-10.8564
▁informed	-10.8566
▁loaded	-10.8566
▁arise	-10.8568
mus	-10.8574
▁directions	-10.8578
pping	-10.8579
▁discussed	-10.8586
▁sharply	-10.8587
coat	-10.859
▁consented	-10.8591
▁grim	-10.8598
▁relatives	-10.8601
▁gained	-10.8607
▁churches	-10.8609
▁City	-10.8614
▁harder	-10.8634
▁verses	-10.8637
▁cards	-10.8653
▁suited	-10.8656
▁temples	-10.8674
▁reject	-10.8698
took	-10.87
put	-10.8706
▁doubted	-10.8724
▁rug	-10.8728
▁objects	-10.8737
▁blows	-10.8746
oul	-10.8748
bear	-10.8772
▁statu	-10.8774
▁Lo	-10.8784
▁reflections	-10.8794
▁trip	-10.8823
▁cough	-10.8832
▁obey	-10.8834
▁condemn	-10.8834
right	-10.8835
▁inquire	-10.8861
▁propose	-10.8862
▁execution	-10.8868
▁amuse	-10.8869
▁ate	-10.8872
five	-10.8873
▁modest	-10.8875
▁acknowledge	-10.8879
▁crossing	-10.8882
▁prepare	-10.8886
▁confid	-10.8887
▁Caterpillar	-10.8888
▁Emperor	-10.8888
▁LEVIN	-10.8888
▁Lvov	-10.8888
▁capacity	-10.8888
▁circula	-10.8888
▁crimson	-10.8888
▁epoch	-10.8888
▁feather	-10.8888
▁fragment	-10.8888
▁infinite	-10.8888
▁permanent	-10.8888
▁qualities	-10.8888
▁remorse	-10.8888
▁resign	-10.8888
▁stooped	-10.8888
▁trivial	-10.8888
▁verandah	-10.8888
▁Robin	-10.8888
▁Trouillefou	-10.8888
▁appetite	-10.8888
▁cassock	-10.8888
▁emperor	-10.8888
▁evidence	-10.8888
▁hoarse	-10.8888
▁magistrate	-10.8888
▁procurator	-10.8888
▁regiment	-10.8888
▁sensible	-10.8888
▁Bible	-10.8888
▁hesitation	-10.8888
▁deserve	-10.8888
▁sweat	-10.8888
▁university	-10.8888
▁Berthe	-10.8888
▁hosier	-10.8888
▁spider	-10.8888
▁sugar	-10.8888
▁glide	-10.8888
▁palm	-10.8888
▁communicate	-10.8888
▁neat	-10.8888
▁appeal	-10.8888
▁sauce	-10.8888
▁crouch	-10.8888
▁hurl	-10.889
▁elsewhere	-10.889
▁losing	-10.8891
▁reins	-10.8892
▁profession	-10.8892
▁torches	-10.8893
▁tray	-10.8893
▁duke	-10.8894
▁active	-10.8898
▁dreaming	-10.89
▁responded	-10.8901
▁assembled	-10.8901
▁queer	-10.8903
▁suggestion	-10.8904
▁XXI	-10.8905
Madam	-10.8909
▁needle	-10.8909
▁glittering	-10.891
▁restless	-10.8919
▁plank	-10.8923
▁melted	-10.8932
▁grin	-10.8932
▁weeping	-10.8935
▁anxiously	-10.894
▁shan	-10.8944
▁fairy	-10.8948
till	-10.8953
▁Wait	-10.8956
▁Poor	-10.8959
▁rolling	-10.8963
▁strained	-10.8981
▁dew	-10.8992
▁flashed	-10.8997
▁cracked	-10.8998
▁cleared	-10.9028
▁toilet	-10.9032
eth	-10.9035
▁rags	-10.9048
▁ribbons	-10.9051
rang	-10.9059
Down	-10.906
LY	-10.906
▁quarters	-10.9066
press	-10.909
istic	-10.9097
Dear	-10.9105
lude	-10.9112
▁occupations	-10.9127
▁drawer	-10.9131
lated	-10.9133
▁owe	-10.914
▁paces	-10.9144
▁peaceful	-10.9148
▁strangely	-10.9149
▁acting	-10.9159
ache	-10.9161
▁dig	-10.918
oh	-10.9192
most	-10.92
▁laying	-10.9201
Poor	-10.9211
piece	-10.9212
After	-10.9212
Alas	-10.9212
▁swallow	-10.9218
▁clasp	-10.9218
▁preserv	-10.9218
▁attach	-10.9219
▁swell	-10.9219
Some	-10.9222
duced	-10.9225
▁examine	-10.9226
▁seeming	-10.9232
▁announce	-10.9245
▁produce	-10.9245
▁attentive	-10.9248
▁India	-10.9255
▁birth	-10.9271
▁Hippolyte	-10.9272
▁Huckleberry	-10.9272
▁Instead	-10.9272
▁Tanya	-10.9272
▁Thursday	-10.9272
▁furnish	-10.9272
▁invisible	-10.9272
▁minister	-10.9272
▁muscle	-10.9272
▁receiving	-10.9272
▁stamped	-10.9272
▁sweep	-10.9272
▁tambourine	-10.9272
▁afford	-10.9272
▁contradict	-10.9272
▁drowned	-10.9272
▁esteem	-10.9272
▁flicker	-10.9272
▁marvel	-10.9272
▁salary	-10.9272
▁transform	-10.9272
Messire	-10.9272
▁funeral	-10.9272
▁overwhelm	-10.9272
▁poison	-10.9272
▁swarm	-10.9272
▁royal	-10.9272
▁Heaven	-10.9272
▁limp	-10.9272
▁pearl	-10.9272
▁partition	-10.9272
▁shift	-10.9272
▁Rym	-10.9272
▁beloved	-10.9272
▁vital	-10.9272
▁lick	-10.9272
▁source	-10.9272
▁blade	-10.9272
▁feast	-10.9273
▁Mouse	-10.9273
▁oneself	-10.9273
▁Franz	-10.9273
▁Leah	-10.9274
▁Egyptian	-10.9274
▁aroused	-10.9274
▁caressing	-10.9274
▁embrace	-10.9275
▁dense	-10.9275
▁dame	-10.9277
▁repress	-10.9277
▁stray	-10.9278
▁confession	-10.9279
▁terrified	-10.928
Something	-10.9281
▁enjoyment	-10.9281
▁increasing	-10.9283
▁cellar	-10.9289
▁saddle	-10.9291
▁enable	-10.9294
▁sadness	-10.9294
▁log	-10.9294
▁examination	-10.9295
▁humanity	-10.9297
▁III	-10.9301
NE	-10.9301
▁impatiently	-10.9304
▁extended	-10.9307
▁Char	-10.9307
▁violently	-10.9312
headed	-10.9313
▁institution	-10.9326
▁advised	-10.9327
▁stro	-10.9331
▁struggled	-10.9338
▁si	-10.9342
▁climbed	-10.9343
▁east	-10.9344
▁furr	-10.9365
▁garments	-10.937
▁collected	-10.9372
▁preparations	-10.938
hy	-10.9381
▁thoughtful	-10.9382
▁Dr	-10.9385
▁barely	-10.9386
your	-10.9389
▁arguments	-10.9394
▁beaming	-10.9398
faced	-10.9412
▁strongly	-10.9419
▁fil	-10.9449
▁happening	-10.9463
▁offering	-10.9472
▁pillar	-10.9476
HEN	-10.9477
▁circumstance	-10.9477
nner	-10.9479
▁cows	-10.9501
▁personages	-10.9513
▁newly	-10.9523
aries	-10.9555
▁represent	-10.9562
▁continu	-10.9572
▁regrett	-10.9583
pot	-10.9586
▁observ	-10.9607
▁affect	-10.9607
school	-10.9612
Huck	-10.9614
▁inform	-10.9616
▁shoot	-10.9617
▁summon	-10.962
Say	-10.962
▁flush	-10.9621
Yet	-10.9623
▁load	-10.9623
▁bliss	-10.963
▁cease	-10.9646
▁formal	-10.9655
▁process	-10.9665
▁drag	-10.9668
▁sixteen	-10.9668
▁convent	-10.9672
▁labor	-10.9672
Josef	-10.9672
▁Abbot	-10.9672
▁Matthew	-10.9672
▁Morton	-10.9672
▁Sophie	-10.9672
▁Venetians	-10.9672
▁admirable	-10.9672
▁affirm	-10.9672
▁autumn	-10.9672
▁behaviour	-10.9672
▁belief	-10.9672
▁bloom	-10.9672
▁consequently	-10.9672
▁discipline	-10.9672
▁endeavour	-10.9672
▁energetic	-10.9672
▁genius	-10.9672
▁glorious	-10.9672
▁gossip	-10.9672
▁indefinite	-10.9672
▁insignificant	-10.9672
▁landlady	-10.9672
▁obscure	-10.9672
▁outstretched	-10.9672
▁popular	-10.9672
▁remedy	-10.9672
▁sacred	-10.9672
▁stammered	-10.9672
▁superfluous	-10.9672
▁swift	-10.9672
▁vacant	-10.9672
▁worried	-10.9672
▁Judge	-10.9672
▁Saturday	-10.9672
▁White	-10.9672
▁addition	-10.9672
▁congratulat	-10.9672
▁corpse	-10.9672
▁parisis	-10.9672
▁petition	-10.9672
▁pursuit	-10.9672
▁serpent	-10.9672
▁steep	-10.9672
▁tempest	-10.9672
▁valley	-10.9672
▁vehicle	-10.9672
▁coffin	-10.9672
▁favor	-10.9672
▁solution	-10.9672
▁Edward	-10.9672
▁eighteen	-10.9672
▁Grete	-10.9672
▁animation	-10.9672
▁mocking	-10.9672
▁inquiring	-10.9672
▁Reims	-10.9672
▁extinguished	-10.9672
▁silly	-10.9672
▁venera	-10.9672
▁persist	-10.9672
▁clergyman	-10.9673
▁scrap	-10.9673
▁lodge	-10.9673
▁preferred	-10.9673
netheless	-10.9673
▁characteristic	-10.9673
▁funny	-10.9674
▁petty	-10.9674
▁shove	-10.9675
▁courtyard	-10.9675
Michel	-10.9676
▁monk	-10.9677
▁reveren	-10.9677
▁strip	-10.9677
▁brightened	-10.9677
▁merit	-10.9678
▁temptation	-10.9679
▁assist	-10.9679
▁poetry	-10.9679
▁ironical	-10.9679
▁repose	-10.968
▁deliberately	-10.968
▁vent	-10.9681
▁coward	-10.9681
▁contemptuously	-10.9682
▁cities	-10.9683
▁bitterness	-10.9686
▁net	-10.9686
▁slave	-10.9687
▁fog	-10.9688
▁Him	-10.9688
▁nave	-10.9689
▁prefer	-10.969
▁described	-10.9692
▁realised	-10.9692
▁provided	-10.9693
▁sincerely	-10.9701
▁luck	-10.9702
▁persuaded	-10.9703
▁endured	-10.972
▁neglected	-10.9722
orial	-10.9739
▁mowing	-10.9739
▁awakened	-10.974
▁expectation	-10.9742
keeper	-10.9748
▁butter	-10.975
▁smoked	-10.9753
stern	-10.976
▁screaming	-10.976
▁arrested	-10.9769
eyed	-10.9782
Hold	-10.9793
▁covering	-10.9798
▁defects	-10.9799
▁confessed	-10.9805
▁withdraw	-10.9808
▁chiefly	-10.9809
▁attacked	-10.9811
▁conducted	-10.9818
▁smilingly	-10.9825
▁doublet	-10.9827
▁ahead	-10.9868
▁differently	-10.9869
▁color	-10.9897
mple	-10.9897
shop	-10.9912
▁labourer	-10.9932
▁surely	-10.9965
▁adding	-10.9971
▁gather	-10.998
▁Val	-10.9989
▁complain	-10.9993
▁notary	-11.0016
▁mourn	-11.0028
because	-11.0028
▁retain	-11.0035
▁adopt	-11.0035
▁desert	-11.0038
▁obvious	-11.0064
▁absolute	-11.0064
▁frank	-11.0065
▁agricultur	-11.0071
▁fright	-11.0079
▁plum	-11.0079
▁perceive	-11.008
uz	-11.0081
▁travel	-11.0084
hould	-11.0088
▁bewilder	-11.0089
▁counsel	-11.0089
▁display	-11.0089
▁Bournisien	-11.0089
▁January	-11.0089
▁Landau	-11.0089
▁London	-11.0089
▁Metrov	-11.0089
▁Parvis	-11.0089
▁advocate	-11.0089
▁bundle	-11.0089
▁conjecture	-11.0089
▁eminence	-11.0089
▁furnace	-11.0089
▁generous	-11.0089
▁gilded	-11.0089
▁greeted	-11.0089
▁horrid	-11.0089
▁practical	-11.0089
▁practice	-11.0089
▁rigid	-11.0089
▁satisfy	-11.0089
▁simplicity	-11.0089
▁text	-11.0089
Germain	-11.0089
▁Finally	-11.0089
▁billiard	-11.0089
▁screw	-11.0089
▁situated	-11.0089
▁Petrov	-11.0089
▁jolly	-11.0089
▁rival	-11.0089
▁Tostes	-11.0089
▁orphan	-11.0089
▁folly	-11.0089
▁message	-11.0089
▁mild	-11.0089
▁scorn	-11.0089
▁divert	-11.0089
▁investigat	-11.0089
▁peal	-11.009
▁backwards	-11.009
▁development	-11.009
▁discourse	-11.009
▁sooth	-11.009
▁assistance	-11.009
▁professor	-11.0091
▁bandage	-11.0092
▁owing	-11.0092
▁agony	-11.0093
▁philosophy	-11.0095
▁swore	-11.0095
love	-11.0095
▁kneeling	-11.0096
▁traversed	-11.0098
▁flies	-11.01
▁dependent	-11.01
▁sixty	-11.01
▁inspired	-11.0101
▁amusement	-11.0102
▁roar	-11.0103
▁vest	-11.0105
▁warmth	-11.0107
▁State	-11.0109
▁fearful	-11.011
▁pig	-11.0112
read	-11.0113
▁frankly	-11.0114
▁rejoined	-11.0117
Indeed	-11.0117
▁renewed	-11.0118
▁surrounding	-11.0119
▁twisted	-11.012
▁folk	-11.0122
▁suspected	-11.0122
▁jam	-11.0124
▁role	-11.0126
▁shameful	-11.0131
▁unfortunately	-11.0133
▁piled	-11.0135
▁swinging	-11.014
▁departed	-11.0141
▁adopted	-11.0143
CE	-11.0148
▁mentally	-11.0156
▁advise	-11.0169
▁dined	-11.0169
▁sale	-11.017
▁accordingly	-11.0176
▁flowed	-11.0184
▁flowing	-11.0187
▁completed	-11.0195
▁lawn	-11.0202
▁roots	-11.0204
Hol	-11.0206
SE	-11.0213
▁prayed	-11.0225
▁counted	-11.023
▁belonging	-11.0239
▁foundations	-11.0259
▁riding	-11.0263
shaped	-11.0283
▁blowing	-11.0288
▁judged	-11.0307
▁depth	-11.0328
▁interval	-11.033
▁studying	-11.036
erial	-11.0365
ENT	-11.0383
▁west	-11.0384
▁serv	-11.0393
▁nail	-11.0406
▁sail	-11.0409
point	-11.0463
Alexis	-11.0463
gown	-11.0465
dam	-11.0465
▁punish	-11.0467
▁depart	-11.0468
▁bite	-11.0468
▁neglect	-11.0469
▁intend	-11.047
▁weep	-11.0475
▁recogniz	-11.0495
▁venture	-11.0498
four	-11.05
▁whit	-11.0513
ability	-11.0517
▁blank	-11.0521
▁infant	-11.0522
espite	-11.0522
Everybody	-11.0524
Hirondelle	-11.0524
Neither	-11.0524
▁Scatcherd	-11.0524
▁Tverskaya	-11.0524
▁Vlasevna	-11.0524
▁applause	-11.0524
▁champagne	-11.0524
▁colleague	-11.0524
▁ecclesiastic	-11.0524
▁faculties	-11.0524
▁greeting	-11.0524
▁gypsies	-11.0524
▁inferior	-11.0524
▁luxury	-11.0524
▁majestic	-11.0524
▁marvellous	-11.0524
▁perfume	-11.0524
▁piercing	-11.0524
▁pitied	-11.0524
▁political	-11.0524
▁recommend	-11.0524
▁rubbing	-11.0524
▁wardrobe	-11.0524
▁blossom	-11.0524
▁disapprov	-11.0524
▁plaster	-11.0524
▁thrill	-11.0524
▁Canivet	-11.0524
▁Petit	-11.0524
▁Titus	-11.0524
▁balance	-11.0524
▁decay	-11.0524
▁harmony	-11.0524
▁prick	-11.0524
▁squeez	-11.0524
▁lavish	-11.0524
▁peep	-11.0524
cluding	-11.0524
▁Since	-11.0524
▁illusion	-11.0524
▁inquiry	-11.0524
▁mould	-11.0524
▁amiable	-11.0524
▁divers	-11.0524
▁implore	-11.0524
▁steadily	-11.0524
▁noisy	-11.0524
▁remote	-11.0524
▁birch	-11.0524
▁mask	-11.0524
▁cigarette	-11.0524
▁faded	-11.0525
▁Jew	-11.0525
▁troop	-11.0525
▁provincial	-11.0525
▁series	-11.0525
▁committed	-11.0525
▁festival	-11.0525
▁bind	-11.0527
▁failure	-11.0527
▁normal	-11.0528
▁foolish	-11.0529
▁principality	-11.0529
▁government	-11.053
▁assert	-11.053
▁chapter	-11.053
▁vow	-11.053
▁Many	-11.053
▁belt	-11.053
▁aisle	-11.0531
▁Spani	-11.0532
▁unjust	-11.0533
▁curled	-11.0533
▁decent	-11.0537
▁Four	-11.0539
▁consolation	-11.0539
▁behalf	-11.0539
▁sufficed	-11.0543
▁discovery	-11.0547
▁obviously	-11.055
▁tossed	-11.055
▁calculated	-11.0554
▁awaken	-11.0555
▁momentary	-11.0558
▁opposed	-11.0559
▁hinder	-11.0562
▁sweetness	-11.0563
▁related	-11.0567
▁louder	-11.0573
▁Amy	-11.058
▁gathering	-11.0582
▁represented	-11.0583
col	-11.0589
▁ON	-11.0589
maker	-11.0592
▁descending	-11.0593
▁crawling	-11.0595
▁brushed	-11.0595
▁performed	-11.0595
▁ante	-11.0597
▁bi	-11.0608
▁tortured	-11.0609
▁thereby	-11.0612
▁knocking	-11.0613
▁vaguely	-11.0628
▁belly	-11.0631
▁searched	-11.0649
Le	-11.0651
▁gri	-11.0657
▁gravely	-11.066
Does	-11.068
▁smaller	-11.0701
▁Na	-11.0703
▁crumb	-11.0705
under	-11.0733
▁enclos	-11.0734
▁ribbon	-11.0781
▁temple	-11.0781
▁proportion	-11.0783
▁stillness	-11.0789
iron	-11.0799
▁shortly	-11.0842
guard	-11.0917
▁oil	-11.0921
wood	-11.0921
▁har	-11.0922
why	-11.0922
▁swing	-11.0922
▁improv	-11.0927
▁melt	-11.0939
▁cu	-11.0953
▁abrupt	-11.0954
gate	-11.0956
hold	-11.0959
▁gui	-11.0968
▁rag	-11.097
ublic	-11.0976
▁knot	-11.0976
▁knit	-11.0976
etween	-11.0976
give	-11.0976
▁Annushka	-11.0978
deception	-11.0978
▁Bishop	-11.0978
▁Chantefleurie	-11.0978
▁Gondelaurier	-11.0978
▁Myagkaya	-11.0978
▁Pilot	-11.0978
▁Tushkevich	-11.0978
▁annoyed	-11.0978
▁college	-11.0978
▁contemplate	-11.0978
▁councillor	-11.0978
▁dazzled	-11.0978
▁domestic	-11.0978
▁electric	-11.0978
▁eyelids	-11.0978
▁foliage	-11.0978
▁fortunate	-11.0978
▁girdle	-11.0978
▁illustrious	-11.0978
▁improper	-11.0978
▁interview	-11.0978
▁invitation	-11.0978
▁irregular	-11.0978
▁lecture	-11.0978
▁malicious	-11.0978
▁mute	-11.0978
▁obligation	-11.0978
▁patience	-11.0978
▁penetrate	-11.0978
▁pitiful	-11.0978
▁practis	-11.0978
▁resource	-11.0978
▁revenge	-11.0978
▁revolution	-11.0978
▁satisfactory	-11.0978
▁security	-11.0978
▁sketch	-11.0978
▁snuff	-11.0978
▁sorceress	-11.0978
▁stomach	-11.0978
▁sustain	-11.0978
▁terribly	-11.0978
▁tranquillity	-11.0978
▁waltz	-11.0978
▁Thunes	-11.0978
▁commission	-11.0978
▁pathetic	-11.0978
▁quality	-11.0978
▁utmost	-11.0978
▁brick	-11.0978
▁decline	-11.0978
▁daresay	-11.0978
▁barrier	-11.0978
▁XVII	-11.0978
▁skate	-11.0978
▁newspaper	-11.0978
Silence	-11.0978
▁acute	-11.0979
▁Lisa	-11.0979
▁studio	-11.0979
▁Slav	-11.0979
▁Spaniard	-11.0979
▁abuse	-11.0979
▁compassion	-11.098
▁sinking	-11.098
▁prolong	-11.098
▁performance	-11.098
▁partner	-11.098
▁travelling	-11.0981
▁blanket	-11.0981
▁politeness	-11.0981
▁meanwhile	-11.0981
▁sparkling	-11.0981
▁motive	-11.0983
▁background	-11.0984
▁daring	-11.0984
▁charity	-11.0984
▁flock	-11.0984
change	-11.0986
▁attire	-11.0986
▁fitted	-11.0987
▁effaced	-11.0989
▁remove	-11.0991
▁washed	-11.0992
▁stolen	-11.0993
▁cautiously	-11.0994
▁clatter	-11.0996
▁ram	-11.0997
▁equ	-11.0998
Mama	-11.1004
▁purchase	-11.1005
▁childish	-11.1012
▁dismissed	-11.1012
▁shaken	-11.1013
▁Bill	-11.1014
▁lane	-11.1014
▁amused	-11.1015
▁joyfully	-11.1015
▁distracted	-11.102
▁conquered	-11.1023
shire	-11.1028
▁definitely	-11.1028
▁ascending	-11.1029
▁unexpectedly	-11.1033
▁preserved	-11.1043
▁seize	-11.1053
▁sols	-11.1055
▁spoilt	-11.106
▁irr	-11.106
▁invented	-11.1063
lways	-11.1078
▁alarmed	-11.1081
▁tasted	-11.1111
▁wounded	-11.1125
▁pretending	-11.1126
▁counting	-11.1137
mell	-11.1163
open	-11.1177
rank	-11.1201
▁slipp	-11.1215
rough	-11.1219
▁lame	-11.1256
▁north	-11.128
▁declar	-11.1304
ipped	-11.1308
▁doubtful	-11.1312
▁remov	-11.1359
bell	-11.1373
ante	-11.1374
▁attract	-11.1389
known	-11.1389
course	-11.1392
humour	-11.1393
▁frighten	-11.1406
However	-11.1406
▁hind	-11.1414
Stay	-11.142
▁fasten	-11.1423
▁constant	-11.143
▁exchange	-11.1437
▁continual	-11.1439
asse	-11.1441
hill	-11.1445
▁refresh	-11.1446
▁occur	-11.1453
▁Bertaux	-11.1454
▁Excellency	-11.1454
▁Fools	-11.1454
▁Gladiator	-11.1454
▁Lynn	-11.1454
▁People	-11.1454
▁Ryabinin	-11.1454
▁Stremov	-11.1454
▁admiring	-11.1454
▁appointed	-11.1454
▁convenient	-11.1454
▁cottage	-11.1454
▁description	-11.1454
▁frozen	-11.1454
▁imaginary	-11.1454
▁indignant	-11.1454
▁landscape	-11.1454
▁mademoiselle	-11.1454
▁mantelpiece	-11.1454
▁numerous	-11.1454
▁raven	-11.1454
▁reconciliation	-11.1454
▁refusal	-11.1454
▁repulsive	-11.1454
▁retorted	-11.1454
▁rubbed	-11.1454
▁separation	-11.1454
▁skeleton	-11.1454
▁subordinate	-11.1454
▁vapour	-11.1454
▁violence	-11.1454
▁whistling	-11.1454
teaupers	-11.1454
▁Tournelle	-11.1454
▁committee	-11.1454
▁conceive	-11.1454
▁farewell	-11.1454
▁fourteen	-11.1454
▁majority	-11.1454
▁repair	-11.1454
▁violin	-11.1454
▁Milan	-11.1454
▁pulse	-11.1454
▁sledge	-11.1454
▁compartment	-11.1454
▁pretence	-11.1454
▁trait	-11.1454
▁incapable	-11.1454
▁lingered	-11.1454
▁oath	-11.1454
▁General	-11.1454
▁concert	-11.1454
▁amazed	-11.1454
▁lamb	-11.1454
▁isolated	-11.1454
tolerably	-11.1454
▁medium	-11.1455
▁converse	-11.1455
▁solace	-11.1455
▁lime	-11.1455
▁consum	-11.1455
▁mum	-11.1455
▁caresses	-11.1455
▁salt	-11.1455
▁saint	-11.1455
▁beadle	-11.1455
▁falsehood	-11.1455
▁plot	-11.1456
▁knitting	-11.1456
▁feverish	-11.1457
▁hoof	-11.1457
Antoine	-11.1457
▁slippers	-11.1457
▁submitted	-11.1459
▁guardian	-11.1459
▁clamor	-11.146
▁eff	-11.1464
Martin	-11.1464
▁Titorelli	-11.1465
▁pool	-11.1466
▁beforehand	-11.1467
▁witches	-11.1467
▁strap	-11.1467
▁thicket	-11.1468
▁hesitated	-11.147
▁lake	-11.1474
▁unpleasantness	-11.1476
▁jar	-11.1476
▁shrugg	-11.1476
▁Last	-11.1482
▁Captain	-11.1483
▁Jean	-11.1483
▁moss	-11.1484
▁mystic	-11.1485
▁parties	-11.1488
▁elderly	-11.1495
▁adore	-11.1495
boy	-11.1497
▁doubtless	-11.1501
▁released	-11.1504
RY	-11.1504
▁weighed	-11.1507
▁nowhere	-11.1511
▁retained	-11.1517
▁acknowledged	-11.1518
▁embraced	-11.152
▁swallowed	-11.1522
▁coldness	-11.1525
▁declare	-11.1525
▁male	-11.1528
Roland	-11.1529
▁tools	-11.1531
▁severely	-11.1532
▁dimly	-11.1535
▁personally	-11.1535
▁finest	-11.1536
▁Say	-11.154
▁forgiven	-11.1545
▁tenderly	-11.1547
▁utterly	-11.1548
▁indicated	-11.1555
▁Any	-11.1557
▁planted	-11.1559
Get	-11.1561
▁burned	-11.1569
hot	-11.1579
▁curly	-11.1585
▁thanked	-11.1608
▁bid	-11.161
▁decidedly	-11.1623
▁Gen	-11.1628
▁wildly	-11.1631
ius	-11.1636
TE	-11.1642
▁tint	-11.1643
onic	-11.1727
Mother	-11.173
▁cab	-11.1733
▁limb	-11.1758
rai	-11.1767
▁chap	-11.177
▁weigh	-11.1771
▁date	-11.1776
new	-11.1797
two	-11.1806
▁ascend	-11.1844
▁frown	-11.1848
Lion	-11.186
bred	-11.1871
▁desir	-11.1888
▁crush	-11.19
▁unti	-11.1912
▁pitch	-11.1922
▁grieve	-11.1926
ERE	-11.1927
▁invite	-11.1927
upon	-11.1933
attered	-11.1942
path	-11.1944
▁complex	-11.1949
arch	-11.1952
▁engrav	-11.1954
emstvo	-11.1954
▁Gisquette	-11.1954
▁Gudule	-11.1954
▁Michael	-11.1954
▁Palais	-11.1954
▁Tourangeau	-11.1954
▁VRONSKY	-11.1954
▁Welshman	-11.1954
▁believing	-11.1954
▁carpenter	-11.1954
▁chicken	-11.1954
▁conspicuous	-11.1954
▁depression	-11.1954
▁elegance	-11.1954
▁empire	-11.1954
▁extremity	-11.1954
▁haughty	-11.1954
▁holiday	-11.1954
▁involved	-11.1954
▁leisure	-11.1954
▁luminous	-11.1954
▁miracle	-11.1954
▁poverty	-11.1954
▁refrain	-11.1954
▁review	-11.1954
▁rubbish	-11.1954
▁servitor	-11.1954
▁supply	-11.1954
▁universal	-11.1954
▁vengeance	-11.1954
▁accost	-11.1954
▁blunder	-11.1954
▁copper	-11.1954
▁distrust	-11.1954
▁intellectual	-11.1954
▁whitewash	-11.1954
▁scandal	-11.1954
▁valour	-11.1954
▁Above	-11.1954
▁causing	-11.1954
▁steam	-11.1954
▁wrist	-11.1954
▁crash	-11.1954
▁grain	-11.1954
▁rusty	-11.1954
▁surly	-11.1954
▁crep	-11.1955
▁adorn	-11.1955
▁Mlle	-11.1955
▁wool	-11.1955
▁varied	-11.1955
▁jewel	-11.1955
▁sport	-11.1955
▁ignorance	-11.1956
▁expir	-11.1956
graph	-11.1956
▁policeman	-11.1956
▁Other	-11.1956
Denis	-11.1957
▁gaily	-11.1958
▁waking	-11.1958
▁triumphant	-11.1958
▁fulfilled	-11.1958
▁score	-11.1959
▁treatment	-11.1959
▁bury	-11.1959
▁Englishman	-11.1962
▁unwell	-11.1962
▁pew	-11.1963
▁shine	-11.1963
▁Kostya	-11.1969
▁Parisian	-11.197
▁restored	-11.197
▁respectable	-11.1972
▁dozen	-11.1975
▁Indian	-11.1978
▁expanded	-11.1978
▁wealthy	-11.1979
▁commenced	-11.1981
▁Whatever	-11.1981
▁quay	-11.1982
▁strengthen	-11.1985
▁XXII	-11.1986
aternal	-11.1988
▁ashes	-11.1988
▁extract	-11.199
▁carelessly	-11.1991
▁emerged	-11.1999
▁freshness	-11.2001
▁softened	-11.2005
▁blissful	-11.2007
▁ascended	-11.2009
▁injure	-11.2012
▁sealed	-11.2012
▁Sam	-11.2015
▁faster	-11.2018
▁cheerfully	-11.202
▁swelled	-11.2026
▁danced	-11.2032
▁coin	-11.2035
bag	-11.2042
▁bowl	-11.2052
▁discussing	-11.2055
▁dreadfully	-11.2055
▁calmer	-11.2071
▁casement	-11.2094
Gene	-11.2101
▁singer	-11.2163
▁farmer	-11.2178
▁dipp	-11.231
▁leader	-11.231
born	-11.2415
▁card	-11.2416
Phoebus	-11.242
waiting	-11.242
master	-11.2421
▁build	-11.2426
▁devour	-11.2427
▁releas	-11.2427
hom	-11.2433
mother	-11.2439
haired	-11.2449
▁approve	-11.2453
▁commence	-11.2453
▁provide	-11.2453
▁stole	-11.2467
▁liberal	-11.2477
skaya	-11.2481
▁Agnes	-11.2481
▁Kuzma	-11.2481
▁Liberal	-11.2481
▁Louvre	-11.2481
▁Makhotin	-11.2481
▁Volunteers	-11.2481
▁appointment	-11.2481
▁asylum	-11.2481
▁borrow	-11.2481
▁bronze	-11.2481
▁buzz	-11.2481
▁central	-11.2481
▁communication	-11.2481
▁dagger	-11.2481
▁decisive	-11.2481
▁delicacy	-11.2481
▁dignified	-11.2481
▁elapsed	-11.2481
▁eldest	-11.2481
▁entangle	-11.2481
▁fountain	-11.2481
▁frantic	-11.2481
▁ghastly	-11.2481
▁innumerable	-11.2481
▁landlord	-11.2481
▁lodging	-11.2481
▁monseigneur	-11.2481
▁multitude	-11.2481
▁palpitat	-11.2481
▁perspiration	-11.2481
▁perspiring	-11.2481
▁petrified	-11.2481
▁profile	-11.2481
▁pulpit	-11.2481
▁radiance	-11.2481
▁response	-11.2481
▁ridicule	-11.2481
▁rustling	-11.2481
▁skill	-11.2481
▁skull	-11.2481
▁spectre	-11.2481
▁superintendent	-11.2481
▁tradition	-11.2481
▁welfare	-11.2481
▁Friday	-11.2481
▁brook	-11.2481
▁cluster	-11.2481
▁credit	-11.2481
▁seventeen	-11.2481
▁staff	-11.2481
▁wisdom	-11.2481
▁rabble	-11.2481
▁sonorous	-11.2481
▁lump	-11.2481
▁envied	-11.2481
▁flaming	-11.2481
▁odour	-11.2481
▁amorous	-11.2481
▁type	-11.2481
Pardon	-11.2481
▁argue	-11.2481
▁bunch	-11.2481
▁slope	-11.2482
▁alien	-11.2482
▁unimportant	-11.2483
dieu	-11.2484
▁clam	-11.2484
▁unfold	-11.2485
▁dusk	-11.2485
▁lend	-11.2485
▁Jim	-11.2486
▁peer	-11.2486
▁jug	-11.2486
▁complexion	-11.2486
▁mouse	-11.2487
▁housekeeper	-11.2487
▁Hay	-11.2487
▁Long	-11.2487
▁bodies	-11.2487
▁distraction	-11.2488
▁stile	-11.2488
▁reference	-11.2488
▁brandy	-11.2489
▁massive	-11.249
▁suck	-11.249
▁suitable	-11.2491
▁puff	-11.2493
▁pell	-11.2494
▁Muff	-11.2495
▁rout	-11.2495
▁stall	-11.2496
▁Moor	-11.2496
▁bushes	-11.2496
▁reconciled	-11.2498
▁mien	-11.2499
▁Bourbon	-11.2499
▁mortal	-11.2499
▁pious	-11.2502
Suppos	-11.2502
▁resolutely	-11.2504
▁appreciated	-11.2506
bourg	-11.2506
▁approved	-11.2509
▁swam	-11.2512
▁madness	-11.2512
▁pang	-11.2517
▁Maybe	-11.2518
▁quivered	-11.2521
▁classes	-11.2521
▁More	-11.2528
breed	-11.2534
▁educated	-11.2534
▁improved	-11.2544
never	-11.2545
▁complained	-11.2551
▁soothing	-11.2551
▁representing	-11.2555
▁barn	-11.256
▁coughing	-11.2561
▁regularly	-11.2565
▁measured	-11.2567
▁tramp	-11.2573
▁slid	-11.2578
▁blessed	-11.2583
▁hasten	-11.2585
▁restrained	-11.2594
▁Marie	-11.2598
▁total	-11.2603
▁deposit	-11.2604
▁musical	-11.263
▁wan	-11.2648
Mus	-11.265
avail	-11.2663
▁hove	-11.2691
▁cel	-11.2701
borne	-11.2721
igni	-11.2733
▁bust	-11.2771
▁glove	-11.2843
Hum	-11.2857
▁din	-11.2904
▁grip	-11.2908
▁trample	-11.294
▁foundation	-11.2949
▁suggest	-11.2958
▁conquer	-11.2976
spread	-11.2976
water	-11.2976
Dolly	-11.2976
think	-11.2976
▁oppress	-11.298
Was	-11.2986
entered	-11.2993
▁intent	-11.3006
▁describe	-11.3009
▁increase	-11.3009
▁resolute	-11.3011
▁actual	-11.3012
▁equi	-11.3015
▁realise	-11.3015
▁import	-11.3018
▁commit	-11.3034
▁constrain	-11.3036
▁distribut	-11.3036
Monseigneur	-11.3036
instruct	-11.3036
▁Bastille	-11.3036
▁Blanche	-11.3036
▁Eustache	-11.3036
▁Flemings	-11.3036
▁Meantime	-11.3036
▁Nordston	-11.3036
▁Romanesque	-11.3036
▁arrow	-11.3036
▁assassin	-11.3036
▁boudoir	-11.3036
▁bridle	-11.3036
▁cavalry	-11.3036
▁choking	-11.3036
▁comparison	-11.3036
▁convulsive	-11.3036
▁creep	-11.3036
▁cripple	-11.3036
▁cunning	-11.3036
▁cushion	-11.3036
▁desolate	-11.3036
▁devout	-11.3036
▁discern	-11.3036
▁discharge	-11.3036
▁discourag	-11.3036
▁dripping	-11.3036
▁economy	-11.3036
▁ecstasy	-11.3036
▁exclamation	-11.3036
▁experiment	-11.3036
▁interposed	-11.3036
▁mechanically	-11.3036
▁mischief	-11.3036
▁nowadays	-11.3036
▁obstinate	-11.3036
▁petticoat	-11.3036
▁province	-11.3036
▁quantity	-11.3036
▁rascal	-11.3036
▁repulse	-11.3036
▁riveted	-11.3036
▁salvation	-11.3036
▁sensitive	-11.3036
▁species	-11.3036
▁stooping	-11.3036
▁stubborn	-11.3036
▁superstition	-11.3036
▁syllable	-11.3036
▁thief	-11.3036
▁voluptuous	-11.3036
▁vulgar	-11.3036
▁missionary	-11.3036
▁morose	-11.3036
▁reluctant	-11.3036
▁sinister	-11.3036
▁subdued	-11.3036
▁wrought	-11.3036
▁croquet	-11.3036
▁gutter	-11.3036
▁threatening	-11.3036
▁compliment	-11.3036
▁Spain	-11.3036
▁WHI	-11.3036
▁record	-11.3036
▁cavern	-11.3036
▁Christmas	-11.3036
▁honey	-11.3036
▁ardent	-11.3036
OOK	-11.3036
▁chalk	-11.3036
▁Finn	-11.3036
▁beckon	-11.3036
narde	-11.3037
▁sideways	-11.3037
▁south	-11.3037
▁cask	-11.3037
▁rustle	-11.3037
▁Easter	-11.3037
▁neighbourhood	-11.3037
▁disposition	-11.3038
▁banner	-11.3038
▁principalities	-11.3038
▁muffled	-11.3038
▁tread	-11.3038
▁commonplace	-11.3038
▁mantle	-11.3039
▁carving	-11.3039
▁HIS	-11.304
▁XIV	-11.304
Hardly	-11.3041
▁chaos	-11.3042
▁stirring	-11.3042
▁patron	-11.3042
▁Day	-11.3043
▁youthful	-11.3043
▁busi	-11.3045
▁hallway	-11.3045
▁cheat	-11.3045
▁refreshment	-11.3045
▁gasp	-11.3046
▁spru	-11.3046
▁humiliated	-11.3047
▁morality	-11.3048
▁archers	-11.3048
▁interruption	-11.3049
▁lid	-11.305
▁superb	-11.3052
▁Catherine	-11.3052
▁dishes	-11.3053
▁readily	-11.3055
▁peril	-11.3058
▁breadth	-11.3058
▁vine	-11.3058
▁justify	-11.3059
▁vice	-11.306
▁jest	-11.3062
▁grieved	-11.3067
▁suppressed	-11.3069
▁glittered	-11.3069
▁bass	-11.3071
▁passers	-11.3072
▁wrinkled	-11.3075
▁deeds	-11.3081
Mind	-11.3082
▁offence	-11.3083
▁disliked	-11.3083
▁wink	-11.3092
▁latest	-11.3093
▁quicker	-11.31
▁valued	-11.3115
▁pinch	-11.3134
cie	-11.3134
▁signal	-11.3134
▁straighten	-11.3137
▁injured	-11.3156
▁seal	-11.3166
defined	-11.3186
Ev	-11.3225
▁nun	-11.323
rthy	-11.3243
ears	-11.3268
Off	-11.3321
Read	-11.3391
▁darken	-11.3398
▁parent	-11.345
▁uncover	-11.3477
▁verse	-11.3525
▁reduce	-11.3534
▁veri	-11.3549
▁suppos	-11.3553
▁imperi	-11.3554
▁distract	-11.3562
From	-11.3564
respect	-11.3564
Kitty	-11.3564
would	-11.3564
clothes	-11.3568
▁accomplish	-11.357
▁extend	-11.357
▁appreciate	-11.3597
▁acquire	-11.3597
▁soften	-11.3598
These	-11.3613
hunting	-11.3614
▁swo	-11.3615
▁copi	-11.3622
lancing	-11.3622
▁muff	-11.3623
▁threat	-11.3624
ology	-11.3624
▁corrupt	-11.3624
▁Behind	-11.3624
▁CONCERN	-11.3624
▁Flanders	-11.3624
▁Greece	-11.3624
▁Pavlovna	-11.3624
▁Pierrat	-11.3624
▁Stephen	-11.3624
▁advertise	-11.3624
▁anticipated	-11.3624
▁applauded	-11.3624
▁appropriate	-11.3624
▁bachelor	-11.3624
▁blouse	-11.3624
▁bristling	-11.3624
▁catastrophe	-11.3624
▁challenge	-11.3624
▁conflict	-11.3624
▁constructed	-11.3624
▁contrived	-11.3624
▁draught	-11.3624
▁drooping	-11.3624
▁emptie	-11.3624
▁evok	-11.3624
▁families	-11.3624
▁giddy	-11.3624
▁hogshead	-11.3624
▁inclination	-11.3624
▁indignation	-11.3624
▁inflict	-11.3624
▁inscription	-11.3624
▁involuntary	-11.3624
▁izvoshchik	-11.3624
▁literature	-11.3624
▁manuscript	-11.3624
▁muttering	-11.3624
▁nephew	-11.3624
▁occupy	-11.3624
▁penetrating	-11.3624
▁polished	-11.3624
▁precaution	-11.3624
▁prodigious	-11.3624
▁prologue	-11.3624
▁prominent	-11.3624
▁provision	-11.3624
▁pyramid	-11.3624
▁remembrance	-11.3624
▁repulsion	-11.3624
▁scrutiniz	-11.3624
▁simultaneously	-11.3624
▁stairway	-11.3624
▁sublime	-11.3624
▁thirst	-11.3624
▁vocation	-11.3624
▁wicket	-11.3624
▁auditor	-11.3624
▁brisk	-11.3624
▁compelled	-11.3624
▁discontent	-11.3624
▁forbidden	-11.3624
▁frail	-11.3624
▁misunderstand	-11.3624
▁monotonous	-11.3624
▁obedient	-11.3624
▁punctual	-11.3624
▁serene	-11.3624
▁severity	-11.3624
▁surprising	-11.3624
▁violet	-11.3624
▁comparative	-11.3624
▁hammer	-11.3624
▁mattress	-11.3624
▁midday	-11.3624
▁sullen	-11.3624
▁weapon	-11.3624
▁reappear	-11.3624
▁grandeur	-11.3624
▁veins	-11.3624
▁Abbe	-11.3624
▁Great	-11.3625
▁cider	-11.3625
▁Masha	-11.3625
▁prosper	-11.3625
▁uproar	-11.3625
▁giant	-11.3625
▁pensive	-11.3625
▁screen	-11.3625
▁hostility	-11.3625
▁crystal	-11.3625
▁gust	-11.3625
▁foresee	-11.3625
▁Mere	-11.3625
▁oats	-11.3625
▁hither	-11.3625
▁constitution	-11.3625
▁displeasure	-11.3625
▁medical	-11.3625
▁interven	-11.3625
▁weariness	-11.3626
▁unite	-11.3626
▁concentrated	-11.3626
▁hips	-11.3626
▁XXV	-11.3626
▁pleasing	-11.3626
▁oppressive	-11.3627
▁native	-11.3627
▁noblemen	-11.3627
▁upwards	-11.3627
▁knotted	-11.3627
▁pressure	-11.3627
▁devis	-11.3628
▁fret	-11.3628
▁establishment	-11.363
▁Beau	-11.3631
▁employment	-11.3631
▁impose	-11.3632
▁contributed	-11.3632
▁exaggerated	-11.3632
Stop	-11.3634
elect	-11.3634
▁perish	-11.3635
▁boldness	-11.3635
▁rap	-11.3637
▁raft	-11.3637
▁truthful	-11.3639
▁succession	-11.364
▁revived	-11.3641
▁politely	-11.3642
▁preach	-11.3643
▁recently	-11.3645
▁maiden	-11.3647
▁embroidery	-11.3655
▁senseless	-11.3656
▁topic	-11.3657
▁mown	-11.366
▁masses	-11.3667
▁earnestly	-11.3669
▁armies	-11.367
▁ridge	-11.3685
▁pop	-11.3686
▁eighty	-11.3691
▁duel	-11.3701
▁envelop	-11.371
▁mournful	-11.3711
▁paw	-11.3842
fold	-11.3865
▁Fran	-11.3887
itten	-11.3954
▁weaken	-11.3994
▁exceptional	-11.4009
position	-11.4041
▁Mai	-11.4042
▁argument	-11.4052
▁Beside	-11.4058
▁defect	-11.4067
▁tap	-11.4141
▁wander	-11.4141
▁perch	-11.4161
hau	-11.4163
▁arrang	-11.4179
▁heavi	-11.4181
claim	-11.4188
knife	-11.4189
perhaps	-11.4189
▁emerg	-11.4195
▁relat	-11.4205
bound	-11.4216
▁suffice	-11.4222
▁assume	-11.4222
▁tempt	-11.4239
▁marr	-11.4244
▁ignor	-11.4246
▁Council	-11.4248
▁intellect	-11.4249
Impossible	-11.4249
breeches	-11.4249
▁Doctor	-11.4249
▁George	-11.4249
▁Korsunsky	-11.4249
▁Matrena	-11.4249
▁Nevedovsky	-11.4249
▁Paquette	-11.4249
▁Service	-11.4249
▁advancing	-11.4249
▁anticipation	-11.4249
▁arriving	-11.4249
▁artificial	-11.4249
▁attorney	-11.4249
▁bridegroom	-11.4249
▁capricious	-11.4249
▁choked	-11.4249
▁conception	-11.4249
▁constitute	-11.4249
▁contemplation	-11.4249
▁correspond	-11.4249
▁degradation	-11.4249
▁destiny	-11.4249
▁disappointed	-11.4249
▁dishonest	-11.4249
▁eccentric	-11.4249
▁engross	-11.4249
▁genuine	-11.4249
▁gravity	-11.4249
▁horrified	-11.4249
▁imagining	-11.4249
▁impressive	-11.4249
▁liquid	-11.4249
▁negative	-11.4249
▁negotiat	-11.4249
▁parallel	-11.4249
▁perception	-11.4249
▁persecut	-11.4249
▁piteous	-11.4249
▁rejoice	-11.4249
▁romantic	-11.4249
▁ruddy	-11.4249
▁sarcastic	-11.4249
▁sepulchr	-11.4249
▁skiff	-11.4249
▁smelt	-11.4249
▁sovereign	-11.4249
▁stupefied	-11.4249
▁temporary	-11.4249
▁vessel	-11.4249
▁virgin	-11.4249
▁worries	-11.4249
▁Nature	-11.4249
▁THAT	-11.4249
▁cheap	-11.4249
▁damsel	-11.4249
▁elaborate	-11.4249
▁fancies	-11.4249
▁genial	-11.4249
▁surgeon	-11.4249
▁symptom	-11.4249
▁torrent	-11.4249
▁vibration	-11.4249
▁conform	-11.4249
▁injustice	-11.4249
▁outburst	-11.4249
▁lustre	-11.4249
▁Among	-11.4249
▁likewise	-11.4249
▁sportsmen	-11.4249
▁stump	-11.4249
▁lazy	-11.4249
▁XXVII	-11.4249
▁deacon	-11.4249
▁bribe	-11.4249
▁yelp	-11.425
▁assign	-11.425
▁harass	-11.425
▁curved	-11.425
▁glee	-11.425
▁copy	-11.425
▁dropping	-11.425
▁slumber	-11.425
▁humming	-11.425
▁dried	-11.425
▁resound	-11.425
▁demonstrat	-11.425
▁rake	-11.425
EAR	-11.425
▁coincide	-11.425
▁detach	-11.425
DAY	-11.425
▁jeer	-11.425
▁azure	-11.425
Brother	-11.425
▁canvas	-11.4251
▁feeding	-11.4251
▁allusion	-11.4251
▁excessive	-11.4251
▁doom	-11.4251
▁adjoin	-11.4252
▁provostship	-11.4252
▁scold	-11.4252
▁sphere	-11.4252
▁facing	-11.4253
▁comfortably	-11.4253
▁gloomily	-11.4253
▁tuck	-11.4254
▁ditch	-11.4254
Speak	-11.4254
▁woe	-11.4254
▁glare	-11.4256
▁sex	-11.4257
▁foam	-11.4257
▁ripe	-11.4257
▁superiority	-11.4258
▁affectionate	-11.426
ardinal	-11.4261
▁successive	-11.4261
▁fireside	-11.4262
▁armchair	-11.4263
▁Toward	-11.4264
umber	-11.4265
▁wages	-11.4265
▁stifled	-11.4267
▁aching	-11.4269
▁liar	-11.427
▁papa	-11.4271
▁lull	-11.4271
▁modesty	-11.4272
▁certainty	-11.4276
▁pout	-11.4279
▁sash	-11.4281
▁cock	-11.4291
▁deriv	-11.4304
atory	-11.4305
luck	-11.433
Help	-11.4331
▁rotte	-11.4354
▁bustle	-11.4573
fashioned	-11.4592
▁GO	-11.4609
▁crumble	-11.464
▁buck	-11.4717
▁election	-11.4719
▁method	-11.4719
sill	-11.4773
▁compar	-11.4821
OV	-11.483
after	-11.4848
back	-11.4854
▁establish	-11.4855
Besides	-11.4856
▁suspect	-11.4862
▁puzzl	-11.4862
▁unwo	-11.4866
▁oppos	-11.487
EL	-11.4882
much	-11.4901
▁torch	-11.4912
▁inevitab	-11.4912
▁hire	-11.4912
▁uncertain	-11.4914
Pasque	-11.4916
Remember	-11.4916
▁Flamel	-11.4916
▁Hivert	-11.4916
▁KARENIN	-11.4916
▁Lestiboudois	-11.4916
▁Miracles	-11.4916
▁Orsini	-11.4916
▁Providence	-11.4916
▁Rosamond	-11.4916
▁Snetkov	-11.4916
▁Widow	-11.4916
▁accursed	-11.4916
▁annoyance	-11.4916
▁apologise	-11.4916
▁associate	-11.4916
▁betrothed	-11.4916
▁boast	-11.4916
▁bonfire	-11.4916
▁bouquet	-11.4916
▁caution	-11.4916
▁delicious	-11.4916
▁discreet	-11.4916
▁disregard	-11.4916
▁exhibit	-11.4916
▁exquisite	-11.4916
▁gaiety	-11.4916
▁generosity	-11.4916
▁inexpressibl	-11.4916
▁inhabitants	-11.4916
▁inspiration	-11.4916
▁irritable	-11.4916
▁joking	-11.4916
▁junior	-11.4916
▁lilac	-11.4916
▁luxuri	-11.4916
▁messenger	-11.4916
▁narrative	-11.4916
▁obedience	-11.4916
▁opponent	-11.4916
▁perplexity	-11.4916
▁photographs	-11.4916
▁positive	-11.4916
▁potatoes	-11.4916
▁quadrille	-11.4916
▁reception	-11.4916
▁rendezvous	-11.4916
▁studies	-11.4916
▁telephone	-11.4916
▁throb	-11.4916
▁trumpet	-11.4916
▁unfaithful	-11.4916
▁variety	-11.4916
▁writhed	-11.4916
▁Baroness	-11.4916
▁Douglas	-11.4916
▁Ghent	-11.4916
▁Varya	-11.4916
▁dishonour	-11.4916
▁hieroglyph	-11.4916
▁meditation	-11.4916
▁shrink	-11.4916
▁urging	-11.4916
▁chestnut	-11.4916
▁clover	-11.4916
▁conventional	-11.4916
▁cotton	-11.4916
▁sprinkl	-11.4916
▁suffus	-11.4916
▁parcel	-11.4916
▁tidy	-11.4916
▁damage	-11.4916
▁dismay	-11.4916
▁orchard	-11.4916
▁pallet	-11.4916
▁reassur	-11.4916
▁smash	-11.4916
▁Tartar	-11.4916
▁worm	-11.4916
▁liking	-11.4916
▁presume	-11.4916
▁undertaking	-11.4916
▁unwilling	-11.4916
▁jail	-11.4916
▁pike	-11.4916
▁decree	-11.4916
▁flapp	-11.4916
▁protest	-11.4916
▁zeal	-11.4916
▁orange	-11.4916
▁High	-11.4916
▁adultery	-11.4916
▁roast	-11.4916
▁crust	-11.4916
▁snore	-11.4916
▁reverse	-11.4917
▁fuss	-11.4917
▁concentr	-11.4917
▁propriety	-11.4917
▁wives	-11.4917
▁sanctuary	-11.4917
▁succ	-11.4917
▁plait	-11.4917
Hush	-11.4917
▁battlements	-11.4917
▁furtive	-11.4918
▁streak	-11.4918
Thomas	-11.4918
▁smother	-11.4918
▁rye	-11.4919
▁stripped	-11.4919
▁shelf	-11.4919
▁towel	-11.4919
▁pluck	-11.4919
▁idiotic	-11.4919
▁beef	-11.4919
▁madam	-11.4919
▁infantry	-11.4919
▁aspen	-11.492
▁liberality	-11.492
▁inevitable	-11.4921
▁slim	-11.4921
▁sunset	-11.4921
▁June	-11.4921
▁ceaseless	-11.4922
▁attendant	-11.4923
▁Willem	-11.4924
▁drum	-11.4924
▁conqueror	-11.4924
▁quarrelled	-11.4924
▁management	-11.4925
▁Over	-11.4926
▁Six	-11.4926
▁queen	-11.4927
▁hut	-11.4927
▁attraction	-11.493
▁selfish	-11.493
▁distinction	-11.4931
▁fashionable	-11.4933
otted	-11.4933
▁lucky	-11.4938
▁factions	-11.4938
▁consultation	-11.495
▁eh	-11.495
▁Rat	-11.4951
▁adhere	-11.4962
▁thankful	-11.4974
▁bodi	-11.4993
▁compare	-11.4996
▁brim	-11.5003
covered	-11.502
▁gravel	-11.5047
▁tapp	-11.5055
round	-11.5116
▁buckle	-11.5129
▁sorrowful	-11.5162
awed	-11.5233
Eh	-11.5257
▁advis	-11.5392
▁root	-11.5438
▁preparation	-11.5442
giver	-11.5455
Love	-11.5479
▁quiver	-11.5521
▁origin	-11.556
ground	-11.5567
Lord	-11.557
struck	-11.557
human	-11.557
watch	-11.5571
▁vex	-11.5573
▁develop	-11.5574
without	-11.5574
▁dismiss	-11.5576
▁pronounc	-11.5577
▁reveal	-11.5577
▁twist	-11.558
▁rebel	-11.5593
▁brac	-11.56
▁recognise	-11.5603
▁cautious	-11.5606
▁precise	-11.5606
front	-11.5614
▁victor	-11.5618
▁recent	-11.5624
rovincial	-11.5628
rouble	-11.5628
▁ANNA	-11.563
▁Governor	-11.563
▁Lukich	-11.563
▁ascertain	-11.563
▁disengag	-11.563
▁ejaculat	-11.563
▁glisten	-11.563
▁oysters	-11.563
▁rescue	-11.563
▁responsibility	-11.563
▁solicit	-11.563
▁timber	-11.563
▁tuft	-11.563
thwart	-11.563
▁Commander	-11.563
▁Florian	-11.563
▁Member	-11.563
▁Naples	-11.563
▁Poussepain	-11.563
▁School	-11.563
▁album	-11.563
▁alternately	-11.563
▁artillery	-11.563
▁cemetery	-11.563
▁commotion	-11.563
▁conscientious	-11.563
▁conversing	-11.563
▁convulsion	-11.563
▁diamond	-11.563
▁drenched	-11.563
▁ecstatic	-11.563
▁elevated	-11.563
▁encouraging	-11.563
▁eternity	-11.563
▁feebly	-11.563
▁fortresses	-11.563
▁gratified	-11.563
▁helmet	-11.563
▁inexplicable	-11.563
▁intimacy	-11.563
▁luggage	-11.563
▁masonry	-11.563
▁meditating	-11.563
▁muslin	-11.563
▁offensive	-11.563
▁paradise	-11.563
▁parliament	-11.563
▁pavilion	-11.563
▁phantom	-11.563
▁physiognomy	-11.563
▁preoccupied	-11.563
▁repetition	-11.563
▁scientific	-11.563
▁snort	-11.563
▁submissive	-11.563
▁substance	-11.563
▁suspicious	-11.563
▁tapestry	-11.563
▁thimble	-11.563
▁thirteen	-11.563
▁transport	-11.563
▁unbearable	-11.563
▁uneasily	-11.563
▁unnoticed	-11.563
▁valuable	-11.563
▁vicinity	-11.563
▁vivacity	-11.563
▁void	-11.563
Farewell	-11.563
▁dainty	-11.563
▁insect	-11.563
▁instructions	-11.563
▁pistol	-11.563
▁regulat	-11.563
▁vigour	-11.563
▁blaze	-11.563
▁exalted	-11.563
▁ivory	-11.563
▁pebbl	-11.563
▁blond	-11.563
▁combination	-11.563
▁fagot	-11.563
▁grease	-11.563
▁blink	-11.563
▁inquiries	-11.563
▁speck	-11.563
▁squeak	-11.563
▁imposing	-11.563
▁proposal	-11.563
wung	-11.563
▁Celine	-11.563
▁Half	-11.563
▁deniers	-11.563
▁product	-11.563
▁recess	-11.563
▁titter	-11.563
▁assuming	-11.563
▁vote	-11.563
▁combined	-11.563
▁nourish	-11.563
▁odious	-11.563
▁deuce	-11.5631
▁morsel	-11.5631
▁rustic	-11.5631
▁gush	-11.5631
▁claws	-11.5631
▁elected	-11.5631
▁NOT	-11.5631
▁minor	-11.5631
▁internal	-11.5631
▁boss	-11.5631
▁charwoman	-11.5631
▁nook	-11.5631
▁stumbled	-11.5631
major	-11.5631
▁musing	-11.5631
▁ragged	-11.5631
▁intersect	-11.5631
▁actors	-11.5632
▁detest	-11.5632
▁Councillor	-11.5632
▁August	-11.5632
▁Order	-11.5633
▁clay	-11.5633
▁birthday	-11.5633
▁parson	-11.5634
▁errand	-11.5634
▁intonation	-11.5634
▁continuous	-11.5634
▁bodice	-11.5634
▁attachment	-11.5635
▁nobleman	-11.5635
▁sparkled	-11.5635
Cross	-11.5636
▁heaved	-11.5636
▁auntie	-11.5636
▁communion	-11.5637
▁assembly	-11.5637
uick	-11.5637
▁sixteenth	-11.5637
▁snap	-11.5637
▁hoot	-11.5637
▁chaise	-11.5638
▁parish	-11.5638
▁safety	-11.5638
▁combat	-11.5638
▁steady	-11.564
▁rapidity	-11.564
▁revery	-11.564
▁blight	-11.564
▁secretary	-11.564
▁purity	-11.5641
▁spout	-11.5641
▁scarf	-11.5642
▁bleat	-11.5643
▁roam	-11.5646
▁Frenchman	-11.5646
▁exertion	-11.5647
Sister	-11.5651
▁gait	-11.566
LL	-11.5741
▁urge	-11.5752
Won	-11.5772
agging	-11.5877
propos	-11.593
colored	-11.5974
▁lapse	-11.5994
collector	-11.6035
plat	-11.6117
solved	-11.6152
▁spoon	-11.6192
▁garment	-11.6202
▁guest	-11.6203
▁feature	-11.6204
Giv	-11.6211
▁surround	-11.629
▁perceiv	-11.6311
▁pie	-11.6317
folk	-11.6338
field	-11.6339
class	-11.6339
waited	-11.6339
▁wrinkl	-11.6345
▁calculat	-11.6345
▁renew	-11.6353
gorge	-11.6362
▁devote	-11.6372
▁retire	-11.6372
▁mingle	-11.6372
▁brand	-11.6387
▁dirt	-11.6393
▁idiot	-11.6396
▁excess	-11.6398
▁access	-11.64
ological	-11.64
▁endeavor	-11.64
According	-11.64
Estouteville	-11.64
Probably	-11.64
▁Briggs	-11.64
▁Falourdel	-11.64
▁Filimonovna	-11.64
▁Giovanni	-11.64
▁Merkalova	-11.64
▁Romagna	-11.64
▁Secretary	-11.64
▁Tuesday	-11.64
▁Turovtsyn	-11.64
▁Vincart	-11.64
▁William	-11.64
▁abbey	-11.64
▁afresh	-11.64
▁ambitious	-11.64
▁apparition	-11.64
▁arbour	-11.64
▁bargain	-11.64
▁bracelet	-11.64
▁brutal	-11.64
▁candlestick	-11.64
▁celebrity	-11.64
▁circum	-11.64
▁circus	-11.64
▁contend	-11.64
▁deformity	-11.64
▁degrading	-11.64
▁delirious	-11.64
▁diligence	-11.64
▁discomfort	-11.64
▁drapery	-11.64
▁emphasis	-11.64
▁exciting	-11.64
▁exclude	-11.64
▁fascination	-11.64
▁gendarme	-11.64
▁grotesque	-11.64
▁harbour	-11.64
▁hazard	-11.64
▁imbecile	-11.64
▁immobility	-11.64
▁inexperience	-11.64
▁inherited	-11.64
▁innocence	-11.64
▁journal	-11.64
▁labyrinth	-11.64
▁loneliness	-11.64
▁mercenaries	-11.64
▁merciful	-11.64
▁multiplied	-11.64
▁perpetual	-11.64
▁politics	-11.64
▁porcelain	-11.64
▁primi	-11.64
▁prosecut	-11.64
▁prudent	-11.64
▁pudding	-11.64
▁recommenced	-11.64
▁rector	-11.64
▁referred	-11.64
▁register	-11.64
▁revelation	-11.64
▁reverberat	-11.64
▁sensual	-11.64
▁significance	-11.64
▁triangle	-11.64
▁turret	-11.64
▁twinkle	-11.64
▁unhappiness	-11.64
▁venomous	-11.64
▁wreath	-11.64
▁yourselves	-11.64
▁PART	-11.64
▁diminish	-11.64
▁eventually	-11.64
▁feudal	-11.64
▁guidance	-11.64
▁hesitating	-11.64
▁impetuous	-11.64
▁referring	-11.64
▁romance	-11.64
▁shield	-11.64
▁siege	-11.64
▁slaughter	-11.64
▁sunshade	-11.64
▁verdict	-11.64
abundance	-11.64
▁conspire	-11.64
▁mirth	-11.64
▁mule	-11.64
▁parchment	-11.64
▁sworn	-11.64
▁tendency	-11.64
▁Monday	-11.64
▁blast	-11.64
▁caprice	-11.64
▁donjon	-11.64
▁manikin	-11.64
▁Life	-11.64
▁stack	-11.64
▁ocean	-11.64
ovsky	-11.64
▁sincerity	-11.64
▁hermetic	-11.64
▁patted	-11.64
▁ardour	-11.64
▁clutch	-11.64
▁shaft	-11.64
▁tiger	-11.64
▁Huld	-11.64
▁model	-11.64
▁nightmare	-11.64
▁sneer	-11.64
nceforth	-11.64
▁pump	-11.64
Victor	-11.64
▁sponge	-11.64
Croix	-11.64
▁idol	-11.64
▁exult	-11.64
▁tedious	-11.64
▁steel	-11.64
▁strangl	-11.64
angular	-11.64
▁launch	-11.64
▁lashes	-11.64
▁reverie	-11.64
▁dominion	-11.64
▁pondered	-11.64
▁shutters	-11.64
▁Mahom	-11.6401
▁calculations	-11.6401
▁scamp	-11.6401
▁philosophical	-11.6401
▁skip	-11.6401
AME	-11.6401
▁beetle	-11.6401
▁vases	-11.6401
▁astound	-11.6401
▁gables	-11.6401
Death	-11.6401
▁redoubled	-11.6402
▁perchance	-11.6402
▁countries	-11.6402
▁section	-11.6402
itular	-11.6404
▁piqu	-11.6404
▁saving	-11.6404
▁Night	-11.6405
▁FOR	-11.6405
▁disturbance	-11.6406
▁fox	-11.6407
▁dragon	-11.6407
▁spil	-11.6408
▁crone	-11.6408
▁timidity	-11.641
▁menace	-11.6428
▁tub	-11.6431
▁medal	-11.6513
ALL	-11.6592
▁slamm	-11.6606
Pol	-11.6656
▁pond	-11.6673
Ville	-11.6764
▁semi	-11.6939
chased	-11.7034
▁spectator	-11.7036
▁relative	-11.7038
▁embrac	-11.7112
▁realiz	-11.712
keep	-11.7156
satisfied	-11.7171
quarters	-11.7172
control	-11.7172
Everything	-11.7172
interest	-11.7172
girl	-11.7173
from	-11.7173
▁confirm	-11.7176
▁astonish	-11.7177
▁rejoin	-11.7179
▁vanish	-11.7179
down	-11.7193
▁polite	-11.7203
▁reconcile	-11.7205
▁hesitate	-11.7205
▁tire	-11.7215
▁disagree	-11.723
mitted	-11.7231
▁crescent	-11.7233
▁included	-11.7233
▁inquisitive	-11.7233
▁multi	-11.7233
▁proprietor	-11.7233
▁umbrella	-11.7233
Hermite	-11.7233
apprehension	-11.7233
knives	-11.7233
stricken	-11.7233
substantial	-11.7233
▁Florentines	-11.7233
▁Korney	-11.7233
▁Lloyd	-11.7233
▁Majesty	-11.7233
▁Marguerite	-11.7233
▁Messer	-11.7233
▁Moulin	-11.7233
▁President	-11.7233
▁Sappho	-11.7233
▁Varens	-11.7233
▁Vaubyessard	-11.7233
▁Wednesday	-11.7233
▁aperture	-11.7233
▁assault	-11.7233
▁breviary	-11.7233
▁chateau	-11.7233
▁chevalier	-11.7233
▁civilization	-11.7233
▁congregation	-11.7233
▁consecrat	-11.7233
▁cravat	-11.7233
▁daybreak	-11.7233
▁decorated	-11.7233
▁deferred	-11.7233
▁determination	-11.7233
▁disadvantage	-11.7233
▁dishevelled	-11.7233
▁dispense	-11.7233
▁dispersed	-11.7233
▁drooped	-11.7233
▁dungeon	-11.7233
▁emaciated	-11.7233
▁emphasiz	-11.7233
▁expedient	-11.7233
▁exterminat	-11.7233
▁feminine	-11.7233
▁fidelity	-11.7233
▁fragran	-11.7233
▁gipsy	-11.7233
▁gracious	-11.7233
▁granite	-11.7233
▁gratification	-11.7233
▁haggard	-11.7233
▁heretofore	-11.7233
▁humiliating	-11.7233
▁imperfect	-11.7233
▁interlocutor	-11.7233
▁introduction	-11.7233
▁irresistible	-11.7233
▁legitimate	-11.7233
▁lobster	-11.7233
▁mazurka	-11.7233
▁misunderstood	-11.7233
▁mixture	-11.7233
▁nigger	-11.7233
▁oblique	-11.7233
▁perpendicular	-11.7233
▁pinafore	-11.7233
▁pitiless	-11.7233
▁population	-11.7233
▁portfolio	-11.7233
▁provoke	-11.7233
▁provoking	-11.7233
▁recreation	-11.7233
▁recurred	-11.7233
▁refined	-11.7233
▁refinement	-11.7233
▁responsible	-11.7233
▁robust	-11.7233
▁samovar	-11.7233
▁scaffold	-11.7233
▁scheme	-11.7233
▁serenity	-11.7233
▁shroud	-11.7233
▁specimen	-11.7233
▁structure	-11.7233
▁subsequent	-11.7233
▁thigh	-11.7233
▁thumb	-11.7233
▁twinkling	-11.7233
▁underneath	-11.7233
▁uneasiness	-11.7233
▁Jesus	-11.7233
▁assurance	-11.7233
▁engine	-11.7233
▁groped	-11.7233
▁mingling	-11.7233
▁opposition	-11.7233
▁ransack	-11.7233
▁rebellion	-11.7233
▁sobbed	-11.7233
▁temperament	-11.7233
▁vicious	-11.7233
▁Pilate	-11.7233
▁shilling	-11.7233
▁tutor	-11.7233
▁Honour	-11.7233
▁falter	-11.7233
▁momentarily	-11.7233
▁AFTER	-11.7233
▁Lanz	-11.7233
▁Wood	-11.7233
▁device	-11.7233
▁Marquis	-11.7233
▁monkey	-11.7233
▁rumour	-11.7233
▁crag	-11.7233
▁noisily	-11.7233
▁partially	-11.7233
▁amulet	-11.7233
▁enlighten	-11.7233
▁alert	-11.7233
▁Cousin	-11.7233
▁patent	-11.7233
▁vibrate	-11.7233
smith	-11.7233
▁redoub	-11.7233
▁thinner	-11.7233
▁alright	-11.7233
probation	-11.7233
▁louts	-11.7233
▁rash	-11.7233
▁capture	-11.7233
▁dangl	-11.7233
▁cuffs	-11.7233
Strange	-11.7234
▁calves	-11.7234
▁convert	-11.7234
▁initial	-11.7234
▁dram	-11.7234
▁pacify	-11.7234
▁raw	-11.7234
▁precede	-11.7234
▁urgent	-11.7234
▁Anyway	-11.7234
▁forbid	-11.7234
▁surg	-11.7234
True	-11.7235
▁fought	-11.7235
Consider	-11.7235
▁Bourg	-11.7235
▁slice	-11.7235
▁horseback	-11.7235
▁uncertainty	-11.7235
▁violat	-11.7235
▁Henri	-11.7235
▁relationship	-11.7235
▁meek	-11.7236
▁function	-11.7236
▁scowl	-11.7236
▁confirmation	-11.7236
▁icon	-11.7236
▁Augustus	-11.7236
▁inspection	-11.7237
▁wakened	-11.7237
▁travelled	-11.7237
▁New	-11.7237
▁caressed	-11.7237
▁entry	-11.7238
▁rational	-11.7238
▁mun	-11.7238
▁tribe	-11.7239
▁barber	-11.7239
▁invest	-11.7241
▁hue	-11.7241
▁hermit	-11.7242
▁strode	-11.7244
▁hack	-11.7248
Make	-11.7249
▁formula	-11.7249
merged	-11.7254
▁err	-11.7278
▁spade	-11.7278
▁intrude	-11.7299
Almost	-11.7314
▁flitt	-11.736
▁identi	-11.7562
east	-11.7875
▁document	-11.7946
plai	-11.7963
risen	-11.7987
Much	-11.8007
stitution	-11.8022
▁glitter	-11.8032
▁acknowledg	-11.8039
▁troubl	-11.8063
▁exchang	-11.8071
Maybe	-11.808
habit	-11.8081
cake	-11.8081
Jacques	-11.8081
dream	-11.8082
those	-11.8082
corner	-11.8082
▁suppress	-11.8087
▁accustom	-11.8088
▁philosoph	-11.8089
▁excite	-11.8112
▁inspire	-11.8114
▁resolve	-11.8115
▁restore	-11.8115
wager	-11.813
▁manufactur	-11.813
figur	-11.8137
▁Gospel	-11.8142
▁extricat	-11.8142
▁immoral	-11.8142
▁philanthropi	-11.8142
▁superficial	-11.8142
Footman	-11.8142
Gentlemen	-11.8142
intelligible	-11.8142
intoxicated	-11.8142
▁April	-11.8142
▁Boulanger	-11.8142
▁Burgundy	-11.8142
▁Department	-11.8142
▁Fortunately	-11.8142
▁Guillaumin	-11.8142
▁Julius	-11.8142
▁Lowton	-11.8142
▁Nobody	-11.8142
▁OBLONSKY	-11.8142
▁Pigeon	-11.8142
▁Pillar	-11.8142
▁Pokrovsk	-11.8142
▁Slyudin	-11.8142
▁Sorokina	-11.8142
▁Viscount	-11.8142
▁abashed	-11.8142
▁acclamation	-11.8142
▁audacious	-11.8142
▁benign	-11.8142
▁brazen	-11.8142
▁cavalier	-11.8142
▁chocolate	-11.8142
▁clenched	-11.8142
▁comprehension	-11.8142
▁depraved	-11.8142
▁destruction	-11.8142
▁dictionary	-11.8142
▁discretion	-11.8142
▁essential	-11.8142
▁exasperated	-11.8142
▁expanse	-11.8142
▁exterior	-11.8142
▁flourishing	-11.8142
▁frenzy	-11.8142
▁generation	-11.8142
▁goloshes	-11.8142
▁grandfather	-11.8142
▁hedgehog	-11.8142
▁hymn	-11.8142
▁hypocrisy	-11.8142
▁immortal	-11.8142
▁incredible	-11.8142
▁infidelity	-11.8142
▁insensibl	-11.8142
▁leagues	-11.8142
▁livid	-11.8142
▁lugubrious	-11.8142
▁malady	-11.8142
▁meagre	-11.8142
▁mendicant	-11.8142
▁napkin	-11.8142
▁nightshirt	-11.8142
▁occurrence	-11.8142
▁ordinance	-11.8142
▁pharmacy	-11.8142
▁prejudice	-11.8142
▁rattled	-11.8142
▁receipt	-11.8142
▁remnant	-11.8142
▁repelled	-11.8142
▁reprimand	-11.8142
▁repugnan	-11.8142
▁resentment	-11.8142
▁revoir	-11.8142
▁sabbath	-11.8142
▁seigneur	-11.8142
▁sneeze	-11.8142
▁splendor	-11.8142
▁staggered	-11.8142
▁steadfast	-11.8142
▁straggl	-11.8142
▁stunned	-11.8142
▁supreme	-11.8142
▁temporal	-11.8142
▁thump	-11.8142
▁tragedy	-11.8142
▁undecided	-11.8142
▁unequal	-11.8142
▁universe	-11.8142
▁virtuous	-11.8142
▁voyage	-11.8142
▁whirlwind	-11.8142
▁wrench	-11.8142
▁Gutenberg	-11.8142
▁Nataly	-11.8142
▁Picard	-11.8142
▁Rollet	-11.8142
▁architectural	-11.8142
▁composition	-11.8142
▁confronted	-11.8142
▁despatch	-11.8142
▁garland	-11.8142
▁intense	-11.8142
▁lineaments	-11.8142
▁nineteen	-11.8142
▁squire	-11.8142
▁ugliness	-11.8142
▁unheard	-11.8142
▁unlucky	-11.8142
▁villain	-11.8142
▁worship	-11.8142
▁Office	-11.8142
▁Venus	-11.8142
▁damned	-11.8142
▁evinc	-11.8142
▁nursing	-11.8142
▁pallid	-11.8142
▁stupor	-11.8142
▁antique	-11.8142
▁intrigue	-11.8142
▁southern	-11.8142
▁spiral	-11.8142
▁cherry	-11.8142
▁decoration	-11.8142
▁fief	-11.8142
▁grove	-11.8142
▁stung	-11.8142
▁Linon	-11.8142
▁unseen	-11.8142
witching	-11.8142
▁clang	-11.8142
▁pucker	-11.8142
▁spasm	-11.8142
▁barrel	-11.8142
▁gnash	-11.8142
▁shiny	-11.8142
▁washstand	-11.8142
Keep	-11.8142
▁Carter	-11.8142
▁Egor	-11.8142
▁feign	-11.8142
▁begging	-11.8142
▁nasty	-11.8142
▁sedge	-11.8142
▁zone	-11.8142
▁local	-11.8142
▁Noticing	-11.8142
▁Afterwards	-11.8142
▁goose	-11.8142
▁augment	-11.8142
▁domain	-11.8142
▁tiresome	-11.8142
▁locksmith	-11.8143
▁dissatisfaction	-11.8143
▁ivy	-11.8143
▁niche	-11.8143
▁cardboard	-11.8143
▁folding	-11.8143
GHT	-11.8143
▁Champ	-11.8143
▁gnaw	-11.8143
▁sheaves	-11.8143
▁accomplishments	-11.8143
▁pomp	-11.8143
▁tinkl	-11.8143
Mercy	-11.8143
▁spurs	-11.8143
▁threatened	-11.8143
▁cannon	-11.8143
▁FRO	-11.8144
▁proclaim	-11.8144
▁shopkeeper	-11.8144
▁historic	-11.8144
▁winning	-11.8145
▁prostrat	-11.8145
▁ankle	-11.8146
▁comedy	-11.8146
▁compass	-11.8147
▁tract	-11.8147
▁crock	-11.8148
▁germ	-11.8152
▁retrac	-11.8157
▁trickl	-11.8178
▁horizontal	-11.8217
Dead	-11.8224
Child	-11.8226
▁displeas	-11.8245
▁excus	-11.825
tempered	-11.8446
sailed	-11.8472
Till	-11.8496
jected	-11.86
drawn	-11.8739
shouldered	-11.8842
servant	-11.8852
▁sergeant	-11.8945
camp	-11.908
Captain	-11.908
Jean	-11.908
Pierre	-11.9081
floor	-11.9082
filled	-11.9082
green	-11.9082
spirit	-11.9082
power	-11.9083
▁stifle	-11.9114
▁revive	-11.9114
▁convince	-11.9115
▁contemptuous	-11.9117
▁incessant	-11.9117
▁numb	-11.9118
▁exert	-11.9123
▁profess	-11.9124
▁stead	-11.9128
extinguish	-11.9142
plication	-11.9142
nfortunate	-11.9142
▁PRINCIPALIT	-11.9142
▁accumulat	-11.9142
▁glimmer	-11.9142
▁rabbit	-11.9142
▁smack	-11.9142
Bravo	-11.9142
Twenty	-11.9142
▁Empire	-11.9142
▁Huchette	-11.9142
▁Joannes	-11.9142
▁Kritsky	-11.9142
▁Lombardy	-11.9142
▁Ministry	-11.9142
▁Napoleon	-11.9142
▁Parliament	-11.9142
▁Rennet	-11.9142
▁Scriptur	-11.9142
▁Switzers	-11.9142
▁Voltaire	-11.9142
▁Whitcross	-11.9142
▁abhor	-11.9142
▁abominable	-11.9142
▁acquiring	-11.9142
▁activities	-11.9142
▁administer	-11.9142
▁affirmative	-11.9142
▁animosity	-11.9142
▁apportion	-11.9142
▁austere	-11.9142
▁beauties	-11.9142
▁belfry	-11.9142
▁communicating	-11.9142
▁cradle	-11.9142
▁craft	-11.9142
▁crisis	-11.9142
▁delirium	-11.9142
▁dialogue	-11.9142
▁disillusion	-11.9142
▁dissipated	-11.9142
▁economic	-11.9142
▁effeminate	-11.9142
▁enigma	-11.9142
▁entitled	-11.9142
▁escort	-11.9142
▁experiencing	-11.9142
▁extremities	-11.9142
▁fascinated	-11.9142
▁ferryboat	-11.9142
▁frivolous	-11.9142
▁garret	-11.9142
▁geometric	-11.9142
▁harangue	-11.9142
▁harmonious	-11.9142
▁haunches	-11.9142
▁hereditary	-11.9142
▁imperturbabl	-11.9142
▁impossibilit	-11.9142
▁independence	-11.9142
▁inflamed	-11.9142
▁jovial	-11.9142
▁lectern	-11.9142
▁lieutenant	-11.9142
▁litigants	-11.9142
▁lunatic	-11.9142
▁martyr	-11.9142
▁mediocr	-11.9142
▁miraculous	-11.9142
▁opportunities	-11.9142
▁ottoman	-11.9142
▁perturbation	-11.9142
▁photo	-11.9142
▁picnic	-11.9142
▁premature	-11.9142
▁protracted	-11.9142
▁prudence	-11.9142
▁raspberr	-11.9142
▁rattling	-11.9142
▁relinquish	-11.9142
▁reminiscences	-11.9142
▁restaurant	-11.9142
▁sceptic	-11.9142
▁serfdom	-11.9142
▁spacious	-11.9142
▁staggering	-11.9142
▁stumbling	-11.9142
▁tragic	-11.9142
▁tumultuous	-11.9142
▁undoubted	-11.9142
▁unquestionabl	-11.9142
▁valiant	-11.9142
▁vestibule	-11.9142
▁villanous	-11.9142
▁vinegar	-11.9142
grudge	-11.9142
nunciation	-11.9142
▁Hebrew	-11.9142
▁afflict	-11.9142
▁bookseller	-11.9142
▁dauphin	-11.9142
▁ensued	-11.9142
▁fifth	-11.9142
▁forlorn	-11.9142
▁metallic	-11.9142
▁podium	-11.9142
▁prevail	-11.9142
▁skies	-11.9142
▁Aloise	-11.9142
▁Garden	-11.9142
▁hawk	-11.9142
▁mamma	-11.9142
▁pervad	-11.9142
▁thorn	-11.9142
▁aristocrat	-11.9142
▁nightfall	-11.9142
▁Corps	-11.9142
▁endurance	-11.9142
▁messieurs	-11.9142
▁opium	-11.9142
▁Satan	-11.9142
▁procure	-11.9142
accessible	-11.9142
▁Cyrus	-11.9142
▁Source	-11.9142
▁bantering	-11.9142
▁liberat	-11.9142
▁proverb	-11.9142
▁Carlo	-11.9142
▁durable	-11.9142
▁employees	-11.9142
▁depressed	-11.9142
▁digging	-11.9142
▁inmates	-11.9142
▁sneak	-11.9142
▁crib	-11.9142
cotch	-11.9142
▁Mitya	-11.9142
▁besiege	-11.9142
▁application	-11.9142
▁ferry	-11.9142
▁pausing	-11.9142
▁fumbl	-11.9142
▁Jones	-11.9142
▁bony	-11.9142
▁plaid	-11.9142
▁kite	-11.9142
▁undulat	-11.9142
Rouge	-11.9142
▁disown	-11.9142
▁apology	-11.9142
▁crest	-11.9142
▁laboratory	-11.9142
▁wail	-11.9142
▁construction	-11.9142
▁monarch	-11.9142
▁denied	-11.9143
▁kid	-11.9143
▁pledge	-11.9143
▁baker	-11.9143
▁inhabited	-11.9143
▁Homer	-11.9143
▁rearrang	-11.9143
▁trail	-11.9143
▁Brit	-11.9143
▁promot	-11.9143
▁abode	-11.9143
▁Commission	-11.9143
▁tugg	-11.9143
pendent	-11.9143
▁smot	-11.9143
▁intercourse	-11.9144
▁depict	-11.9144
▁elm	-11.9144
▁stitch	-11.9145
▁covet	-11.9145
▁butcher	-11.9146
▁butler	-11.9147
▁heroic	-11.9148
Corne	-11.9149
▁Spar	-11.9152
▁reap	-11.9158
▁signifie	-11.9547
▁customar	-11.9737
▁dwel	-12.003
▁enthusiastic	-12.005
ccustomed	-12.0088
lready	-12.009
half	-12.0151
truded	-12.0165
▁extra	-12.0171
cloth	-12.0184
important	-12.0187
educated	-12.0191
Djali	-12.0192
wheat	-12.0192
paper	-12.0192
inclined	-12.0192
direct	-12.0192
fallen	-12.0193
walk	-12.0193
three	-12.0194
year	-12.0194
▁educat	-12.0195
▁expand	-12.0199
hanging	-12.0203
leave	-12.0223
▁efface	-12.0225
▁pierce	-12.0226
ugust	-12.0245
▁differ	-12.0249
▁settl	-12.025
▁magnifi	-12.0253
▁adapt	-12.0253
▁captivat	-12.0253
▁expend	-12.0253
▁Further	-12.0253
▁cordiality	-12.0253
▁eagle	-12.0253
▁famished	-12.0253
▁fidget	-12.0253
▁infirm	-12.0253
▁laziness	-12.0253
▁obstruct	-12.0253
▁orchestra	-12.0253
▁pillage	-12.0253
▁taciturn	-12.0253
▁turban	-12.0253
▁turkey	-12.0253
Continue	-12.0253
Immediately	-12.0253
▁Argot	-12.0253
▁Austria	-12.0253
▁BEFORE	-12.0253
▁Beyond	-12.0253
▁Bryansky	-12.0253
▁Chirikov	-12.0253
▁Colombe	-12.0253
▁Julian	-12.0253
▁Kapitonich	-12.0253
▁Madeira	-12.0253
▁Neufchatel	-12.0253
▁October	-12.0253
▁PRINCE	-12.0253
▁Renaissance	-12.0253
▁Sforza	-12.0253
▁Terrain	-12.0253
▁Testament	-12.0253
▁Torterue	-12.0253
▁abstain	-12.0253
▁accompaniment	-12.0253
▁accusation	-12.0253
▁acquisition	-12.0253
▁aggrandize	-12.0253
▁anecdote	-12.0253
▁antiquity	-12.0253
▁applied	-12.0253
▁arabesques	-12.0253
▁articulate	-12.0253
▁auxiliaries	-12.0253
▁boulevard	-12.0253
▁bruise	-12.0253
▁bureau	-12.0253
▁climate	-12.0253
▁colonnade	-12.0253
▁colossal	-12.0253
▁condescension	-12.0253
▁contemptible	-12.0253
▁convenience	-12.0253
▁crevice	-12.0253
▁culprit	-12.0253
▁cultivated	-12.0253
▁debauchery	-12.0253
▁deformed	-12.0253
▁degrade	-12.0253
▁delusion	-12.0253
▁desperation	-12.0253
▁destitute	-12.0253
▁desyatina	-12.0253
▁diplomati	-12.0253
▁disguise	-12.0253
▁dissuade	-12.0253
▁distorted	-12.0253
▁dramatic	-12.0253
▁elastic	-12.0253
▁eloquent	-12.0253
▁embassy	-12.0253
▁episode	-12.0253
▁exceedingly	-12.0253
▁exhort	-12.0253
▁explosi	-12.0253
▁expound	-12.0253
▁faculty	-12.0253
▁fervent	-12.0253
▁footstool	-12.0253
▁forefinger	-12.0253
▁glazed	-12.0253
▁grammar	-12.0253
▁groping	-12.0253
▁hindrance	-12.0253
▁impediment	-12.0253
▁inconvenient	-12.0253
▁indescribable	-12.0253
▁indispensable	-12.0253
▁indistinct	-12.0253
▁industry	-12.0253
▁ineffable	-12.0253
▁infatuation	-12.0253
▁ingenuous	-12.0253
▁irksome	-12.0253
▁lackeys	-12.0253
▁libertine	-12.0253
▁midwife	-12.0253
▁miniature	-12.0253
▁muzzle	-12.0253
▁obliging	-12.0253
▁obscurity	-12.0253
▁pamphlet	-12.0253
▁poniard	-12.0253
▁porridge	-12.0253
▁possibilities	-12.0253
▁precision	-12.0253
▁probability	-12.0253
▁promising	-12.0253
▁rapacious	-12.0253
▁rapturous	-12.0253
▁replies	-12.0253
▁reviving	-12.0253
▁rumbling	-12.0253
▁sarcasm	-12.0253
▁semicircle	-12.0253
▁shrewd	-12.0253
▁sorcery	-12.0253
▁surmise	-12.0253
▁surplice	-12.0253
▁suspense	-12.0253
▁tobacco	-12.0253
▁traversing	-12.0253
▁tumbling	-12.0253
▁vegetable	-12.0253
▁vespers	-12.0253
▁wearisome	-12.0253
▁witchcraft	-12.0253
▁zigzag	-12.0253
pportune	-12.0253
▁Guard	-12.0253
▁Jeff	-12.0253
▁Palace	-12.0253
▁Serbia	-12.0253
▁aloft	-12.0253
▁calico	-12.0253
▁complication	-12.0253
▁conquest	-12.0253
▁craving	-12.0253
▁dessert	-12.0253
▁discord	-12.0253
▁fraud	-12.0253
▁globe	-12.0253
▁haycock	-12.0253
▁installed	-12.0253
▁junk	-12.0253
▁patriot	-12.0253
▁portico	-12.0253
▁preceding	-12.0253
▁skating	-12.0253
▁soaked	-12.0253
▁stifling	-12.0253
▁suburb	-12.0253
▁tapestrie	-12.0253
▁trifling	-12.0253
▁unceasingly	-12.0253
▁widder	-12.0253
▁Orient	-12.0253
▁braid	-12.0253
▁counsellor	-12.0253
▁curtsey	-12.0253
▁felicit	-12.0253
▁forgetfulness	-12.0253
▁forsake	-12.0253
▁necklace	-12.0253
▁pincers	-12.0253
▁warehouse	-12.0253
▁wolf	-12.0253
▁disputing	-12.0253
▁homage	-12.0253
▁interrogat	-12.0253
▁overheard	-12.0253
▁probable	-12.0253
▁snug	-12.0253
▁tresses	-12.0253
▁Cesare	-12.0253
▁affright	-12.0253
▁available	-12.0253
▁chamberlain	-12.0253
▁chewing	-12.0253
▁dominated	-12.0253
▁gulf	-12.0253
▁renown	-12.0253
▁Nesle	-12.0253
▁omni	-12.0253
▁pagan	-12.0253
▁saddened	-12.0253
ITY	-12.0253
▁Diane	-12.0253
▁nobility	-12.0253
Chapelle	-12.0253
▁gaunt	-12.0253
▁tremen	-12.0253
▁reform	-12.0253
▁ringlets	-12.0253
▁sprain	-12.0253
▁Hill	-12.0253
▁presentiment	-12.0253
amoiselle	-12.0253
▁garb	-12.0253
▁pondering	-12.0253
▁noiselessly	-12.0253
▁partisan	-12.0253
▁reddened	-12.0253
▁quaint	-12.0253
clining	-12.0253
▁hydr	-12.0253
▁docile	-12.0253
▁splint	-12.0253
▁apiary	-12.0253
Begone	-12.0254
▁alms	-12.0254
▁foster	-12.0254
▁inviting	-12.0254
▁acres	-12.0254
▁lances	-12.0254
▁adult	-12.0254
▁deluge	-12.0254
▁hinges	-12.0254
▁fume	-12.0254
ceasing	-12.0254
▁leech	-12.0256
▁balm	-12.0258
Anything	-12.0258
▁Pisa	-12.0265
▁drone	-12.0267
▁Cardi	-12.0268
▁Near	-12.0298
urried	-12.0343
tension	-12.0381
▁pictur	-12.0383
Send	-12.0548
▁seduce	-12.0598
▁dissolve	-12.0622
proportionate	-12.0765
eek	-12.0779
▁tidi	-12.0821
cross	-12.1277
▁deceiv	-12.1419
saddle	-12.1442
possession	-12.1442
familiar	-12.1443
Serezha	-12.1443
Jehan	-12.1443
Adele	-12.1443
Gregor	-12.1443
▁embarrass	-12.1445
More	-12.145
▁traverse	-12.1476
▁deliberate	-12.1478
▁thorough	-12.1479
▁influen	-12.1497
▁clergy	-12.1502
anctuary	-12.1502
tumbled	-12.1502
xtreme	-12.1502
franc	-12.1502
▁constru	-12.1503
▁disenchant	-12.1503
▁encircl	-12.1503
▁nibbl	-12.1503
▁scrutinis	-12.1503
▁Arkadyevich	-12.1503
▁Grinevich	-12.1503
▁Josas	-12.1503
▁Sabbath	-12.1503
▁almond	-12.1503
▁council	-12.1503
▁cucumber	-12.1503
▁damask	-12.1503
▁demolish	-12.1503
▁dissolut	-12.1503
▁fascinating	-12.1503
▁hurricane	-12.1503
▁kopek	-12.1503
▁pepper	-12.1503
▁superstitious	-12.1503
▁surmount	-12.1503
▁trellis	-12.1503
▁trousseau	-12.1503
▁vindictive	-12.1503
ATION	-12.1503
Consequently	-12.1503
Drink	-12.1503
Exactly	-12.1503
Explain	-12.1503
Nonsense	-12.1503
Vozdvizhensk	-12.1503
boeuf	-12.1503
credulous	-12.1503
encumbered	-12.1503
temporarily	-12.1503
terranean	-12.1503
vocal	-12.1503
▁Africa	-12.1503
▁Alfred	-12.1503
▁America	-12.1503
▁Bezzubov	-12.1503
▁Borgia	-12.1503
▁Boucherie	-12.1503
▁Cathedral	-12.1503
▁Catholic	-12.1503
▁Dauphin	-12.1503
▁Especially	-12.1503
▁February	-12.1503
▁Formerly	-12.1503
▁Frederic	-12.1503
▁Galilee	-12.1503
▁Jack	-12.1503
▁Kashin	-12.1503
▁Meeting	-12.1503
▁Nicolas	-12.1503
▁Normandy	-12.1503
▁November	-12.1503
▁Shcherbatskaya	-12.1503
▁Turovtsin	-12.1503
▁Vaska	-12.1503
▁accommodate	-12.1503
▁apparatus	-12.1503
▁approval	-12.1503
▁apricots	-12.1503
▁associations	-12.1503
▁audacity	-12.1503
▁barbarous	-12.1503
▁benefactress	-12.1503
▁bluish	-12.1503
▁brazier	-12.1503
▁chandelier	-12.1503
▁cinders	-12.1503
▁consternation	-12.1503
▁counterfeit	-12.1503
▁cyclop	-12.1503
▁deciding	-12.1503
▁derision	-12.1503
▁devoi	-12.1503
▁disposal	-12.1503
▁division	-12.1503
▁dormitory	-12.1503
▁draperies	-12.1503
▁egotism	-12.1503
▁elephant	-12.1503
▁equilibrium	-12.1503
▁exaggerating	-12.1503
▁exclusive	-12.1503
▁extravagant	-12.1503
▁fervour	-12.1503
▁galleries	-12.1503
▁garrison	-12.1503
▁gliding	-12.1503
▁grumbling	-12.1503
▁gymnastics	-12.1503
▁heartrending	-12.1503
▁illustration	-12.1503
▁imperceptible	-12.1503
▁imperceptibly	-12.1503
▁indecision	-12.1503
▁infinity	-12.1503
▁ingenious	-12.1503
▁interpretation	-12.1503
▁irritably	-12.1503
▁irritating	-12.1503
▁jockey	-12.1503
▁judicious	-12.1503
▁languid	-12.1503
▁languor	-12.1503
▁magnanimous	-12.1503
▁magnet	-12.1503
▁malevolence	-12.1503
▁malevolent	-12.1503
▁malignant	-12.1503
▁naughty	-12.1503
▁necessarily	-12.1503
▁niece	-12.1503
▁oblivion	-12.1503
▁obstinacy	-12.1503
▁occupant	-12.1503
▁phenomena	-12.1503
▁poultry	-12.1503
▁propitious	-12.1503
▁puppy	-12.1503
▁rallied	-12.1503
▁recognition	-12.1503
▁refectory	-12.1503
▁representative	-12.1503
▁resplendent	-12.1503
▁ripple	-12.1503
▁salaries	-12.1503
▁scoundrel	-12.1503
▁seltzer	-12.1503
▁separating	-12.1503
▁steeplechase	-12.1503
▁supple	-12.1503
▁suppliant	-12.1503
▁supplied	-12.1503
▁sympathize	-12.1503
▁tackle	-12.1503
▁tassel	-12.1503
▁telegraph	-12.1503
▁testimon	-12.1503
▁thongs	-12.1503
▁unbeliever	-12.1503
▁undisturbed	-12.1503
▁unfinished	-12.1503
▁unmarried	-12.1503
▁unspeakabl	-12.1503
▁vagrant	-12.1503
▁visibly	-12.1503
▁Marcus	-12.1503
▁Solomon	-12.1503
▁Vanka	-12.1503
▁adroit	-12.1503
▁bastard	-12.1503
▁blanche	-12.1503
▁cabbage	-12.1503
▁daisies	-12.1503
▁draped	-12.1503
▁dreari	-12.1503
▁freak	-12.1503
▁hazel	-12.1503
▁insolence	-12.1503
▁letharg	-12.1503
▁shepherd	-12.1503
▁unanimous	-12.1503
▁Caesar	-12.1503
▁abreast	-12.1503
▁blunt	-12.1503
▁breach	-12.1503
▁disaster	-12.1503
▁flounder	-12.1503
▁mistrust	-12.1503
▁phase	-12.1503
▁pigeon	-12.1503
▁recited	-12.1503
▁buoy	-12.1503
▁forgiving	-12.1503
▁prescribed	-12.1503
▁wreck	-12.1503
▁chorus	-12.1503
▁reckless	-12.1503
▁repay	-12.1503
▁vassal	-12.1503
Friend	-12.1503
▁expert	-12.1503
▁gayety	-12.1503
▁session	-12.1503
▁vapor	-12.1503
▁sportsman	-12.1503
junction	-12.1503
▁Senate	-12.1503
▁doorstep	-12.1503
▁pallor	-12.1503
▁tradesman	-12.1503
urrah	-12.1503
▁fiend	-12.1503
▁Spring	-12.1503
▁Knave	-12.1503
▁humbly	-12.1503
▁unroll	-12.1503
▁lamentation	-12.1503
▁perused	-12.1503
▁imprint	-12.1503
▁diverg	-12.1504
▁ferment	-12.1504
▁cafe	-12.1504
▁predict	-12.1504
▁tune	-12.1504
▁Stepp	-12.1504
▁spurr	-12.1505
▁bulg	-12.1505
▁disfigure	-12.1505
ECT	-12.1505
▁Bob	-12.1507
▁South	-12.1507
create	-12.1523
▁nipp	-12.1539
pitched	-12.1589
hancellor	-12.1672
▁translate	-12.1674
WAY	-12.1962
OME	-12.2279
hopping	-12.2282
please	-12.2621
▁Tak	-12.2702
▁citizen	-12.2735
▁physic	-12.2792
joined	-12.2861
▁shrug	-12.2863
conscious	-12.2866
▁assembl	-12.2866
dozen	-12.287
awakened	-12.287
famous	-12.2871
student	-12.2871
window	-12.2871
Varenka	-12.2871
everything	-12.2871
Vronsky	-12.2871
people	-12.2872
Two	-12.2875
▁respond	-12.2878
Devil	-12.29
▁humiliate	-12.2904
▁extraordinar	-12.2919
▁inspect	-12.2925
appea	-12.2929
roject	-12.2929
sequence	-12.293
essieurs	-12.2932
Lagardy	-12.2932
▁hairdresser	-12.2932
▁screech	-12.2932
▁swaddling	-12.2932
Approach	-12.2932
Believe	-12.2932
Courage	-12.2932
Truly	-12.2932
adequa	-12.2932
sparrow	-12.2932
sumptuous	-12.2932
▁Archdeacon	-12.2932
▁Assuredly	-12.2932
▁Athalie	-12.2932
▁Barbedienne	-12.2932
▁Bartnyansky	-12.2932
▁Bologna	-12.2932
▁Borisovna	-12.2932
▁Burgundian	-12.2932
▁Children	-12.2932
▁DOLLY	-12.2932
▁Derozeray	-12.2932
▁Dobbins	-12.2932
▁Evidently	-12.2932
▁FIRST	-12.2932
▁Ferndean	-12.2932
▁Flerov	-12.2932
▁Gaillefontaine	-12.2932
▁Kaminer	-12.2932
▁Kartasov	-12.2932
▁Lariviere	-12.2932
▁Lawrence	-12.2932
▁Mathias	-12.2932
▁Opposite	-12.2932
▁PRINCESS	-12.2932
▁Paradise	-12.2932
▁Peterhof	-12.2932
▁Raphael	-12.2932
▁Report	-12.2932
▁September	-12.2932
▁Somebody	-12.2932
▁Vitelli	-12.2932
▁Wilson	-12.2932
▁abundant	-12.2932
▁accoutre	-12.2932
▁acquitted	-12.2932
▁administration	-12.2932
▁adventurous	-12.2932
▁afeard	-12.2932
▁alphabet	-12.2932
▁ancestor	-12.2932
▁antipathy	-12.2932
▁anxieties	-12.2932
▁apparel	-12.2932
▁apprehensive	-12.2932
▁arguing	-12.2932
▁bedstead	-12.2932
▁brooding	-12.2932
▁catechism	-12.2932
▁cipher	-12.2932
▁circling	-12.2932
▁circuit	-12.2932
▁colonel	-12.2932
▁composure	-12.2932
▁compromising	-12.2932
▁conservatory	-12.2932
▁contemplating	-12.2932
▁crucifix	-12.2932
▁deficiency	-12.2932
▁disclosure	-12.2932
▁doctrines	-12.2932
▁elicit	-12.2932
▁embellish	-12.2932
▁espalier	-12.2932
▁estranged	-12.2932
▁exaltation	-12.2932
▁expenditure	-12.2932
▁exploit	-12.2932
▁fissure	-12.2932
▁fragile	-12.2932
▁gelding	-12.2932
▁glossy	-12.2932
▁gratify	-12.2932
▁guarantee	-12.2932
▁guinea	-12.2932
▁handwriting	-12.2932
▁honeymoon	-12.2932
▁impassable	-12.2932
▁imprecation	-12.2932
▁imprison	-12.2932
▁imprudent	-12.2932
▁inarticulate	-12.2932
▁indefatigabl	-12.2932
▁infallible	-12.2932
▁insipid	-12.2932
▁intensity	-12.2932
▁irrepressibl	-12.2932
▁jurisdiction	-12.2932
▁license	-12.2932
▁mahogany	-12.2932
▁matrimony	-12.2932
▁mercenary	-12.2932
▁monotony	-12.2932
▁mutilated	-12.2932
▁neutral	-12.2932
▁nuisance	-12.2932
▁obelisk	-12.2932
▁palazzo	-12.2932
▁pedestal	-12.2932
▁persuading	-12.2932
▁persuasion	-12.2932
▁plague	-12.2932
▁precept	-12.2932
▁privation	-12.2932
▁ravine	-12.2932
▁recount	-12.2932
▁rejoicing	-12.2932
▁reluctance	-12.2932
▁remedies	-12.2932
▁repudiat	-12.2932
▁revenue	-12.2932
▁rummaging	-12.2932
▁rupture	-12.2932
▁sacerdotal	-12.2932
▁secrecy	-12.2932
▁speculation	-12.2932
▁splendour	-12.2932
▁stealthily	-12.2932
▁stipulat	-12.2932
▁sturdy	-12.2932
▁sullied	-12.2932
▁surtout	-12.2932
▁sympathies	-12.2932
▁tarantas	-12.2932
▁treachery	-12.2932
▁trefoil	-12.2932
▁typhus	-12.2932
▁unattainable	-12.2932
▁unfastened	-12.2932
▁unharness	-12.2932
▁upbraid	-12.2932
(	-13.743
–	-13.7431
q	-13.7432
