<unk>	0
<s>	0
</s>	0
,	-2.73723
.	-3.48921
▁und	-3.85471
▁die	-4.16644
▁der	-4.2762
en	-4.35022
▁»	-4.47729
▁zu	-4.48666
▁er	-4.50237
n	-4.51921
e	-4.54574
▁sie	-4.58203
▁	-4.62442
▁in	-4.65874
s	-4.66122
▁sich	-4.78902
▁nicht	-4.86823
▁ich	-4.88934
▁den	-4.89798
▁das	-4.95488
▁mit	-4.99657
▁ein	-5.0445
▁war	-5.05276
▁auf	-5.08523
;	-5.14158
▁daß	-5.24139
▁von	-5.25101
▁es	-5.25444
▁an	-5.32362
▁dem	-5.34235
▁Sie	-5.3993
▁ist	-5.46587
▁hatte	-5.49635
▁so	-5.50139
er	-5.52894
▁eine	-5.54093
▁wie	-5.56668
t	-5.63126
!	-5.67403
▁als	-5.74466
.«	-5.76188
▁des	-5.76551
▁aber	-5.79713
▁ihm	-5.82197
r	-5.84149
m	-5.85056
▁ihr	-5.86553
▁aus	-5.90769
▁sagte	-5.92382
▁ihn	-5.9343
▁noch	-5.94004
es	-5.94858
▁um	-5.9505
:	-6.01209
▁mich	-6.02321
!«	-6.04105
▁mir	-6.07036
▁sein	-6.07884
▁nach	-6.08447
▁Er	-6.08638
▁einen	-6.08845
▁über	-6.1001
▁–	-6.10422
▁für	-6.10482
?«	-6.119
▁nur	-6.11918
▁auch	-6.14631
▁im	-6.1583
▁du	-6.22446
▁vor	-6.2393
?	-6.25044
▁seine	-6.28768
▁Ich	-6.30574
▁was	-6.31335
▁wenn	-6.33172
«,	-6.3322
▁einem	-6.3417
te	-6.38321
st	-6.41222
▁wieder	-6.42545
▁man	-6.43638
▁durch	-6.45155
▁bei	-6.45789
▁doch	-6.47264
d	-6.51789
▁habe	-6.5238
▁Die	-6.52913
▁da	-6.54503
▁einer	-6.55904
▁ihre	-6.58646
▁dann	-6.60566
▁jetzt	-6.6447
▁K	-6.64546
▁Und	-6.67035
▁diese	-6.67403
▁haben	-6.67965
▁hat	-6.68578
▁ganz	-6.71069
▁denn	-6.72271
▁seiner	-6.72422
▁mehr	-6.73246
▁sehr	-6.74633
▁Aber	-6.75982
Ich	-6.77492
▁ver	-6.78054
▁schon	-6.78592
▁Es	-6.80063
▁Der	-6.80147
▁meine	-6.81865
'	-6.81885
▁oder	-6.83739
-	-6.84443
h	-6.85828
▁be	-6.86116
▁immer	-6.87392
▁selbst	-6.87654
▁dieser	-6.87654
,«	-6.88786
▁waren	-6.89249
▁werden	-6.89262
ten	-6.90596
▁sah	-6.92223
▁zum	-6.92878
▁sind	-6.92911
▁wir	-6.93517
▁unter	-6.93997
▁ja	-6.95429
▁alles	-6.9602
▁welche	-6.96765
▁alle	-6.97331
▁etwas	-6.97817
ä	-6.99329
▁Ljewin	-6.99496
▁seinen	-6.99797
▁wo	-6.998
▁hin	-7.00324
l	-7.00745
"	-7.02433
▁sei	-7.02476
f	-7.02885
▁Das	-7.03116
▁ohne	-7.03121
▁seinem	-7.03315
▁nichts	-7.048
▁Zeit	-7.05811
▁Frau	-7.06431
▁,,	-7.06499
▁ab	-7.08537
▁am	-7.09354
▁wurde	-7.0948
▁Augen	-7.1289
▁konnte	-7.14154
▁hier	-7.14191
▁ihrer	-7.15031
▁wird	-7.1525
k	-7.15341
▁kann	-7.15423
▁Hand	-7.15763
▁hätte	-7.16096
em	-7.17493
ung	-7.2175
▁mein	-7.22216
b	-7.22902
▁fragte	-7.22933
▁wollte	-7.23627
▁bin	-7.23962
▁würde	-7.252
▁ge	-7.2557
▁keine	-7.25803
▁nun	-7.25811
▁diesem	-7.25824
▁ihren	-7.25831
▁ging	-7.26008
▁zurück	-7.26334
▁zur	-7.26582
▁--	-7.26746
▁dich	-7.26815
▁einmal	-7.27835
▁werde	-7.28038
▁sagen	-7.28143
▁wohl	-7.29966
▁fort	-7.307
▁eines	-7.31125
▁bis	-7.31577
▁›	-7.31665
▁gar	-7.34262
▁Ein	-7.34266
▁In	-7.36154
▁gewesen	-7.36824
ge	-7.3719
▁kam	-7.37244
▁Ihr	-7.38787
den	-7.39299
▁können	-7.39704
ü	-7.39948
▁will	-7.41956
▁ihrem	-7.4256
▁Gesicht	-7.43064
▁dieses	-7.45013
▁ob	-7.45331
▁uns	-7.47077
▁wäre	-7.47176
▁zwei	-7.47207
▁...	-7.47715
▁sehen	-7.47772
▁ihnen	-7.48217
in	-7.49802
▁machte	-7.50619
▁Als	-7.50672
▁dir	-7.5155
▁Mann	-7.51583
sch	-7.51759
▁Zimmer	-7.5178
de	-7.51971
▁Ihnen	-7.53082
chen	-7.53136
▁stand	-7.53957
▁weiter	-7.54085
▁rief	-7.55222
▁vo	-7.56125
▁dachte	-7.56258
▁Mr	-7.56497
▁Wronski	-7.57668
▁während	-7.58028
▁machen	-7.58247
p	-7.58728
▁hatten	-7.58996
▁Anna	-7.59286
▁muß	-7.59426
be	-7.59483
▁viel	-7.5958
w	-7.59821
▁gut	-7.59848
▁weiß	-7.60278
▁Augenblick	-7.61258
Ja	-7.61628
der	-7.62411
▁kein	-7.62515
▁Da	-7.63114
▁lassen	-7.63136
▁diesen	-7.63442
▁weil	-7.64085
▁Kopf	-7.64658
▁zusammen	-7.65688
▁Leben	-7.66405
▁gerade	-7.66406
ö	-7.66528
▁gegen	-7.66959
▁ließ	-7.67191
▁sondern	-7.68099
▁lange	-7.6837
▁ganze	-7.69221
ch	-7.70665
▁An	-7.71038
g	-7.71207
▁Tom	-7.71221
▁her	-7.71862
▁begann	-7.71956
▁Ver	-7.72638
▁antwortete	-7.72662
«	-7.73633
ste	-7.7467
▁andere	-7.75119
▁fuhr	-7.75502
▁wenig	-7.76895
▁So	-7.77464
▁fühlte	-7.78188
▁hörte	-7.7908
▁Be	-7.7912
▁mußte	-7.7968
▁Stimme	-7.80312
ig	-7.80332
▁Mädchen	-7.80556
sten	-7.80719
▁Kitty	-7.81226
▁nahm	-7.8171
▁kommen	-7.81979
▁hielt	-7.82115
▁davon	-7.82963
▁Gedanken	-7.82993
▁also	-7.83048
▁drei	-7.84899
lich	-7.85422
u	-7.85555
et	-7.85581
▁gab	-7.85894
▁Herr	-7.85947
▁meiner	-7.86304
▁Tür	-7.86539
▁Mutter	-7.87281
▁schien	-7.87509
▁wollen	-7.87531
Sie	-7.88028
z	-7.88089
▁wußte	-7.88213
igen	-7.88412
▁dort	-7.88437
▁Menschen	-7.88594
▁Alexei	-7.89173
zu	-7.89231
▁beiden	-7.89708
Das	-7.90062
▁zwischen	-7.90262
▁Wenn	-7.90531
▁gehen	-7.9175
▁sollte	-7.92139
▁un	-7.92486
▁Vor	-7.92873
▁bald	-7.92913
▁Hause	-7.9304
▁dabei	-7.93228
▁hinter	-7.93237
Aber	-7.93281
▁Worte	-7.93311
▁Dann	-7.93541
▁Ende	-7.93732
▁Art	-7.93915
▁allen	-7.93961
▁blickte	-7.94153
▁welcher	-7.9432
▁indem	-7.94807
▁...«	-7.95112
▁Nacht	-7.95395
▁Alexandrowitsch	-7.95721
▁gesagt	-7.95759
▁großen	-7.95865
▁darauf	-7.96297
▁recht	-7.96433
▁'	-7.96751
▁heraus	-7.9739
Was	-7.9792
▁damit	-7.97994
▁wirklich	-7.98369
▁Ge	-7.98437
)	-7.9852
▁andern	-7.99097
re	-7.99223
▁meinen	-7.99433
▁Emma	-7.99498
▁ins	-7.99606
▁Stepan	-8.00045
▁Liebe	-8.0024
▁kleinen	-8.00432
▁daran	-8.00438
▁Blick	-8.00675
▁ganzen	-8.00785
Nein	-8.00808
▁allein	-8.0098
▁Ihre	-8.01468
▁darüber	-8.02379
▁lag	-8.02711
el	-8.02782
ur	-8.02946
▁anderen	-8.03028
▁trat	-8.03188
▁Wie	-8.0335
le	-8.03655
▁Tage	-8.03934
▁Auf	-8.03966
▁sprach	-8.04114
ra	-8.04388
Es	-8.04476
▁gleich	-8.05204
Und	-8.05836
an	-8.05936
▁Arkadjewitsch	-8.07093
o	-8.07206
▁Fenster	-8.07567
▁weit	-8.07578
▁hast	-8.07859
▁sch	-8.0911
▁geworden	-8.09336
▁St	-8.09707
al	-8.09941
▁beim	-8.10112
la	-8.10437
▁Was	-8.10548
▁dessen	-8.11026
Nun	-8.11529
▁tun	-8.11564
▁setzte	-8.118
or	-8.1196
▁plötzlich	-8.123
▁seines	-8.12392
▁Gott	-8.12452
▁müssen	-8.12613
▁ersten	-8.12707
▁kleine	-8.12923
▁Man	-8.13272
▁ent	-8.13298
▁welches	-8.1489
▁gesehen	-8.14919
und	-8.15145
▁Weise	-8.1606
ich	-8.16212
nd	-8.16384
us	-8.16407
▁vielleicht	-8.16733
▁Sache	-8.16782
▁F	-8.16957
▁Du	-8.1699
▁Diese	-8.17754
▁besser	-8.17875
heit	-8.17968
▁B	-8.1799
▁Wort	-8.18033
ro	-8.18471
▁große	-8.18656
▁Herz	-8.1866
▁worden	-8.18798
▁dazu	-8.19377
▁k	-8.19985
▁nie	-8.20071
▁blieb	-8.20906
▁Leute	-8.21004
▁Seite	-8.21265
▁Welt	-8.21383
ne	-8.2183
▁fast	-8.2186
▁erwiderte	-8.22112
▁fest	-8.22148
▁soll	-8.22169
▁Kind	-8.22287
▁f	-8.22523
▁A	-8.22799
▁zog	-8.22986
▁wissen	-8.23
▁wandte	-8.24034
▁keinen	-8.24166
▁sogar	-8.24582
▁Gefühl	-8.24618
y	-8.25168
▁einige	-8.2528
▁gemacht	-8.25412
▁Sergei	-8.26276
ige	-8.26863
▁Haus	-8.27052
▁gekommen	-8.27304
▁Tag	-8.27505
▁fand	-8.28074
is	-8.281
▁Seele	-8.28582
▁ihres	-8.28714
▁niemals	-8.28781
▁b	-8.29262
▁könnte	-8.29419
▁ebenso	-8.29569
▁Alice	-8.29811
▁irgend	-8.30035
▁eben	-8.30317
▁Sch	-8.30583
▁stehen	-8.30755
▁heute	-8.31202
▁alte	-8.31492
▁hinaus	-8.31515
▁Arbeit	-8.31711
▁sprechen	-8.31865
_	-8.31981
▁Lächeln	-8.32167
▁weg	-8.32222
▁hinzu	-8.3224
▁Bruder	-8.32285
▁nieder	-8.32295
▁Kinder	-8.32874
▁erst	-8.33584
Ach	-8.33649
ter	-8.33695
li	-8.33755
▁hervor	-8.3396
▁schnell	-8.35054
▁sofort	-8.35691
▁wahr	-8.35806
▁Mit	-8.36267
ern	-8.36311
pf	-8.36662
▁T	-8.36946
▁ruhig	-8.37066
▁geben	-8.37403
▁Karl	-8.37513
▁voll	-8.37517
▁aller	-8.37767
a	-8.38237
ar	-8.38389
▁Wagen	-8.38456
▁gern	-8.38481
▁Abend	-8.38554
▁alten	-8.38658
▁könne	-8.38779
▁dies	-8.38803
▁Miß	-8.391
▁P	-8.39123
▁Hände	-8.39358
▁Gesellschaft	-8.39588
▁Jahre	-8.39707
▁Un	-8.40051
▁Jetzt	-8.40066
▁glücklich	-8.4045
ben	-8.40477
▁beide	-8.41423
▁möchte	-8.4144
ei	-8.41848
ungen	-8.4185
▁hinein	-8.41974
▁bist	-8.42096
▁Frage	-8.42271
gen	-8.42684
▁_	-8.42983
he	-8.43583
au	-8.43852
▁kaum	-8.43962
▁Geld	-8.4397
▁halb	-8.44031
▁bemerkte	-8.44553
▁Nach	-8.44685
▁Gringoire	-8.4486
▁Uhr	-8.4486
▁Vater	-8.45115
▁Antwort	-8.45161
▁finden	-8.45161
▁Euch	-8.45472
▁Um	-8.45826
▁gehört	-8.46016
▁deine	-8.46037
▁Wir	-8.46335
▁Aus	-8.47188
▁eigentlich	-8.47297
▁R	-8.47411
Du	-8.47751
▁legte	-8.4777
▁Augenblicke	-8.48112
▁jener	-8.48154
ir	-8.48369
▁Herrn	-8.48697
Wie	-8.48815
▁Rochester	-8.48842
▁solche	-8.48852
▁vier	-8.48879
▁saß	-8.49452
sp	-8.49993
▁fiel	-8.50079
▁Höhe	-8.50111
▁Dolly	-8.50462
▁möglich	-8.50466
▁Bei	-8.50614
▁Ausdruck	-8.50746
▁Jane	-8.50942
▁besonders	-8.51063
▁Glück	-8.51066
ß	-8.51523
▁Unter	-8.52144
▁Gespräch	-8.52214
▁genug	-8.52352
▁jeder	-8.52565
▁gegenüber	-8.53015
▁Kirche	-8.5307
▁früher	-8.53539
i	-8.53597
▁Sir	-8.54247
▁herum	-8.54358
▁Lage	-8.54412
▁Ab	-8.54518
▁warf	-8.54621
▁Nun	-8.54916
▁glaube	-8.54938
gehen	-8.54961
end	-8.54976
ver	-8.55127
▁Morgen	-8.5528
mal	-8.55281
▁Mensch	-8.55333
▁Bett	-8.55512
▁reden	-8.55536
▁wurden	-8.55641
▁oft	-8.55653
▁letzten	-8.55896
se	-8.55989
▁Wasser	-8.55989
gt	-8.5601
nen	-8.56132
▁bereits	-8.56205
▁nehmen	-8.56803
▁neuen	-8.56821
▁denken	-8.56828
▁lang	-8.57088
hl	-8.57116
▁Freude	-8.57181
▁Iwanowitsch	-8.57336
▁kommt	-8.57541
‹,	-8.58215
▁Zu	-8.58293
▁leise	-8.58709
▁los	-8.58722
▁Tisch	-8.59258
▁leicht	-8.594
▁neben	-8.59451
▁Auge	-8.59735
▁vergessen	-8.59841
▁darin	-8.60232
▁Lebens	-8.60247
▁wegen	-8.60403
▁fügte	-8.60451
▁Alle	-8.60482
▁Herren	-8.60768
▁schwer	-8.60861
▁Paris	-8.61059
at	-8.61091
▁eigenen	-8.61326
▁verlassen	-8.61555
ein	-8.61724
▁Stelle	-8.61849
her	-8.61899
los	-8.62039
kommen	-8.6207
▁bringen	-8.62344
▁geht	-8.62554
▁Namen	-8.62966
Na	-8.63016
ha	-8.63258
um	-8.63291
▁all	-8.63397
▁gewiß	-8.63666
▁Eine	-8.63779
▁Schwester	-8.64053
ck	-8.64148
▁brachte	-8.64286
▁Licht	-8.64368
▁S	-8.64391
▁Arm	-8.64416
▁Feuer	-8.6476
▁neue	-8.64864
▁jemand	-8.65417
▁zeigte	-8.65463
ischen	-8.65605
▁niemand	-8.65608
▁nachdem	-8.65676
▁junge	-8.65973
▁Fürstin	-8.66658
▁daher	-8.66765
▁Thür	-8.668
▁H	-8.66845
▁gehabt	-8.66986
▁seit	-8.67817
on	-8.67945
▁Platz	-8.67947
rei	-8.68007
▁Lippen	-8.68119
▁schlug	-8.68245
▁Weg	-8.68285
▁Stunde	-8.68552
▁Seine	-8.68611
▁zwar	-8.68884
▁Teil	-8.68894
▁suchte	-8.68941
▁jene	-8.68986
ut	-8.69279
▁Ruhe	-8.69297
▁würden	-8.69416
▁viele	-8.69437
▁Im	-8.6946
▁unser	-8.69509
▁Boden	-8.70034
O	-8.70059
▁G	-8.7012
▁hinauf	-8.70123
bald	-8.7022
▁unsere	-8.70359
▁wenigstens	-8.70423
▁bleiben	-8.70468
▁halten	-8.70542
▁vollständig	-8.70811
▁Herzen	-8.70851
▁natürlich	-8.7089
▁hören	-8.71021
▁paar	-8.71269
▁Über	-8.71461
cht	-8.71525
▁erschien	-8.71883
▁hoch	-8.72007
auf	-8.72131
enden	-8.72332
schw	-8.72335
▁solchen	-8.72352
wand	-8.72363
lo	-8.72404
▁Während	-8.7242
ör	-8.72514
▁Haar	-8.7265
Er	-8.72693
▁König	-8.72871
▁mal	-8.73025
▁p	-8.73217
c	-8.73562
äu	-8.73811
▁glaubte	-8.74053
Die	-8.74216
ie	-8.74329
▁endlich	-8.74383
▁Grund	-8.74581
▁Händen	-8.7472
▁Fuß	-8.7485
uasimodo	-8.75194
▁nein	-8.75208
fe	-8.75385
▁gegeben	-8.75526
▁Blicke	-8.75802
lichkeit	-8.7589
▁leben	-8.75903
▁Bewegung	-8.75957
▁still	-8.75971
▁denen	-8.7651
▁C	-8.76546
ft	-8.77028
▁frei	-8.77244
▁Z	-8.77253
▁vorher	-8.77367
ff	-8.77525
▁Priester	-8.77669
▁Wesen	-8.77678
so	-8.77718
▁Huck	-8.77776
▁heran	-8.77819
▁Brief	-8.77831
▁Am	-8.7829
▁trug	-8.78355
▁Arme	-8.78466
▁genau	-8.78509
▁herab	-8.78545
▁w	-8.78603
▁laut	-8.78656
it	-8.78928
▁lächelnd	-8.79097
▁erhob	-8.79115
kt	-8.79158
▁schön	-8.79188
▁nahe	-8.79387
▁Konstantin	-8.79393
▁öffnete	-8.79394
bar	-8.79645
▁Menge	-8.7978
▁sonst	-8.80275
▁jungen	-8.8044
▁hätten	-8.8049
▁Luft	-8.80635
▁Stirn	-8.80635
▁macht	-8.80645
▁liebe	-8.80756
me	-8.81275
lei	-8.816
▁Dinge	-8.81654
im	-8.81903
lichen	-8.82675
rie	-8.82722
▁Bovary	-8.82809
▁müsse	-8.83043
▁Fürst	-8.83307
▁Tone	-8.83545
▁fing	-8.837
▁W	-8.84109
▁weder	-8.84137
il	-8.84257
▁je	-8.84297
ul	-8.84297
▁zer	-8.84408
des	-8.84673
▁Seiten	-8.84686
▁versetzte	-8.84741
liche	-8.84802
▁langsam	-8.85045
▁überhaupt	-8.85072
▁schlecht	-8.85115
am	-8.85459
▁Stadt	-8.85482
▁stets	-8.85482
▁Gr	-8.85502
▁dafür	-8.85525
▁thun	-8.85603
▁Zigeunerin	-8.85911
▁dadurch	-8.8597
▁Teufel	-8.85995
▁Vo	-8.86061
▁Kopfe	-8.86382
▁Kraft	-8.86389
uch	-8.86441
▁Dame	-8.86445
ging	-8.86762
▁Frauen	-8.86823
▁dahin	-8.86952
▁hinunter	-8.87106
▁Buch	-8.87282
▁lief	-8.87368
▁Damen	-8.87552
▁bitte	-8.87646
▁außer	-8.87751
▁Treppe	-8.87773
▁Miene	-8.87803
▁Alles	-8.88138
▁Land	-8.88148
▁allem	-8.88203
▁John	-8.88228
▁Gregor	-8.88238
isch	-8.88396
gel	-8.88439
▁betrachtete	-8.885
▁That	-8.88702
▁tief	-8.88784
▁Gestalt	-8.888
▁erste	-8.89065
men	-8.89077
▁lieber	-8.89265
▁näher	-8.8946
▁schrie	-8.89856
▁Ton	-8.89924
▁Gedanke	-8.89956
▁jeden	-8.90032
Da	-8.90067
▁völlig	-8.90101
▁Geschichte	-8.90102
▁kamen	-8.90347
▁O	-8.90361
schen	-8.9061
▁gibt	-8.9062
ab	-8.91125
▁gute	-8.91147
▁L	-8.91234
▁lächelte	-8.91254
▁sagt	-8.91257
▁Haupt	-8.91419
▁Pa	-8.91542
▁Johann	-8.9158
▁befand	-8.91693
▁einfach	-8.91697
.‹	-8.9175
▁Alexandrowna	-8.92011
▁hob	-8.92292
igkeit	-8.92623
to	-8.92933
un	-8.93007
▁lieben	-8.93041
dem	-8.93153
▁weniger	-8.93326
Wenn	-8.93475
▁offenbar	-8.93481
nden	-8.93638
▁E	-8.93711
▁stellte	-8.93793
▁Minuten	-8.93794
▁sehe	-8.93838
ber	-8.9402
▁wer	-8.94426
▁steht	-8.94603
Darja	-8.94951
▁vorüber	-8.95005
▁durchaus	-8.95099
▁langen	-8.95189
▁nächsten	-8.95196
▁glauben	-8.95427
▁Hoffnung	-8.95443
▁heißt	-8.95552
▁einander	-8.95688
gang	-8.95852
▁herein	-8.96008
▁Hier	-8.96273
▁einzige	-8.96291
ng	-8.96329
ol	-8.96433
▁Natur	-8.96447
▁Himmel	-8.96507
▁Vergnügen	-8.96508
är	-8.96596
aus	-8.9669
hin	-8.96863
▁Au	-8.96917
▁verloren	-8.96917
▁Tochter	-8.9695
▁Stein	-8.97073
v	-8.97083
▁fünf	-8.97452
▁Mühe	-8.97458
▁gefunden	-8.97586
▁Diener	-8.97892
▁sollen	-8.97927
▁getan	-8.98103
▁Bauern	-8.9829
▁fertig	-8.98294
▁unmöglich	-8.98486
ta	-8.98587
▁bekommen	-8.98743
▁Zweifel	-8.98994
▁Phöbus	-8.99096
▁gesprochen	-8.99112
▁mag	-8.99121
▁wiederholte	-8.99305
▁Familie	-8.99455
▁Hut	-8.99462
▁h	-8.99543
art	-8.99809
▁führte	-9.00049
stand	-9.00056
▁Meister	-9.00162
▁Pferde	-9.00267
▁warum	-9.00418
▁Tages	-9.00436
▁fahren	-9.0101
▁entgegnete	-9.01085
▁damals	-9.01087
▁Weib	-9.01259
mmer	-9.0142
bei	-9.01503
che	-9.01546
▁erhalten	-9.016
▁meinte	-9.01677
▁folgte	-9.02139
▁jedoch	-9.02146
▁tat	-9.02164
▁Anblick	-9.02168
▁drückte	-9.02181
cken	-9.02309
▁etwa	-9.02816
▁Sein	-9.0313
▁erinnerte	-9.032
▁Archidiaconus	-9.03218
▁Brust	-9.03218
▁klar	-9.0389
sel	-9.04075
nehmen	-9.04101
▁jenem	-9.04171
▁arme	-9.04293
▁M	-9.04465
So	-9.04477
▁Mund	-9.04531
▁Jahren	-9.04838
▁Sonne	-9.04865
ster	-9.04931
▁Meinung	-9.0498
▁g	-9.04998
▁empfand	-9.05398
tra	-9.05553
ert	-9.05646
▁oben	-9.05706
▁La	-9.05808
▁Hilfe	-9.05951
▁Bild	-9.05951
▁entgegen	-9.05952
▁Ob	-9.06308
▁Erinnerung	-9.06327
▁Finger	-9.06342
▁Wer	-9.06507
▁Ja	-9.06531
A	-9.06637
▁acht	-9.06808
‹	-9.06829
▁unten	-9.06834
▁versuchte	-9.06909
▁Dieser	-9.06944
▁Le	-9.07228
ieren	-9.07391
▁Arzt	-9.07398
▁Furcht	-9.07627
▁Erde	-9.07848
▁bereit	-9.08251
▁morgen	-9.0842
▁nötig	-9.0876
▁Garten	-9.08783
▁obgleich	-9.08808
▁Recht	-9.08852
iger	-9.09143
elte	-9.09325
▁schließlich	-9.09331
▁Fräulein	-9.09363
ier	-9.0973
▁dein	-9.09787
▁trotz	-9.09892
▁Wunsch	-9.09906
▁Tränen	-9.09941
▁Männer	-9.09961
keit	-9.10077
▁sage	-9.10242
ot	-9.10381
▁Gräfin	-9.10484
▁Schatten	-9.10484
▁Spiel	-9.10493
▁anders	-9.10505
▁stieß	-9.10648
▁verstehen	-9.10697
ische	-9.10876
▁stieg	-9.10884
▁genommen	-9.10971
▁Eindruck	-9.11078
▁stark	-9.11104
▁Apotheker	-9.1114
▁welchen	-9.11233
▁schönen	-9.11358
▁Freund	-9.11387
▁Worten	-9.11424
▁umher	-9.11499
▁Stück	-9.11849
pa	-9.12195
▁freundlich	-9.1224
ank	-9.12276
▁Leo	-9.12322
▁richtig	-9.1247
lt	-9.12668
▁Empfindung	-9.12724
▁gingen	-9.12818
▁liegt	-9.1283
▁Fall	-9.12837
▁suchen	-9.1285
ken	-9.13031
!‹	-9.13141
▁Sohn	-9.13307
▁meines	-9.13333
▁Stuhl	-9.13426
▁unterbrach	-9.13529
▁Straße	-9.13561
▁allerdings	-9.14029
eln	-9.14097
▁richtete	-9.14319
▁willst	-9.14341
▁Sinn	-9.14422
ag	-9.1444
▁Wege	-9.14528
▁nämlich	-9.14538
▁imstande	-9.14629
▁welchem	-9.14785
ür	-9.14799
▁sechs	-9.15039
▁wahrscheinlich	-9.15233
▁Absicht	-9.15287
?‹	-9.15451
▁deshalb	-9.1546
kam	-9.15503
▁Nur	-9.15525
▁Tische	-9.15575
gegangen	-9.15582
▁neuem	-9.15771
▁kannst	-9.15835
▁Freunde	-9.16177
▁Sp	-9.1634
▁Nähe	-9.16453
▁groß	-9.16512
nde	-9.16756
ze	-9.1685
sam	-9.16884
ri	-9.16923
▁Ach	-9.16999
▁Claude	-9.17073
zeit	-9.17286
Ihr	-9.17335
▁wirst	-9.17368
▁Rücken	-9.1741
▁gewöhnlich	-9.1755
▁anderes	-9.17862
▁letzte	-9.18167
hen	-9.18242
▁Nachde	-9.1825
▁gebracht	-9.18415
▁geschehen	-9.1842
iert	-9.18535
▁Male	-9.18899
▁Fürsten	-9.18925
▁Mittel	-9.19061
Wir	-9.1925
▁sp	-9.19479
▁jede	-9.19514
na	-9.19517
▁Wind	-9.19885
▁Schuld	-9.2005
▁Stellung	-9.20218
▁erkannte	-9.20238
▁dicht	-9.20324
ende	-9.20825
▁Gelegenheit	-9.20859
▁euch	-9.20873
▁zuerst	-9.20933
▁Hals	-9.21125
das	-9.21165
die	-9.21186
▁schwarzen	-9.21486
▁Wahrheit	-9.21507
▁Glas	-9.2151
▁Gegenstand	-9.21512
einander	-9.21524
schaft	-9.21574
▁Moskau	-9.2175
▁jenes	-9.21806
▁Körper	-9.21852
▁später	-9.21876
▁c	-9.21916
▁Wo	-9.21953
▁standen	-9.22182
▁Manne	-9.22439
▁Volk	-9.22511
▁schloß	-9.23114
▁zugleich	-9.23219
▁weißen	-9.23419
▁Richter	-9.23465
▁länger	-9.23468
▁deutlich	-9.23724
zen	-9.23875
tz	-9.23941
Der	-9.24015
icht	-9.24029
teil	-9.24082
▁Homais	-9.24127
▁bekannt	-9.2413
▁Warjenka	-9.24164
rin	-9.24173
▁wünschte	-9.24349
H	-9.24423
▁ange	-9.24514
gesetzt	-9.24543
▁Geist	-9.24577
▁brach	-9.24768
▁Ordnung	-9.24794
▁Schritte	-9.24917
sche	-9.24975
▁Gericht	-9.25047
zug	-9.25056
▁Pferd	-9.25167
voll	-9.25179
▁Stunden	-9.25373
▁Mitleid	-9.25466
▁bat	-9.25518
▁Hauptmann	-9.25541
▁Ansicht	-9.25543
mit	-9.25554
▁fragen	-9.25627
Ein	-9.25847
▁las	-9.25895
▁Tod	-9.26262
▁liegen	-9.26298
▁zufrieden	-9.26821
▁Blut	-9.26821
▁zeigen	-9.26822
▁Person	-9.26897
B	-9.27174
ko	-9.27415
ach	-9.2743
▁überzeugt	-9.27509
theil	-9.27513
▁Füßen	-9.27589
▁andre	-9.27714
▁z	-9.27812
Warum	-9.27907
Ist	-9.27967
ell	-9.28005
▁großer	-9.28116
gleich	-9.28158
ant	-9.28195
▁Zeichen	-9.28196
▁mochte	-9.28198
▁ähnlich	-9.28294
▁erblickte	-9.28528
pp	-9.28648
▁Schule	-9.28704
▁darf	-9.28794
▁solle	-9.28813
▁guten	-9.29021
▁sieht	-9.2906
lü	-9.29237
▁Maler	-9.29571
▁Na	-9.2959
▁offen	-9.29647
▁Schmerz	-9.29696
▁geblieben	-9.29712
▁krank	-9.2976
ka	-9.29763
weise	-9.29983
▁Wand	-9.30084
▁liebte	-9.30184
▁Kapitel	-9.30294
▁Schönheit	-9.30294
▁scheint	-9.30297
▁merkte	-9.30297
wa	-9.30447
▁seien	-9.30673
sie	-9.3077
eck	-9.30884
▁Beispiel	-9.31023
▁lieb	-9.31145
▁gehe	-9.31219
ia	-9.31288
▁wartete	-9.31412
Dame	-9.31548
ist	-9.31616
▁entfernt	-9.31618
▁Richtung	-9.31717
▁faßte	-9.31719
▁kannte	-9.31741
rte	-9.31887
▁abge	-9.31893
▁zehn	-9.31946
▁Unglück	-9.31979
▁wolle	-9.32008
▁habt	-9.32049
rt	-9.3229
▁de	-9.32385
ah	-9.3243
▁Aufmerksamkeit	-9.32437
sehen	-9.32442
▁Nicht	-9.32659
▁Ehe	-9.32732
▁Reise	-9.33255
uß	-9.33282
▁demselben	-9.33295
▁erschienen	-9.33356
▁verstand	-9.33485
alt	-9.33676
ann	-9.33788
mäßig	-9.33821
▁Denn	-9.33879
▁Petersburg	-9.33891
▁Onkel	-9.33891
▁Reed	-9.33892
▁Tante	-9.3391
▁gedacht	-9.34035
▁furchtbar	-9.34329
▁Mannes	-9.34433
▁d	-9.34548
▁anderer	-9.34573
▁Fairfax	-9.34627
▁Swijaschski	-9.34627
▁soeben	-9.34638
▁miteinander	-9.34649
▁dagegen	-9.347
▁Macht	-9.34716
du	-9.34838
▁Mal	-9.34907
▁spät	-9.34943
T	-9.35005
▁ehe	-9.35104
haft	-9.35169
▁beschäftigt	-9.35234
▁schöne	-9.35257
spiel	-9.35333
▁Saint	-9.35408
ick	-9.35833
ute	-9.35859
▁-	-9.36066
▁empor	-9.36114
▁ziemlich	-9.36114
▁müde	-9.36114
▁verließ	-9.36183
and	-9.3625
est	-9.36359
▁sicher	-9.36583
▁Regen	-9.36639
▁weißt	-9.3666
▁Interesse	-9.36866
▁Angst	-9.36866
▁selten	-9.36867
▁Notre	-9.36885
▁Jungen	-9.36904
▁Endlich	-9.36922
ien	-9.37081
▁Lande	-9.37155
▁jedem	-9.37234
▁Ma	-9.37254
▁kleines	-9.37258
▁N	-9.37425
fahren	-9.37522
▁geöffnet	-9.37623
▁schwieg	-9.37623
▁Bank	-9.37659
▁darum	-9.37754
▁eigene	-9.37815
▁führen	-9.37946
▁sowohl	-9.38022
▁Advokaten	-9.38041
j	-9.38056
▁hab	-9.38059
▁Joe	-9.38062
as	-9.38157
mann	-9.38225
▁derselben	-9.38276
▁Charakter	-9.38386
▁flüsterte	-9.38388
▁bißchen	-9.38398
▁fürchtete	-9.38541
▁längst	-9.3855
gestellt	-9.38562
▁lustig	-9.38585
▁beinahe	-9.38594
▁geradezu	-9.38595
▁Mauer	-9.38614
weg	-9.38666
▁pflegte	-9.38796
▁gegangen	-9.38848
nahm	-9.38907
▁Adele	-9.39063
▁Holz	-9.39156
▁kehrte	-9.39169
▁gleichfalls	-9.39169
▁Mary	-9.3917
▁traurig	-9.39174
▁Besuch	-9.39242
Wo	-9.39299
▁sprang	-9.39333
▁vorbei	-9.39453
▁erzählte	-9.39524
bild	-9.39547
innen	-9.39816
eu	-9.39924
▁hohen	-9.39995
ler	-9.40051
▁Ka	-9.40101
erte	-9.40163
▁unglücklich	-9.40385
▁Durch	-9.40491
wohl	-9.40547
ziehen	-9.4064
sucht	-9.40654
▁Schlaf	-9.40702
▁Plötzlich	-9.40712
▁küßte	-9.40712
▁traf	-9.40713
▁solcher	-9.40755
▁seid	-9.40817
statt	-9.41079
▁Hof	-9.41091
▁Fragen	-9.41278
ring	-9.4131
igt	-9.4135
▁holen	-9.41447
▁Prozeß	-9.41499
▁Bessie	-9.41501
schl	-9.4162
▁erkennen	-9.41683
▁Di	-9.41719
▁näherte	-9.41785
▁scharf	-9.4179
▁kennen	-9.41906
▁Dingen	-9.41941
▁Kunst	-9.42287
▁Geräusch	-9.42293
▁Oblonski	-9.42293
▁stolz	-9.42293
▁erwartet	-9.42297
▁Rede	-9.42337
▁tot	-9.42348
bo	-9.42365
▁tausend	-9.42433
▁wohin	-9.42438
▁statt	-9.42595
anz	-9.42709
▁Li	-9.42923
▁sanft	-9.43093
▁gestern	-9.43095
▁inne	-9.4314
▁Ihrer	-9.4332
▁vermochte	-9.43443
tausend	-9.43732
ud	-9.43844
▁sollten	-9.43865
▁Rudolf	-9.439
▁Verzweiflung	-9.439
▁rein	-9.439
▁lachte	-9.43916
Wer	-9.44082
▁läßt	-9.44131
▁lesen	-9.44281
▁kenne	-9.44299
▁Her	-9.44307
▁Mein	-9.44383
▁kurz	-9.44401
▁gewisse	-9.44437
▁Ohr	-9.445
▁zweiten	-9.44594
ma	-9.44653
▁wollten	-9.44747
▁Kreuz	-9.44765
▁ausge	-9.45026
ierte	-9.45093
▁Schweigen	-9.45534
▁trotzdem	-9.45552
ling	-9.45567
▁Lachen	-9.45615
▁Dom	-9.45688
treten	-9.45696
▁armen	-9.45899
▁Fa	-9.4594
ib	-9.46066
▁Straßen	-9.46079
▁reichte	-9.46227
▁Schritt	-9.46266
▁aufmerksam	-9.46359
▁Traum	-9.46368
▁früh	-9.46438
▁warten	-9.46443
▁We	-9.4666
▁V	-9.4667
▁Advokat	-9.46735
In	-9.46798
id	-9.46805
wi	-9.46885
▁Reihe	-9.46949
▁Geistliche	-9.47068
▁notwendig	-9.47192
▁unwillkürlich	-9.47196
▁Kleid	-9.47262
▁gerichtet	-9.47297
▁dasselbe	-9.4737
▁Mitte	-9.47563
halb	-9.47576
▁Gottes	-9.47791
bi	-9.47854
tel	-9.47861
▁wider	-9.47861
▁neu	-9.47894
werk	-9.48025
▁Kamin	-9.4803
▁fortwährend	-9.48043
▁Hinter	-9.48059
▁herunter	-9.48067
ucht	-9.48091
leben	-9.48275
▁kalt	-9.48398
gebracht	-9.48482
▁re	-9.48748
Nicht	-9.48757
▁jenen	-9.48812
▁heftig	-9.48822
▁Tätigkeit	-9.4888
▁schüttelte	-9.48881
▁Ro	-9.48962
▁aufzu	-9.49215
▁Tagen	-9.49293
aber	-9.49351
▁le	-9.4942
▁bestimmt	-9.49422
▁guter	-9.49466
▁bevor	-9.49673
▁Anfang	-9.49734
▁nannte	-9.49735
E	-9.49758
▁schlief	-9.4976
fallen	-9.49784
▁machten	-9.49941
▁kleiner	-9.5001
▁erfahren	-9.501
kel	-9.5035
▁verstehe	-9.5037
▁leid	-9.50523
ik	-9.50583
▁außerordentlich	-9.50597
▁Vorstellung	-9.50619
▁Nein	-9.50696
▁dunkel	-9.50835
bel	-9.51027
▁gefallen	-9.51191
▁Dach	-9.51266
▁schrieb	-9.51315
L	-9.51326
▁setzen	-9.51442
▁Rock	-9.51492
ade	-9.51571
▁manche	-9.51622
uer	-9.51681
▁meisten	-9.517
▁Brot	-9.51841
▁Tode	-9.51886
▁beste	-9.51937
▁bitten	-9.51952
▁deiner	-9.52022
▁Königs	-9.52143
▁Schulter	-9.52146
Ah	-9.52245
▁Winter	-9.52343
▁besaß	-9.52344
▁ärgerlich	-9.52403
▁bisher	-9.52447
▁helfen	-9.52514
▁Nase	-9.52677
▁anzu	-9.5268
▁wären	-9.52858
▁besondere	-9.52873
▁Knie	-9.53101
▁Stimmung	-9.53228
▁sterben	-9.53229
▁verschwand	-9.5324
▁Zustand	-9.53309
▁rasch	-9.53377
▁ward	-9.53418
▁Schultern	-9.53448
▁tragen	-9.53513
tte	-9.53544
▁D	-9.53603
▁einzigen	-9.53727
da	-9.5378
▁zurecht	-9.53811
M	-9.53823
ren	-9.53878
▁Sa	-9.53908
gezogen	-9.53928
▁verb	-9.53981
▁Möglichkeit	-9.54121
▁jemals	-9.54121
▁that	-9.54123
▁schlafen	-9.54141
lu	-9.54173
▁Wein	-9.54384
▁konnten	-9.54503
▁Fr	-9.54527
▁einzu	-9.54556
schein	-9.54735
lassen	-9.54842
▁keiner	-9.54927
▁Ludwig	-9.55022
▁vorhanden	-9.55022
▁gesund	-9.55025
▁geschlossen	-9.55053
▁ergriff	-9.55059
▁Ch	-9.55161
▁dürfen	-9.55378
ce	-9.55459
acht	-9.55509
▁Tat	-9.55554
▁Gefühle	-9.5558
▁Ziege	-9.55717
▁auszu	-9.55874
▁Lust	-9.55931
▁Grab	-9.5596
kleid	-9.5607
▁dar	-9.56156
▁aufge	-9.56195
▁Dies	-9.56195
▁Hauses	-9.56225
▁fürchte	-9.56277
▁Grunde	-9.56456
bau	-9.56495
ill	-9.56552
▁deinen	-9.56668
Mein	-9.56707
▁Aufregung	-9.56849
▁Erregung	-9.56849
▁Papier	-9.56849
▁froh	-9.56849
▁bemerkt	-9.56868
▁Gesichte	-9.56893
▁hindurch	-9.56895
ang	-9.57032
ub	-9.57039
▁wagte	-9.573
▁großes	-9.57311
▁essen	-9.57334
▁verschieden	-9.57405
▁Angelegenheit	-9.57407
▁Dienst	-9.57582
▁Gold	-9.57654
▁komme	-9.57746
▁Nikolai	-9.57775
wir	-9.57904
▁weh	-9.57925
▁Selbst	-9.57946
▁gewissen	-9.57995
▁eng	-9.58128
ssen	-9.58304
▁erzählen	-9.58342
igung	-9.58423
eilen	-9.58486
▁drehte	-9.58499
▁böse	-9.58546
▁Ohren	-9.58672
▁eilig	-9.58709
▁besten	-9.58712
▁verliebt	-9.58712
▁Wohnung	-9.58713
▁Unterhaltung	-9.58713
▁Armen	-9.58828
▁antworten	-9.58949
bringen	-9.58969
artig	-9.5897
Si	-9.59019
▁Schrecken	-9.59127
zugehen	-9.59311
geben	-9.59523
▁angenehm	-9.59619
▁Kaufmann	-9.59653
▁Weslowski	-9.59653
▁französisch	-9.59653
▁zwanzig	-9.59653
Gewiß	-9.59653
▁Schauspiel	-9.59659
▁Begriff	-9.59669
▁Ecke	-9.59714
▁fern	-9.59719
▁Gang	-9.59842
tritt	-9.60077
tre	-9.60077
▁Pflicht	-9.60261
▁denke	-9.60295
▁alt	-9.60326
ger	-9.60338
▁geh	-9.6036
▁Betsy	-9.60605
▁manchmal	-9.60605
▁draußen	-9.60606
▁vielmehr	-9.60616
▁sichtbar	-9.60622
▁Kutscher	-9.60689
G	-9.60708
▁Ist	-9.61092
▁Bitte	-9.61122
rum	-9.612
stein	-9.61213
▁Für	-9.61272
di	-9.61285
▁gehalten	-9.61401
K	-9.61427
▁Sinne	-9.61434
fall	-9.61559
▁Lydia	-9.61566
▁Leser	-9.61581
▁Bettler	-9.61599
haus	-9.61642
▁Sommer	-9.61643
▁Weile	-9.61727
▁überall	-9.61779
▁Blumen	-9.61852
gr	-9.62036
▁Leuten	-9.62148
▁Ort	-9.62234
vi	-9.62391
▁zweite	-9.62412
▁Füße	-9.6242
▁lebhaft	-9.62426
▁Thornfield	-9.62537
▁obwohl	-9.6261
ation	-9.62636
▁hinab	-9.62722
▁Tee	-9.62764
▁Neu	-9.62885
▁Hin	-9.63021
zog	-9.63071
▁sitzen	-9.63118
▁Form	-9.63201
och	-9.63378
gekommen	-9.63476
ni	-9.63481
▁Iwanowna	-9.63518
▁Kummer	-9.63518
▁entschlossen	-9.63532
▁Se	-9.63542
▁Mond	-9.63577
kehr	-9.63607
▁redete	-9.63641
▁Ljewins	-9.63673
ti	-9.63796
▁einge	-9.63838
▁tiefer	-9.63967
▁Mut	-9.64148
schlag	-9.64217
▁verstanden	-9.64334
fiel	-9.6449
▁vorsichtig	-9.64508
▁Ho	-9.64552
▁Meine	-9.64556
▁gethan	-9.64661
S	-9.64727
all	-9.64796
ner	-9.64835
per	-9.64885
zukommen	-9.64887
▁l	-9.64969
hält	-9.64982
lang	-9.65044
meister	-9.65184
▁weiße	-9.65301
▁Versuch	-9.65404
▁Eyre	-9.65508
▁namentlich	-9.65508
▁eigne	-9.65509
▁wann	-9.65537
▁Becky	-9.65593
▁Zwei	-9.65659
▁geschrieben	-9.65793
liches	-9.65812
qu	-9.65845
▁erreicht	-9.65918
▁Warum	-9.65952
▁jedes	-9.66013
wie	-9.66339
app	-9.66398
▁lagen	-9.66446
▁Gewalt	-9.66518
▁Wirklichkeit	-9.66518
▁Gebäude	-9.66518
▁Zelle	-9.66568
üll	-9.66611
▁hohe	-9.66741
▁Glauben	-9.66776
▁Annas	-9.66879
▁Kranken	-9.66898
erweise	-9.66996
▁übrigen	-9.67016
▁Rat	-9.67148
▁unbe	-9.67207
schrift	-9.67473
▁mögen	-9.67516
▁Bürger	-9.67532
▁Gegenwart	-9.67538
▁ordentlich	-9.67538
▁Wirkung	-9.67539
▁geliebt	-9.6754
▁schrecklich	-9.67548
daß	-9.67662
Sch	-9.67704
▁bekam	-9.67716
führen	-9.67938
▁mehrere	-9.67981
▁Decke	-9.6801
▁Gefahr	-9.68105
▁erklärte	-9.68125
lief	-9.68178
▁schwarze	-9.68196
gelassen	-9.68358
halt	-9.68384
wenden	-9.68548
▁Lärm	-9.68569
▁Winkel	-9.6858
▁Freiheit	-9.68587
▁Fehler	-9.68683
▁erstaunt	-9.68808
arm	-9.68915
▁mußt	-9.69015
▁Wald	-9.69341
▁Junge	-9.69568
▁schwach	-9.69609
▁Bedeutung	-9.69611
▁Schicksal	-9.69611
▁Schlüssel	-9.69611
▁Gäste	-9.69612
▁giebt	-9.69613
▁Wirtschaft	-9.69614
hof	-9.69652
▁vollkommen	-9.69679
▁eilte	-9.69688
do	-9.69783
▁nennen	-9.69839
▁Erfolg	-9.70203
▁Ha	-9.70217
▁Frühstück	-9.70373
▁Kirchen	-9.70441
ow	-9.70558
no	-9.70631
▁Name	-9.70647
satz	-9.70661
▁vergnügt	-9.70663
▁Leidenschaft	-9.70673
▁Euer	-9.7068
▁Eure	-9.70693
▁Willen	-9.7077
Dann	-9.70778
▁Gut	-9.70791
▁hängen	-9.70803
▁Hab	-9.71035
▁sahen	-9.71046
▁Königin	-9.71235
▁Hund	-9.71387
▁Herrschaft	-9.71559
blick	-9.71563
▁Verstand	-9.71577
ja	-9.71578
zeug	-9.7164
▁Erscheinung	-9.71728
▁Zukunft	-9.71734
nst	-9.71743
▁Co	-9.71885
stehen	-9.72116
▁hundert	-9.72171
▁la	-9.72219
▁traten	-9.72244
▁Gegen	-9.72321
P	-9.72336
▁unangenehm	-9.72366
folge	-9.72467
▁auseinander	-9.7247
unter	-9.72688
▁Gemüt	-9.72803
▁Krankheit	-9.72803
▁Überzeugung	-9.72803
▁Jagd	-9.72803
▁erhoben	-9.72865
▁beugte	-9.72928
hafte	-9.73001
ht	-9.73034
▁Fest	-9.73267
▁Kleider	-9.73297
▁Herzens	-9.73308
▁Tor	-9.73419
R	-9.73426
ges	-9.73472
rück	-9.73527
sinn	-9.73604
▁o	-9.73627
▁erzählt	-9.73634
▁wünschen	-9.73695
▁Wunder	-9.73856
▁Bücher	-9.7388
▁Diana	-9.7389
▁Schließlich	-9.7389
▁verheiratet	-9.7389
▁Sprache	-9.7389
leg	-9.73893
▁Streit	-9.73895
▁Ober	-9.73899
▁Gegenteil	-9.73899
▁heiter	-9.73918
▁Haltung	-9.73924
▁lebte	-9.73955
▁schweigend	-9.73978
▁saßen	-9.73983
▁allerlei	-9.74012
▁einigen	-9.74114
▁erwartete	-9.74216
▁he	-9.74237
▁Zweck	-9.74522
▁Jahr	-9.74561
▁Ferne	-9.74705
gi	-9.74913
▁Befehl	-9.74988
▁augenblicklich	-9.74988
▁murmelte	-9.74988
▁Kampf	-9.74989
▁menschliche	-9.74999
▁Leni	-9.75013
▁spielen	-9.75023
▁bestand	-9.75125
▁abzu	-9.75203
▁tut	-9.75224
▁schob	-9.75251
Oh	-9.75277
▁müßte	-9.75433
▁Doch	-9.75482
schau	-9.75754
▁Anstrengung	-9.75916
▁Einzelheiten	-9.761
▁Hälfte	-9.761
▁entsetzlich	-9.761
▁Musik	-9.761
▁Hemd	-9.76107
▁möge	-9.76124
▁Arbeiter	-9.7618
▁Bewegungen	-9.76254
tzt	-9.76319
▁mache	-9.76348
stellen	-9.76628
▁schienen	-9.76725
laden	-9.76971
▁Alte	-9.7708
▁Leiden	-9.77104
▁Wochen	-9.77208
▁Ingram	-9.77223
▁Teppich	-9.77223
▁Sturm	-9.77224
hä	-9.77344
▁Peter	-9.77399
▁höchst	-9.77421
hören	-9.77451
▁Schw	-9.77534
▁Noch	-9.77543
▁ra	-9.77646
▁seltsam	-9.77669
▁schreiben	-9.77717
▁drang	-9.77754
ille	-9.77826
▁Gute	-9.77863
▁Heu	-9.77961
ve	-9.78137
▁Bewußtsein	-9.7836
▁Scheidung	-9.7836
▁Salon	-9.7836
▁Mittagessen	-9.78361
▁Rubel	-9.78364
gelegt	-9.78461
ll	-9.78658
▁neun	-9.78752
▁Leib	-9.78782
▁voraus	-9.78857
gab	-9.78902
▁heiligen	-9.78922
▁dieselbe	-9.78943
ug	-9.79109
▁Den	-9.79212
▁infolge	-9.79377
▁stellen	-9.79378
tisch	-9.79383
▁Sonntag	-9.79459
genommen	-9.79465
gew	-9.79475
▁Zwischen	-9.79509
▁streckte	-9.79509
▁unaufhörlich	-9.79509
▁ungefähr	-9.79509
▁Nachricht	-9.79509
▁Ent	-9.79559
▁soviel	-9.79591
▁Gras	-9.79625
▁gnädige	-9.79657
▁Fle	-9.79696
▁bildete	-9.79707
▁Spitze	-9.79801
tes	-9.79857
▁Soldaten	-9.7987
▁Beine	-9.79938
▁War	-9.79953
▁Will	-9.80064
▁Knaben	-9.8013
hren	-9.80165
▁finster	-9.80272
▁Gesetz	-9.80312
▁sieben	-9.80321
erin	-9.80328
laufen	-9.80403
▁steckte	-9.80462
halten	-9.80632
üß	-9.80645
▁a	-9.80673
F	-9.80799
▁hing	-9.8083
▁übrig	-9.80844
gesehen	-9.80882
▁Kindern	-9.80909
▁Denk	-9.80941
▁gefaßt	-9.81015
wind	-9.81024
▁Alter	-9.81052
▁geschickt	-9.81053
ord	-9.81101
legen	-9.8112
▁unge	-9.81156
▁Re	-9.81176
▁indessen	-9.81258
land	-9.81302
▁Wohl	-9.81424
▁wach	-9.81618
▁leiden	-9.81635
▁willen	-9.8167
iges	-9.81696
▁einsam	-9.81758
▁Kräfte	-9.81848
▁Witwe	-9.81848
▁Atem	-9.81852
▁Weilchen	-9.81868
▁Häuser	-9.81928
▁brauche	-9.81942
▁herbei	-9.8196
▁begab	-9.81964
▁vorwärts	-9.81996
▁Ruf	-9.82039
▁Wieder	-9.8213
sah	-9.82175
▁kurzen	-9.82238
raus	-9.82279
ph	-9.82321
ort	-9.82325
▁heim	-9.82413
sicht	-9.82531
▁Wronskis	-9.82709
rock	-9.82756
▁könnten	-9.82883
geh	-9.82941
os	-9.83018
▁Kreis	-9.8303
▁Ueber	-9.83039
▁Sessel	-9.8304
▁Außerdem	-9.83043
▁Entsetzen	-9.83044
▁jedesmal	-9.83062
▁hierher	-9.83309
▁Thränen	-9.83311
▁besonderen	-9.83313
▁reich	-9.83321
achte	-9.83404
▁Gespräche	-9.8355
▁Me	-9.8358
▁ernst	-9.83606
war	-9.83659
hause	-9.83664
▁verschiedene	-9.83813
▁eigen	-9.83974
▁Zug	-9.8406
▁Verständnis	-9.84243
▁augenscheinlich	-9.84243
▁geistige	-9.84261
▁Dunkelheit	-9.84266
▁erscheinen	-9.84292
▁hart	-9.84337
▁Stille	-9.84345
▁Woche	-9.84388
▁dennoch	-9.84398
Also	-9.84483
▁fallen	-9.84489
tlich	-9.84491
über	-9.84581
▁Ba	-9.8461
▁höchsten	-9.84855
▁sogleich	-9.84964
▁Kleine	-9.85046
wo	-9.85073
ände	-9.85203
▁Glocken	-9.85255
Bei	-9.85368
▁Bemerkung	-9.8539
▁mußten	-9.85415
▁Erklärung	-9.85463
▁überrascht	-9.85463
▁Tiefe	-9.85466
▁deswegen	-9.85471
▁Ring	-9.85484
▁Reiz	-9.8555
▁Ding	-9.85594
▁hoffe	-9.85681
▁Hu	-9.85768
losigkeit	-9.85855
▁Baum	-9.85866
▁sprachen	-9.85972
tage	-9.86019
▁Geschäft	-9.86054
ließ	-9.86098
volle	-9.861
▁roten	-9.86209
▁klein	-9.86237
▁brauchte	-9.86283
▁hübsch	-9.86371
▁Sachen	-9.86518
▁größten	-9.86521
▁Personen	-9.8656
▁Kittys	-9.86587
▁schöner	-9.86617
▁übrigens	-9.86625
▁Galerie	-9.86698
▁Hügel	-9.86698
▁Verbindung	-9.86698
▁durfte	-9.86698
▁Entschluß	-9.86699
▁Urteil	-9.86703
▁Falle	-9.86749
▁Gleich	-9.86762
▁beobachtete	-9.86965
▁Bilder	-9.87046
▁Lehrer	-9.87052
▁Drei	-9.87112
lung	-9.87211
▁versucht	-9.87232
▁geführt	-9.87303
▁trinken	-9.8732
setzen	-9.87527
▁versch	-9.87787
▁fühlen	-9.87789
▁gelegt	-9.87823
▁hell	-9.8791
▁Schwestern	-9.87944
▁erschrocken	-9.87948
▁gänzlich	-9.87948
▁Antlitz	-9.87948
▁Lampe	-9.87948
▁Raum	-9.87948
▁Schnee	-9.87951
▁Eltern	-9.87951
onville	-9.87954
▁ebenfalls	-9.87965
▁bewußt	-9.88079
▁bemerken	-9.88107
brechen	-9.88111
▁fühle	-9.88118
go	-9.88129
rot	-9.8823
▁Dorf	-9.88428
▁erklären	-9.8844
komm	-9.88481
▁wiederum	-9.88505
tern	-9.88571
gehalten	-9.88635
▁Küche	-9.88716
chtig	-9.8872
▁alter	-9.88775
▁vielen	-9.88796
▁Verhältnis	-9.88915
▁rot	-9.89033
▁laufen	-9.8905
gestalt	-9.892
kraft	-9.8921
▁irgendwelche	-9.89213
▁Theater	-9.89213
▁kühl	-9.89214
▁angefangen	-9.8922
ähne	-9.89281
▁wär	-9.89314
▁größte	-9.89395
▁Rolle	-9.89446
eren	-9.89485
ecken	-9.89499
elle	-9.89778
▁Vielleicht	-9.89791
▁fröhlich	-9.89822
▁fr	-9.89863
▁falsche	-9.89992
▁Al	-9.90277
bare	-9.90357
W	-9.90359
ard	-9.90416
▁seltsame	-9.9043
▁seufzte	-9.90495
▁stumm	-9.90495
▁weshalb	-9.90496
▁Rouen	-9.90496
▁Aufgabe	-9.90521
▁lauter	-9.9054
▁Punkt	-9.90563
▁Scham	-9.90566
▁frisch	-9.90583
▁gekleidet	-9.90671
▁freue	-9.90685
würdig	-9.90755
▁ließen	-9.9081
▁Dasein	-9.90876
▁Ohn	-9.9088
▁Br	-9.90906
herr	-9.90925
Meine	-9.90953
▁Ehre	-9.91081
▁Freuden	-9.91086
▁Bau	-9.91213
ai	-9.91242
od	-9.91258
▁Ju	-9.91277
tür	-9.91294
nz	-9.9135
D	-9.91369
ble	-9.91381
▁erregt	-9.91389
tion	-9.91406
ständ	-9.9167
▁früheren	-9.91686
▁Heil	-9.91784
▁Frankreich	-9.91794
▁Gattin	-9.91794
▁Katawasow	-9.91794
▁Temple	-9.91794
▁gleichgültig	-9.91794
▁stürzte	-9.91794
▁Po	-9.91971
▁Haufen	-9.9202
▁geb	-9.92073
▁Werk	-9.92086
hielt	-9.92097
▁anfangen	-9.92144
▁Gast	-9.92251
mittel	-9.92292
reiten	-9.92373
▁tr	-9.92653
▁Weiber	-9.92688
maß	-9.92794
▁zuvor	-9.92891
schlagen	-9.93028
▁Geschmack	-9.93043
▁einziges	-9.93054
platz	-9.93106
▁Beschäftigung	-9.9311
▁Cardinal	-9.9311
▁Vermögen	-9.9311
▁russische	-9.9311
▁Kaffee	-9.93112
▁Sid	-9.9314
▁Bald	-9.93148
▁außerdem	-9.93149
▁Saal	-9.93152
▁Darauf	-9.93156
▁Mantel	-9.9316
▁versuchen	-9.9318
▁Jacob	-9.93209
▁danach	-9.9323
▁wollt	-9.93295
Sei	-9.93303
▁größer	-9.93309
▁Katze	-9.93339
ton	-9.93351
▁Essen	-9.93416
▁Seit	-9.93484
gegeben	-9.93537
▁treu	-9.93639
▁rechten	-9.93673
▁folgen	-9.9368
▁Beziehungen	-9.93728
heil	-9.94093
▁Erst	-9.94233
▁kräftig	-9.94374
tag	-9.94409
▁Gedächtnis	-9.94414
▁Erstaunen	-9.94443
▁Galgen	-9.94443
▁Stolz	-9.94443
▁Wohnzimmer	-9.94443
▁heiraten	-9.94443
▁lehnte	-9.94443
▁Feder	-9.94446
fenster	-9.9445
▁Dank	-9.9446
▁miß	-9.94486
stück	-9.94956
▁Hunde	-9.95066
was	-9.95172
▁ziehen	-9.95213
▁Schul	-9.95251
vor	-9.95257
▁bemühte	-9.95285
▁tiefe	-9.95693
▁brauchen	-9.95697
▁bedeckt	-9.9572
▁junger	-9.95748
reich	-9.9575
▁Esmeralda	-9.95795
▁zwölf	-9.95795
▁beständig	-9.95795
▁Spiegel	-9.95802
▁Anspruch	-9.95821
▁bloß	-9.95828
ld	-9.95878
▁Gebet	-9.95881
▁daraus	-9.95986
wachsen	-9.96096
▁komm	-9.96118
Auf	-9.96181
trug	-9.96181
▁denselben	-9.96187
▁laß	-9.96231
arbeit	-9.96318
▁unver	-9.96322
▁Herzog	-9.9635
licher	-9.96429
▁irgendeine	-9.9667
zunehmen	-9.96747
▁häufig	-9.96759
▁gebe	-9.96924
eres	-9.96935
▁erhielt	-9.96957
N	-9.96968
lieb	-9.97047
▁peinlich	-9.97165
▁Papst	-9.97165
▁Mo	-9.97169
▁Wissenschaft	-9.9717
▁Pause	-9.9718
tragen	-9.97201
▁Schau	-9.97216
▁entwe	-9.9725
▁gewöhnt	-9.97256
▁verlor	-9.97256
▁Tuch	-9.97306
▁entschieden	-9.97337
▁Bäume	-9.97445
schnitt	-9.9749
verständlich	-9.97522
▁Wangen	-9.97556
▁Tier	-9.97741
org	-9.97752
▁zuweilen	-9.97863
▁Stimmen	-9.97921
▁liebt	-9.98023
▁geriet	-9.98198
▁erfüllt	-9.9821
▁schwarz	-9.98295
ci	-9.9831
▁Zimmers	-9.98415
asse	-9.98503
stellung	-9.98514
reißen	-9.9852
▁Agafja	-9.98553
▁ängstlich	-9.98553
▁Sicherheit	-9.98553
▁Preis	-9.98557
▁Hexe	-9.98563
▁Gruppe	-9.98563
▁Lehr	-9.98584
▁Chor	-9.98609
▁Vorteil	-9.98632
▁Schon	-9.98642
▁Kerze	-9.98746
gefühl	-9.988
ho	-9.98846
▁verzeihen	-9.98897
▁allgemeinen	-9.98911
fällig	-9.98913
sagen	-9.98918
▁Fleisch	-9.9893
▁Pariser	-9.98947
▁arbeiten	-9.98983
▁Thürme	-9.99018
zogen	-9.99034
▁begreifen	-9.99063
▁treffen	-9.99238
fuhr	-9.99313
mi	-9.99373
iz	-9.99471
onne	-9.99483
zubringen	-9.99525
▁dritten	-9.99631
uck	-9.99679
▁Emmas	-9.99861
▁hält	-9.99932
▁Zauber	-9.99938
▁Thüre	-9.99941
▁menschlichen	-9.99949
undzwanzig	-9.99962
▁Lheureux	-9.99962
▁Wächter	-9.99962
▁vergaß	-9.99962
▁verschwunden	-9.99962
▁verändert	-9.99962
▁Köpfe	-9.99963
▁selber	-9.99963
▁getroffen	-9.99971
▁Idee	-9.99979
▁Kreise	-10.0001
▁gleichsam	-10.0004
▁bot	-10.0007
▁Glocke	-10.0021
▁De	-10.0026
▁schaute	-10.0026
▁Tasche	-10.0029
▁dritte	-10.003
▁findet	-10.0031
▁Feld	-10.0034
stieg	-10.0035
▁Fingern	-10.0038
C	-10.0039
▁bewegte	-10.0041
▁Plan	-10.0041
rauf	-10.0044
▁Beamten	-10.0048
ob	-10.0051
▁Jahrhunderte	-10.0054
▁angenommen	-10.0056
▁griff	-10.0057
▁Wert	-10.0069
▁voller	-10.0078
▁grün	-10.0082
▁mächtig	-10.0094
zusehen	-10.0094
▁bedeckte	-10.01
▁starr	-10.0117
▁Geheimnis	-10.0121
gerissen	-10.0125
▁hastig	-10.0137
▁genannt	-10.0139
▁Figur	-10.0139
▁Vertrauen	-10.0139
▁klopfte	-10.0139
▁Michailowna	-10.014
▁Dichter	-10.014
▁sang	-10.0141
mut	-10.015
▁Gewohnheit	-10.0153
▁begriff	-10.0159
scht	-10.0165
▁Verhältnisse	-10.0173
▁Knien	-10.0173
▁Blicken	-10.0174
ent	-10.0176
▁allgemeine	-10.0178
ker	-10.018
▁Ernst	-10.0191
▁Bekannten	-10.0196
gegen	-10.0196
▁spielte	-10.02
▁halte	-10.0203
rmel	-10.0204
rede	-10.0204
▁eigenes	-10.0207
swert	-10.0214
thür	-10.0225
▁Munde	-10.0235
▁Zeiten	-10.0251
sein	-10.0255
▁gelangt	-10.0279
▁Clopin	-10.0284
▁Flügel	-10.0284
▁Kloster	-10.0284
▁Schutz	-10.0284
▁lernen	-10.0284
▁Dr	-10.0285
▁blaß	-10.0286
▁Ankunft	-10.0286
▁Ziel	-10.0287
▁gelesen	-10.0289
▁Verkehr	-10.0291
▁kurze	-10.0291
▁zärtlich	-10.0301
▁vernahm	-10.0306
getragen	-10.0309
▁schwere	-10.031
▁Reich	-10.0314
▁Mama	-10.0318
▁Ursache	-10.032
Herr	-10.0333
Jetzt	-10.0333
lose	-10.0334
▁anzusehen	-10.0335
▁Lied	-10.0341
▁breit	-10.0343
▁tiefen	-10.0363
▁holte	-10.037
▁m	-10.0375
▁Briefe	-10.0375
Hab	-10.038
Sehr	-10.04
▁begannen	-10.0402
▁Schrei	-10.0404
mütig	-10.0421
regen	-10.0426
▁Stock	-10.0427
▁Entzücken	-10.0431
▁Prinzessin	-10.0431
▁Türhüter	-10.0431
▁aufrichtig	-10.0431
▁Rennen	-10.0431
▁Neigung	-10.0432
▁Kinn	-10.0433
▁Güte	-10.0433
▁einst	-10.0435
suchungsrichter	-10.0435
▁ho	-10.0436
herzig	-10.044
losen	-10.0443
▁Dabei	-10.0445
erei	-10.0445
▁Last	-10.0447
▁bleibt	-10.0448
▁gleichen	-10.0448
▁herauf	-10.0449
▁Student	-10.045
iff	-10.0465
▁Lo	-10.0472
▁Schein	-10.0483
▁Reiter	-10.0484
▁Haare	-10.0487
▁leer	-10.0496
▁gesetzt	-10.0501
merk	-10.0506
zustellen	-10.0511
▁Bruders	-10.0514
▁schlechte	-10.0515
▁Fuße	-10.0522
▁Arbeits	-10.0526
reden	-10.053
▁Glanz	-10.0537
▁Meer	-10.0542
▁ertragen	-10.0554
kleide	-10.0559
▁Not	-10.0563
▁beruhigen	-10.0565
▁Je	-10.0573
▁mo	-10.0578
▁Doktor	-10.058
▁Jaschwin	-10.058
▁Seufzer	-10.058
▁eifrig	-10.058
▁gezwungen	-10.058
▁Strick	-10.058
▁Würde	-10.058
▁Wasenka	-10.058
▁Rücksicht	-10.0581
▁gewohnt	-10.0582
denken	-10.0584
stimme	-10.0584
▁Vogel	-10.0585
ellen	-10.059
▁gefiel	-10.0591
▁freudig	-10.0592
wer	-10.0605
▁gehörte	-10.0607
Komm	-10.0607
▁Gesichter	-10.0608
kü	-10.0618
▁Schlag	-10.0618
▁riß	-10.0623
▁Zähne	-10.0623
steigen	-10.0634
für	-10.0642
▁klang	-10.0643
geschlagen	-10.0653
stoß	-10.0666
▁ruhigen	-10.0672
sitz	-10.0677
▁Eis	-10.0677
▁nachher	-10.0678
▁Grade	-10.0714
ide	-10.0716
▁Mag	-10.0717
▁Offizier	-10.0727
▁Bürstner	-10.0732
▁Jugend	-10.0732
▁Zärtlichkeit	-10.0732
▁Größe	-10.0732
▁verlieren	-10.0732
▁gleichzeitig	-10.0732
▁Laune	-10.0732
▁sank	-10.0734
▁möglichst	-10.0742
▁Krieg	-10.0749
▁Wahl	-10.0756
lin	-10.0759
▁Madame	-10.0762
▁langer	-10.0763
▁schlimmer	-10.0773
▁spricht	-10.0775
▁fein	-10.0775
▁einiger	-10.0778
willig	-10.0783
fertig	-10.0793
▁legen	-10.0799
lag	-10.0805
rief	-10.0824
tor	-10.0831
iß	-10.0836
▁bitter	-10.084
zimmer	-10.0847
▁schickte	-10.0849
▁Geschöpf	-10.0865
▁Kein	-10.0873
▁überlegte	-10.0875
rang	-10.0877
▁hübsche	-10.0879
▁grauen	-10.0881
▁Eisen	-10.0882
▁Dunkel	-10.0883
drückt	-10.0883
▁Direktor	-10.0886
▁Entfernung	-10.0886
▁Verlegenheit	-10.0886
▁gefährlich	-10.0886
▁Höhle	-10.0886
▁Verlangen	-10.0886
▁übel	-10.0886
▁allmählich	-10.0886
▁strahlend	-10.0886
▁weinte	-10.0886
▁herrlich	-10.0889
ott	-10.0892
▁Kerl	-10.0893
▁Messer	-10.0893
▁Reden	-10.0895
▁Bette	-10.0904
▁Niemand	-10.0905
▁bestimmte	-10.0909
▁Züge	-10.0924
▁Buche	-10.0927
▁wünsche	-10.0934
▁Folge	-10.0935
▁Könige	-10.0936
▁gebildet	-10.0943
Mit	-10.0946
Hier	-10.0946
Zu	-10.095
stelle	-10.095
▁ansah	-10.0952
▁danke	-10.0955
▁fürchten	-10.0955
▁Gerichts	-10.0955
▁Bi	-10.0959
▁Mu	-10.0962
▁lachend	-10.0975
▁Ne	-10.0976
Be	-10.099
▁rede	-10.0992
▁roth	-10.0997
wärts	-10.1021
▁Monate	-10.1021
▁verlangt	-10.1021
alle	-10.1025
▁dunkle	-10.1034
▁Karenin	-10.1037
▁dicke	-10.1042
▁Gelächter	-10.1042
▁Golenischtschew	-10.1042
▁Religion	-10.1042
▁erinnern	-10.1042
▁Abreise	-10.1042
▁Stiefel	-10.1042
▁wüßte	-10.1042
▁Engel	-10.1042
▁Zorn	-10.1042
▁Baukunst	-10.1042
igte	-10.1042
▁siehst	-10.1046
urteil	-10.1049
▁Kälte	-10.1049
▁empfangen	-10.105
hofe	-10.1055
▁To	-10.1058
▁allzu	-10.1058
▁Oder	-10.1059
▁Platze	-10.1062
▁zitternd	-10.1077
dies	-10.1089
▁Eines	-10.1092
kreis	-10.1094
omm	-10.1118
▁folgende	-10.1125
▁Liebes	-10.1134
▁Gründe	-10.1135
▁Thurm	-10.1137
ine	-10.114
▁süße	-10.1149
nie	-10.1155
üsse	-10.116
▁Kerzen	-10.1179
▁Himmels	-10.1181
▁Lager	-10.1182
tische	-10.1192
ba	-10.12
▁Prokurist	-10.1201
▁täglich	-10.1201
▁schüchtern	-10.1201
▁tüchtig	-10.1201
▁Zeug	-10.1201
▁feucht	-10.1201
▁Innern	-10.1201
älle	-10.1202
▁Neben	-10.1203
▁weinen	-10.1203
▁dumm	-10.1203
▁eintreten	-10.1204
▁Stockwerk	-10.1205
▁Aussehen	-10.1205
▁gutmütig	-10.1206
▁Eintritt	-10.1212
▁Benehmen	-10.1213
▁reine	-10.122
▁stillen	-10.122
▁gezogen	-10.1224
ale	-10.1251
▁Erinnerungen	-10.1252
▁lä	-10.126
▁Staat	-10.1265
▁Gesetze	-10.1279
▁Schwierigkeiten	-10.1282
▁inner	-10.1291
gar	-10.1296
▁frische	-10.13
pfen	-10.1302
▁bleich	-10.1323
Eine	-10.1328
▁Bein	-10.1338
▁Studenten	-10.1341
▁Freundin	-10.1354
▁Abschied	-10.1362
▁Rußland	-10.1362
▁gestorben	-10.1362
▁trocken	-10.1362
Lys	-10.1362
▁Palast	-10.1362
▁Gerichtsdiener	-10.1362
▁Staub	-10.1362
▁vergangen	-10.1362
▁gemeinsam	-10.1363
▁Sumpf	-10.1363
▁Franz	-10.1363
▁Aussicht	-10.1365
▁entlang	-10.1367
▁teil	-10.137
▁Inhalt	-10.1372
▁unterhalten	-10.1376
bleiben	-10.1384
▁entfernte	-10.1385
▁Partei	-10.1395
▁heiß	-10.14
▁kurzem	-10.141
▁stören	-10.1413
▁Minute	-10.1416
▁schweren	-10.1423
▁besitzen	-10.1423
gefallen	-10.1424
▁würdig	-10.1425
▁po	-10.1425
Diese	-10.1428
gut	-10.1435
bieten	-10.1457
ßt	-10.1479
▁folgenden	-10.1482
▁zufällig	-10.1493
gemacht	-10.1513
stimmung	-10.152
▁--"	-10.1521
▁Pf	-10.1523
punkt	-10.1525
▁Veränderung	-10.1526
▁eiserne	-10.1526
▁feierlich	-10.1526
▁unmittelbar	-10.1526
▁zweifellos	-10.1526
▁Wechsel	-10.1526
▁Erfahrung	-10.1526
▁Mitteilung	-10.1526
▁Helen	-10.1526
▁Marja	-10.1526
▁Eifersucht	-10.1526
▁Hinsicht	-10.1527
▁nett	-10.1527
▁Braut	-10.1527
▁Volke	-10.1528
▁zurückgekehrt	-10.1529
▁wahrhaftig	-10.1532
▁zuckte	-10.1535
bett	-10.1537
▁hinüber	-10.1538
▁solches	-10.1543
▁Eingang	-10.1547
usch	-10.1548
▁gemein	-10.1557
itz	-10.1566
▁Stufen	-10.1578
nach	-10.1579
J	-10.1595
▁Volks	-10.16
mmel	-10.1606
▁Laut	-10.1608
▁Frei	-10.1611
▁Toms	-10.1614
trag	-10.1615
ise	-10.1619
▁innig	-10.1636
▁Leibe	-10.1643
▁persönlich	-10.1651
▁Zunge	-10.1653
▁Sitz	-10.1677
▁Ellbogen	-10.1693
▁Nachmittag	-10.1693
▁Pförtner	-10.1693
▁Rechnung	-10.1693
▁Schildkröte	-10.1693
▁Schluchzen	-10.1693
▁Sanct	-10.1693
▁Ufer	-10.1693
▁liebenswürdig	-10.1693
▁Henker	-10.1693
▁schmerzlich	-10.1693
▁Nebel	-10.1693
▁hieß	-10.1695
▁Landwirtschaft	-10.1695
▁Einige	-10.1698
▁Wetter	-10.17
lehne	-10.1704
▁bunt	-10.1709
▁heißen	-10.1719
▁Spitzen	-10.1724
▁überlegen	-10.1726
▁Meilen	-10.1727
▁schuld	-10.1732
▁gebrochen	-10.1732
▁sonderbar	-10.1737
▁festen	-10.1741
▁öffnen	-10.1743
▁höre	-10.1745
▁braucht	-10.175
▁aufrecht	-10.1753
▁erfüllte	-10.1757
ischer	-10.1758
tten	-10.176
fassen	-10.1764
frage	-10.1765
▁letzter	-10.1777
▁neues	-10.1777
▁gewöhnlichen	-10.1784
▁Unglückliche	-10.1802
▁ta	-10.182
machen	-10.1829
▁Th	-10.1831
▁wert	-10.1831
eit	-10.1837
Man	-10.1848
leidenschaftlich	-10.1849
▁halbe	-10.1849
▁Zustande	-10.1853
▁Erwartung	-10.1862
▁Polly	-10.1862
▁verzweifelt	-10.1862
▁aufgeregt	-10.1862
▁langweilig	-10.1862
▁stärker	-10.1862
▁Beweis	-10.1865
▁Vorzimmer	-10.1866
▁Blätter	-10.1871
▁Also	-10.1878
hall	-10.1883
wesen	-10.1884
▁lebt	-10.1888
▁Geh	-10.1902
▁Halle	-10.1902
▁besch	-10.1903
▁älter	-10.1905
ac	-10.1907
stellte	-10.191
▁tu	-10.1911
que	-10.1912
▁zitterte	-10.1924
▁furchtbare	-10.1931
▁erwarten	-10.1932
länge	-10.1943
▁wa	-10.1943
ing	-10.1947
▁Umständen	-10.1951
wenn	-10.1955
▁trieb	-10.1955
ile	-10.1959
aden	-10.1961
▁düster	-10.1965
▁Kindes	-10.1968
rlei	-10.1973
▁Komm	-10.1987
recht	-10.1992
rseits	-10.2002
▁ma	-10.2007
ieß	-10.2023
▁Wut	-10.203
▁He	-10.2031
ährt	-10.2032
▁Zusammen	-10.2034
▁Brocklehurst	-10.2034
▁Gouvernante	-10.2034
▁Rivers	-10.2034
▁spöttisch	-10.2034
▁vorzüglich	-10.2034
▁anfing	-10.2034
▁vermag	-10.2035
▁unerträglich	-10.2035
▁Säule	-10.2035
▁Schlafzimmer	-10.2035
▁Fußboden	-10.2035
▁Lüge	-10.2036
▁Wände	-10.2037
▁Haß	-10.2039
▁Leid	-10.2043
▁gutes	-10.2046
▁beginnen	-10.2049
▁Ball	-10.2051
trat	-10.207
laß	-10.2079
▁Beide	-10.2095
▁Bis	-10.2097
All	-10.2114
▁Post	-10.2124
▁schritt	-10.2125
ou	-10.2128
▁Sorgen	-10.2136
dre	-10.2137
ca	-10.2144
Geh	-10.2151
oll	-10.2151
▁geheimnisvolle	-10.2158
▁schlimm	-10.2162
▁hübschen	-10.2164
▁schrecklichen	-10.2169
man	-10.217
▁keinem	-10.2171
▁gleicher	-10.2176
▁schönes	-10.2195
rand	-10.2196
▁hielten	-10.2204
▁zogen	-10.2205
▁Trotz	-10.2209
Gesichtsausdruck	-10.221
▁Lowood	-10.221
▁Möbel	-10.221
▁Verwalter	-10.221
▁Frieden	-10.221
▁Versammlung	-10.221
▁Schleier	-10.221
▁Mason	-10.221
▁dauerte	-10.221
▁erheben	-10.221
▁wunderbar	-10.221
Hall	-10.221
schlaf	-10.2212
▁Leiter	-10.2213
▁gelassen	-10.2214
▁seitdem	-10.2216
▁Bart	-10.2219
▁Mangel	-10.2221
ons	-10.2228
▁Bildung	-10.2234
lte	-10.2239
og	-10.2241
▁vorstellen	-10.2241
▁Empfindungen	-10.2242
▁beschäftigte	-10.2242
I	-10.2246
dringen	-10.2251
licht	-10.2254
▁Ganz	-10.2256
▁Abends	-10.226
schließen	-10.2262
▁Kau	-10.2262
▁Angelegenheiten	-10.228
liegenden	-10.2281
▁nimmt	-10.2287
▁zunächst	-10.2289
Laß	-10.229
▁Gatten	-10.229
Sag	-10.2294
reitet	-10.2306
▁Mittag	-10.2312
▁erreichen	-10.2312
▁fassen	-10.2313
fangen	-10.2321
▁Kon	-10.2321
▁sollst	-10.2332
▁Mauern	-10.2337
▁se	-10.2345
bri	-10.2352
ry	-10.2362
▁möchten	-10.237
▁niedrigen	-10.2376
tuch	-10.2379
üge	-10.2379
▁schau	-10.2384
gewand	-10.2388
▁Alexander	-10.2388
▁England	-10.2388
▁Frollo	-10.2388
▁Gewissen	-10.2388
▁Pläne	-10.2388
▁ehrlich	-10.2388
▁versteckt	-10.2388
▁schlank	-10.2388
▁singen	-10.2389
▁Sofa	-10.2389
▁errötete	-10.2389
▁Hunger	-10.2389
▁grausam	-10.2389
▁nochmals	-10.239
▁jedenfalls	-10.239
mauer	-10.2392
▁Indessen	-10.2395
▁erwachte	-10.2396
▁sagst	-10.2402
▁Stiwa	-10.2406
▁Vaters	-10.2412
▁Insel	-10.2414
▁befindet	-10.2415
▁wem	-10.2423
viertel	-10.243
▁strenge	-10.2436
▁weich	-10.244
geist	-10.2449
▁Wolken	-10.245
▁Wollen	-10.245
co	-10.2457
▁reizende	-10.2458
▁eintrat	-10.2459
durch	-10.2461
▁geringste	-10.2464
▁fremde	-10.2466
▁hellen	-10.2471
trieb	-10.2474
▁wild	-10.2476
▁rufen	-10.2479
tasche	-10.2483
▁Großen	-10.2484
▁na	-10.2495
ieder	-10.25
▁gelangen	-10.2503
▁et	-10.2508
▁reichen	-10.2515
wunder	-10.2519
▁Monat	-10.2519
Jane	-10.2526
▁vollen	-10.2542
▁ober	-10.2562
▁erkannt	-10.2565
▁Arkadjewna	-10.257
▁Tristan	-10.257
▁Vögel	-10.257
▁Tafel	-10.257
▁merkwürdig	-10.257
▁Heirat	-10.257
▁Greif	-10.257
▁Hutmacher	-10.257
saal	-10.2571
▁munter	-10.2571
▁Unruhe	-10.2572
▁Block	-10.2573
▁Ehren	-10.2573
▁kalten	-10.2573
▁dicken	-10.2574
▁Einrichtung	-10.2574
▁wenden	-10.2576
ast	-10.2579
▁horchte	-10.2586
▁innere	-10.2588
▁verlegen	-10.2589
▁Phantasie	-10.2591
▁diesmal	-10.2591
▁Löwen	-10.2592
▁Nichts	-10.2592
▁geraten	-10.2593
▁aufgestanden	-10.2602
▁schwache	-10.2603
▁Mar	-10.2607
zusetzen	-10.2608
gieb	-10.2611
▁fremden	-10.2611
falls	-10.2611
drücke	-10.2616
zig	-10.2625
▁schicken	-10.2628
▁gestellt	-10.2636
schü	-10.2651
▁hinten	-10.2658
rger	-10.2665
▁,,'	-10.2669
▁dieselben	-10.2672
zugeben	-10.2677
dam	-10.2687
▁handelt	-10.2699
▁getragen	-10.2703
▁Amt	-10.2722
▁ha	-10.2731
▁Heim	-10.274
straße	-10.2754
▁Bogen	-10.2755
▁Unterschied	-10.2755
▁begonnen	-10.2755
▁erwähnt	-10.2755
▁gewußt	-10.2755
▁schmutzig	-10.2755
▁interessant	-10.2755
▁Zuschauer	-10.2755
▁neigte	-10.2755
▁bequem	-10.2756
▁jetzige	-10.2756
▁äußere	-10.2756
▁körperliche	-10.2756
▁brannte	-10.2756
▁verletzt	-10.2756
▁bewegen	-10.2757
▁Arbeitszimmer	-10.2758
▁absichtlich	-10.276
gestoßen	-10.2761
▁besuchen	-10.2764
▁Zügel	-10.2766
glück	-10.2777
zuziehen	-10.2781
▁beobachten	-10.2783
▁einzelne	-10.2783
▁Trost	-10.2788
▁Schritten	-10.279
▁berührte	-10.279
ssi	-10.2796
legte	-10.2798
iegel	-10.2804
▁Schwäche	-10.2806
stücke	-10.2808
setzte	-10.2819
▁I	-10.2832
▁Sorge	-10.2834
▁lachen	-10.2846
buch	-10.2855
Weißt	-10.2855
▁Zum	-10.2858
ium	-10.2859
▁Italien	-10.2867
▁geringsten	-10.2873
▁Mir	-10.2876
▁Bauer	-10.2888
rten	-10.2904
▁Klasse	-10.2911
▁leiser	-10.2913
▁Kriegs	-10.2924
▁Ganze	-10.2928
ris	-10.2932
schuh	-10.294
▁Gesundheit	-10.2944
▁Hölle	-10.2944
▁Kaninchen	-10.2944
jährige	-10.2944
▁Charmolue	-10.2944
▁Erzählung	-10.2944
▁Gutsbesitzer	-10.2944
▁Milch	-10.2944
▁Verwirrung	-10.2944
▁gefragt	-10.2944
▁herrschte	-10.2944
▁links	-10.2944
▁versunken	-10.2944
▁hoffte	-10.2944
▁Franken	-10.2944
▁Stahl	-10.2944
▁Waffen	-10.2944
▁nickte	-10.2944
▁Gu	-10.2947
▁Rochesters	-10.2948
▁Thee	-10.2949
▁Theil	-10.295
Heute	-10.2951
▁Gevatter	-10.2953
seite	-10.2953
▁Sag	-10.2954
▁Spur	-10.2954
dessen	-10.2954
▁Tasse	-10.2955
Gut	-10.2956
tze	-10.2958
▁Kleidung	-10.2961
▁behalten	-10.2962
▁überlassen	-10.2992
irt	-10.2996
▁strich	-10.3002
▁gelegen	-10.3006
x	-10.3034
▁sowie	-10.3037
schritt	-10.3037
lig	-10.3044
Ver	-10.3045
▁richtige	-10.3061
our	-10.3064
▁El	-10.3066
▁rote	-10.3067
ollt	-10.3078
▁geschlagen	-10.308
▁si	-10.309
▁freute	-10.3098
ebt	-10.3098
zwischen	-10.3122
▁teilte	-10.3123
zuführen	-10.3136
▁Reg	-10.3136
▁Lehnstuhl	-10.3136
▁königliche	-10.3136
▁ungeheure	-10.3136
▁ungewöhnlich	-10.3136
▁versprochen	-10.3136
▁regelmäßig	-10.3136
▁glatt	-10.3136
▁verwirrt	-10.3136
▁Opfer	-10.3136
▁Uebrigens	-10.3137
▁Strom	-10.3137
▁reisen	-10.3137
▁nahmen	-10.3138
▁darunter	-10.3138
▁ertönte	-10.3142
▁besteht	-10.3144
mutig	-10.3146
▁verschlossen	-10.3148
▁fielen	-10.3152
▁Pro	-10.3157
▁Familien	-10.3158
rufen	-10.3162
tri	-10.3166
liegen	-10.3175
nicht	-10.3184
wort	-10.3191
▁betrachten	-10.3195
▁Fremden	-10.3196
▁aß	-10.3209
▁sonderbare	-10.3215
▁fuhren	-10.3232
▁Gegend	-10.3242
wagen	-10.3247
gefahren	-10.3253
finden	-10.326
▁könnt	-10.3263
▁wohnte	-10.3263
▁Kinde	-10.3265
▁neuer	-10.327
▁befanden	-10.3271
▁Feind	-10.3275
▁Ru	-10.3281
▁gering	-10.3288
ief	-10.3289
▁Weiß	-10.3296
▁liefen	-10.3296
▁Wunde	-10.3301
▁mager	-10.3302
▁arbeitete	-10.331
▁Vier	-10.3311
▁Bar	-10.332
▁Wäsche	-10.3333
▁geglaubt	-10.3333
▁schwierig	-10.3333
▁unerwartet	-10.3333
▁vermeiden	-10.3333
▁zornig	-10.3333
▁Luke	-10.3333
▁Überlegung	-10.3333
▁Verzeihung	-10.3333
▁Teller	-10.3333
▁Empfang	-10.3333
▁Gnade	-10.3333
▁Vorwurf	-10.3334
frau	-10.3334
▁dankbar	-10.3334
▁trank	-10.3334
▁Dort	-10.3335
▁irgendwo	-10.3335
▁Sense	-10.3336
▁Beruf	-10.3336
▁Rom	-10.3337
▁Laub	-10.3338
feuer	-10.334
▁Paar	-10.3342
▁dorthin	-10.3347
haftigkeit	-10.3353
faß	-10.3355
▁hinweg	-10.3356
▁verlangte	-10.3359
▁warte	-10.3361
▁wichtig	-10.3362
ion	-10.3368
eilt	-10.3369
▁Eigenschaften	-10.3378
▁rannte	-10.3387
▁treten	-10.339
zulassen	-10.3393
▁Reihen	-10.3396
▁Roman	-10.3401
raum	-10.3408
ski	-10.3408
▁schade	-10.3425
treffen	-10.3434
Bitte	-10.3434
▁Dorfe	-10.3456
▁ansehen	-10.3467
▁höher	-10.3474
Un	-10.3475
▁Christ	-10.3477
▁Zähnen	-10.3477
tur	-10.3487
▁öffentliche	-10.349
▁Jede	-10.3503
igst	-10.3504
▁Fahr	-10.3512
▁vermute	-10.3517
ohne	-10.3521
▁mi	-10.3524
▁Anwesenheit	-10.3532
▁Grubach	-10.3532
▁Majestät	-10.3532
▁Pflaster	-10.3532
▁genügt	-10.3532
▁vernünftig	-10.3532
▁zerstreut	-10.3532
▁todt	-10.3533
▁behaupten	-10.3533
müthig	-10.3533
▁erhaben	-10.3533
▁Etwas	-10.3533
▁Balken	-10.3533
▁Mütze	-10.3533
▁handeln	-10.3533
▁Saale	-10.3533
▁Vorhänge	-10.3535
▁Erziehung	-10.3539
▁nachdenklich	-10.3543
▁Gewand	-10.355
▁thut	-10.3551
hi	-10.3552
▁Sand	-10.3562
▁Übrigens	-10.3564
▁klug	-10.3566
▁Geb	-10.3568
St	-10.3568
▁Zeitung	-10.3581
▁hingehen	-10.3589
fahrt	-10.3592
▁leichter	-10.3595
hung	-10.3598
▁Mi	-10.3598
schaftlichen	-10.3599
eine	-10.3601
▁Fleck	-10.3603
▁rührte	-10.3603
▁äußerst	-10.3607
▁getreten	-10.3635
schuld	-10.3638
▁angekommen	-10.3639
▁Band	-10.3645
tät	-10.3647
blut	-10.3651
reichen	-10.3672
▁Ei	-10.3673
anten	-10.3676
▁gelang	-10.368
band	-10.3683
▁entdeckt	-10.3688
wog	-10.3689
▁aufgestellt	-10.3699
▁blauen	-10.3715
▁schließen	-10.3719
▁glänzenden	-10.3724
▁seltsamen	-10.3734
Adelsmarschall	-10.3737
▁Mahiette	-10.3737
▁Persönlichkeit	-10.3737
▁Uniform	-10.3737
▁Wilhelm	-10.3737
▁gelebt	-10.3737
▁Flasche	-10.3737
▁füllte	-10.3737
▁verbergen	-10.3737
▁retten	-10.3739
▁halben	-10.3739
kammer	-10.3741
▁Schreibtisch	-10.3741
uppe	-10.3744
▁Bericht	-10.3747
ippe	-10.3747
▁Allerdings	-10.3758
gerufen	-10.3759
▁Gerade	-10.3761
▁interessierte	-10.3768
auch	-10.3772
geht	-10.378
▁Beifall	-10.3781
▁gewendet	-10.3785
▁Loge	-10.379
▁linken	-10.3794
▁breiten	-10.38
▁diejenigen	-10.3805
ap	-10.3808
▁Angeklagten	-10.3809
▁fremd	-10.381
schlossen	-10.3814
▁lau	-10.3817
▁eher	-10.3823
schloß	-10.3836
▁Nachbar	-10.3844
▁führt	-10.3846
Ganz	-10.3847
▁jung	-10.3847
gelaufen	-10.3849
▁begegnete	-10.3853
lock	-10.3855
▁Stücke	-10.3856
▁drängte	-10.3861
▁Schuhe	-10.3883
▁ernste	-10.3886
fest	-10.3887
▁trübe	-10.3893
▁Wach	-10.3895
cker	-10.3899
▁Seelen	-10.3902
▁erfuhr	-10.3903
▁u	-10.3911
▁quälen	-10.3911
▁gew	-10.3913
▁hoffen	-10.3916
▁Wa	-10.3929
▁gewaltige	-10.3933
▁Wiese	-10.3936
zahl	-10.3941
geführt	-10.3941
▁Philosoph	-10.3943
▁Aufenthalt	-10.3945
▁Dmitrijewitsch	-10.3945
▁Jungfrau	-10.3945
▁entzückt	-10.3945
▁förmlich	-10.3945
▁gütig	-10.3945
▁lächerlich	-10.3945
▁packte	-10.3945
▁stimmte	-10.3945
▁Manchmal	-10.3945
▁geschah	-10.3945
▁Potter	-10.3945
▁Zahl	-10.3945
▁Kaiser	-10.3945
▁Frühling	-10.3945
▁hegte	-10.3946
▁beendet	-10.3946
▁Immer	-10.3947
▁Bienen	-10.3947
▁Einfluß	-10.3947
kopf	-10.3953
▁Umstand	-10.3953
▁toll	-10.3954
▁freien	-10.3959
▁glühend	-10.396
▁ausgezeichnet	-10.3961
▁gebeten	-10.3962
We	-10.3963
▁freilich	-10.3965
▁Satz	-10.3967
▁Sitzung	-10.3967
rücken	-10.3973
▁Fisch	-10.3973
rren	-10.3976
▁Laß	-10.3976
hut	-10.398
▁Träume	-10.3987
▁All	-10.3988
Frou	-10.3991
▁rechte	-10.3993
▁leeren	-10.3995
▁abend	-10.3996
▁schlechter	-10.3997
Trink	-10.4006
▁handelte	-10.401
▁schreckliche	-10.4011
ruf	-10.4013
▁süß	-10.4015
edel	-10.4029
▁derjenige	-10.403
weit	-10.4032
▁empfinden	-10.4032
träg	-10.4035
▁Besitz	-10.4039
▁Bursche	-10.4047
▁Umstände	-10.4049
▁Todes	-10.405
isten	-10.405
▁–«	-10.4057
lasse	-10.4059
Tom	-10.4059
▁Fi	-10.407
schön	-10.4071
ga	-10.4073
▁Vi	-10.4078
▁wiederholen	-10.4086
▁me	-10.4091
▁leichten	-10.4093
arre	-10.4099
dann	-10.4107
brachte	-10.4117
olle	-10.4118
ehre	-10.4132
▁hätt	-10.4138
wege	-10.4142
▁Punkte	-10.4146
strahl	-10.4154
bruch	-10.4157
stadt	-10.4157
gelehnt	-10.4158
▁Abenteuer	-10.4158
▁Altstadt	-10.4158
▁Gerechtigkeit	-10.4158
▁Kameraden	-10.4158
▁Oudarde	-10.4158
▁Regierung	-10.4158
▁Vernunft	-10.4158
▁befahl	-10.4158
▁empfunden	-10.4158
▁gezeigt	-10.4158
▁unbestimmt	-10.4158
▁verächtlich	-10.4158
▁widerwärtig	-10.4158
▁Schatz	-10.4158
▁gesenkt	-10.4158
▁ruhte	-10.4158
▁vorbereitet	-10.4158
schneiden	-10.4158
▁unschuldig	-10.4158
▁nutzlos	-10.4158
▁Zaun	-10.4158
▁verbarg	-10.4158
▁englische	-10.4158
▁Falten	-10.4158
▁Pforte	-10.4158
▁Kuchen	-10.4159
▁vierzehn	-10.4159
▁Schweiß	-10.416
▁gewinnen	-10.416
▁Rauch	-10.416
thum	-10.416
▁Kinderfrau	-10.416
▁Nachdenken	-10.4161
An	-10.4161
▁Gemach	-10.4162
▁Einsamkeit	-10.4164
▁Schwelle	-10.4165
▁Verbrechen	-10.4165
▁gerecht	-10.4167
▁Rath	-10.4168
▁fanden	-10.4169
leute	-10.4175
▁käme	-10.4182
▁getrieben	-10.4191
▁Speise	-10.4192
sweise	-10.4199
▁Haupte	-10.4204
▁unseren	-10.421
▁Unsinn	-10.4234
▁unglückliche	-10.4248
▁werfen	-10.4249
▁blieben	-10.425
▁kennt	-10.4251
▁Kranke	-10.4265
▁Sire	-10.427
▁Winde	-10.4275
▁tau	-10.4275
Vielleicht	-10.4276
▁angezogen	-10.4278
▁sag	-10.4281
▁Oberst	-10.4283
▁kalte	-10.4286
▁nehme	-10.4291
▁nächste	-10.4293
zie	-10.4308
▁Folgen	-10.4308
nahme	-10.431
▁Welche	-10.432
ereien	-10.4321
▁dran	-10.4325
▁nimm	-10.4335
▁Sieg	-10.4339
zulegen	-10.434
standen	-10.4342
▁Steine	-10.4346
▁tiefste	-10.4351
▁Geiste	-10.4371
▁lasse	-10.4371
▁Halb	-10.4375
Stellvertreter	-10.4375
▁Bekanntschaft	-10.4375
▁Coppenole	-10.4375
▁Felicie	-10.4375
▁Künstler	-10.4375
▁Professor	-10.4375
▁gräßlich	-10.4375
▁kläglich	-10.4375
▁nützlich	-10.4375
▁wahnsinnig	-10.4375
▁Aufseher	-10.4375
▁Landstreicher	-10.4375
▁senkte	-10.4375
▁Kathedrale	-10.4375
▁Summe	-10.4375
▁Genuß	-10.4375
▁behandelt	-10.4376
▁Gegenstände	-10.4376
wendung	-10.4376
▁elf	-10.4376
▁Rache	-10.4378
▁Abendessen	-10.4378
▁Besucher	-10.4378
▁Fabrikant	-10.438
twillen	-10.4383
▁Haut	-10.4384
nutz	-10.4387
▁Alten	-10.4388
Re	-10.4388
▁ausgesprochen	-10.4389
laub	-10.4392
▁bringt	-10.4394
atmen	-10.4398
▁Gouvernements	-10.4407
▁düstere	-10.4413
welt	-10.4416
▁Morgens	-10.4419
▁Glieder	-10.442
▁bestimmten	-10.4423
▁silberne	-10.4423
▁Schuh	-10.4441
lesen	-10.4444
▁Fahrt	-10.4448
▁schaffen	-10.4449
▁günstig	-10.4453
▁Sä	-10.446
pre	-10.4464
▁ferner	-10.4473
affe	-10.4494
▁Halse	-10.4504
▁Herzogin	-10.4512
▁dunklen	-10.453
▁Felder	-10.4531
▁flog	-10.4531
za	-10.4536
ollen	-10.454
▁werdet	-10.4545
llte	-10.4552
sinnig	-10.4555
▁würdest	-10.4555
▁einfache	-10.4558
▁zarte	-10.456
▁Geistes	-10.4562
lage	-10.4562
Mr	-10.4571
▁mächtige	-10.4582
▁Michailow	-10.4597
▁Stroh	-10.4597
▁Schloß	-10.4597
▁Toilette	-10.4597
▁Trauer	-10.4597
▁ebensowenig	-10.4597
▁flüchtig	-10.4597
▁kühn	-10.4597
▁ungeduldig	-10.4597
▁unzufrieden	-10.4597
flügel	-10.4597
▁Fluß	-10.4597
▁verbunden	-10.4597
▁Vieh	-10.4597
▁Irrtum	-10.4597
▁blind	-10.4597
▁Dienstmädchen	-10.4598
▁steif	-10.4598
▁Mahlzeit	-10.4598
▁auszusprechen	-10.4598
▁rings	-10.4598
▁Länge	-10.4598
▁Schande	-10.4599
▁Locken	-10.4599
Ge	-10.46
▁Papa	-10.4603
▁Wild	-10.4603
▁Verhalten	-10.4606
holz	-10.461
▁Zuhörer	-10.4614
▁Moor	-10.4615
hob	-10.4624
▁vergeben	-10.4624
reiz	-10.4626
▁Elend	-10.4636
▁derartige	-10.4636
▁Jeder	-10.4636
▁alledem	-10.4643
▁erster	-10.4643
mein	-10.4654
Wozu	-10.4657
▁ritt	-10.4665
▁finstere	-10.4674
lauf	-10.4676
▁glänzende	-10.4679
ual	-10.4679
ziert	-10.4682
▁Karls	-10.4684
▁mächtigen	-10.4684
ult	-10.4684
▁bedeutet	-10.4688
▁geworfen	-10.4693
▁erklärt	-10.4694
▁Strafe	-10.4711
▁Burschen	-10.4714
▁dienen	-10.4714
Gott	-10.4727
▁Wiesen	-10.4731
▁reizend	-10.4736
gerichte	-10.4747
weil	-10.4758
▁Taube	-10.4761
▁Hör	-10.4761
weilen	-10.4766
▁schlagen	-10.4773
▁einzelnen	-10.4788
▁starrte	-10.48
▁Zigeuner	-10.4808
trü	-10.481
▁Schrift	-10.4814
▁Untersuchung	-10.4818
▁Mehr	-10.482
▁hättest	-10.482
▁Acht	-10.4823
griff	-10.4824
▁Befriedigung	-10.4825
▁Bewunderung	-10.4825
▁Gateshead	-10.4825
▁Horizont	-10.4825
▁hängt	-10.4825
▁neugierig	-10.4825
▁unterbrochen	-10.4825
▁verstummte	-10.4825
▁zerstört	-10.4825
▁Hauptsache	-10.4825
▁Indianer	-10.4825
▁Schoß	-10.4825
▁dünne	-10.4825
▁einverstanden	-10.4825
▁half	-10.4825
▁komisch	-10.4825
▁Laska	-10.4825
▁Pelz	-10.4825
▁Tugend	-10.4825
▁Park	-10.4825
▁gekannt	-10.4825
▁herzlich	-10.4825
▁scheinbar	-10.4825
▁gereizt	-10.4825
▁beweisen	-10.4825
▁trägt	-10.4825
▁sinken	-10.4825
▁solange	-10.4826
▁anständig	-10.4826
haufen	-10.4826
▁unruhig	-10.4826
▁gemalt	-10.4827
▁gegenseitig	-10.4827
▁Ausnahme	-10.4828
holen	-10.4829
▁Eile	-10.483
▁Heiligen	-10.4831
▁Tanz	-10.4832
springen	-10.4833
▁Gregors	-10.4834
▁gleichmäßig	-10.4835
gestiegen	-10.4835
▁Verfahren	-10.4838
▁Thier	-10.4839
▁wieviel	-10.484
röte	-10.4844
▁davor	-10.4849
ui	-10.4851
sehn	-10.4853
of	-10.4859
▁soweit	-10.4869
▁richten	-10.4878
deck	-10.4881
▁schuldig	-10.4881
▁verging	-10.4882
▁starke	-10.4885
▁ärgerte	-10.4887
artigen	-10.4887
▁lebende	-10.4888
rhand	-10.4898
▁vorkam	-10.4899
▁Sünde	-10.4903
▁Pi	-10.4904
▁wahre	-10.4905
▁müßten	-10.4913
▁weitem	-10.4913
▁fahre	-10.4917
▁größere	-10.4918
litz	-10.4926
abend	-10.4929
▁prächtige	-10.4943
▁betrachtet	-10.4945
▁versicher	-10.4947
▁ruhiger	-10.4949
werfen	-10.4949
geworfen	-10.4958
▁lächeln	-10.4964
fi	-10.4967
▁Hast	-10.4974
▁Schm	-10.4974
▁starken	-10.498
▁gewöhnliche	-10.4984
sprechen	-10.4985
suchen	-10.4994
▁Do	-10.4998
schränk	-10.5006
▁Dem	-10.5009
▁Markt	-10.5011
▁Stil	-10.5016
▁blicken	-10.5017
▁meinst	-10.5021
stehenden	-10.5026
▁Ereignis	-10.5027
spitze	-10.503
▁Stand	-10.5033
▁Eigen	-10.5039
freund	-10.5047
inken	-10.5048
dach	-10.505
spruch	-10.5052
zeichen	-10.5053
▁Marmor	-10.5057
kämpf	-10.5057
▁Stühle	-10.5057
▁doppelt	-10.5057
▁preßte	-10.5057
▁sorgsam	-10.5057
▁Pranger	-10.5057
▁gehüllt	-10.5057
▁verdient	-10.5057
▁rauh	-10.5058
▁Scherz	-10.5058
hnlichkeit	-10.5058
▁stützte	-10.5058
▁Vorwürfe	-10.5058
▁Versprechen	-10.5062
▁Haustür	-10.5062
▁gewünscht	-10.5062
▁Anlaß	-10.5063
▁dergleichen	-10.5063
erdings	-10.5065
▁Oft	-10.5065
▁klare	-10.5066
▁Eben	-10.5066
wachen	-10.507
▁Toten	-10.5073
ic	-10.5082
▁begeben	-10.5083
▁Adel	-10.5089
ordnung	-10.5089
▁strengen	-10.5089
▁besucht	-10.5094
hundert	-10.511
blieb	-10.5113
▁durcheinander	-10.5114
▁Fenstern	-10.5115
▁Laufe	-10.5116
tu	-10.5133
fordern	-10.5138
▁finde	-10.5138
▁stehe	-10.5139
▁Bra	-10.5142
▁di	-10.5144
▁bemüht	-10.5146
▁Halt	-10.5147
▁vornehm	-10.5158
▁angesehen	-10.5161
▁Rück	-10.5164
tik	-10.5166
▁Maße	-10.5171
aut	-10.5173
▁beruhigt	-10.5188
▁niedrig	-10.5189
Natürlich	-10.5196
getreten	-10.5197
omi	-10.5197
▁tue	-10.5202
▁begrüßte	-10.5208
▁junges	-10.5217
▁gesell	-10.5219
▁Rechte	-10.5224
▁verfolgte	-10.5225
▁fragend	-10.5225
▁Bilde	-10.5228
▁Leiche	-10.5234
streich	-10.5237
szimmer	-10.5248
ais	-10.5251
▁See	-10.5256
▁Schmerzen	-10.5259
▁volle	-10.5263
graben	-10.5273
samkeit	-10.5275
▁Eifer	-10.5294
▁Augenbrauen	-10.5295
▁Begegnung	-10.5295
▁Fähigkeit	-10.5295
▁Olivier	-10.5295
▁elegant	-10.5295
▁erfreut	-10.5295
▁gewissermaßen	-10.5295
▁gothisch	-10.5295
▁lediglich	-10.5295
▁tatsächlich	-10.5295
▁bestürzt	-10.5295
gesunken	-10.5295
▁zuletzt	-10.5295
▁Thatcher	-10.5295
tropfen	-10.5295
▁verwandelt	-10.5295
▁Tropfen	-10.5296
▁stecken	-10.5296
▁begangen	-10.5296
▁Laterne	-10.5296
▁Umgebung	-10.5297
▁Blitz	-10.5298
▁Unrecht	-10.5298
▁denkst	-10.5299
▁Schaden	-10.5299
▁Pfund	-10.5299
▁Achtung	-10.5303
▁Silber	-10.531
▁Deine	-10.5311
▁halt	-10.5312
▁matt	-10.5317
▁Sau	-10.5318
lein	-10.5319
schaute	-10.532
▁Gutes	-10.5321
grund	-10.5324
▁wilden	-10.5326
▁Laden	-10.5326
▁wohnen	-10.5334
▁Schaf	-10.5341
▁Einmal	-10.5342
▁streng	-10.5343
▁Verwandten	-10.5345
itsch	-10.5347
▁aussah	-10.5353
essen	-10.5354
cheln	-10.5359
▁Reit	-10.5364
bin	-10.5366
hat	-10.5367
ball	-10.5374
▁Hä	-10.5377
▁setzten	-10.5382
▁Heer	-10.5386
▁sti	-10.5389
▁Thurme	-10.5392
nderung	-10.54
▁irgendein	-10.5403
▁abends	-10.5406
▁Groß	-10.5408
▁Jo	-10.5414
▁Handel	-10.5415
▁heller	-10.5422
▁Rue	-10.5425
▁erforderlich	-10.5427
▁Farbe	-10.5428
▁Gatte	-10.5429
morgen	-10.5442
▁häßlich	-10.5442
blickte	-10.5443
reg	-10.5453
üfte	-10.5462
▁Rest	-10.5465
▁dreißig	-10.5466
▁fünfzehn	-10.5476
▁Mode	-10.5482
▁Schiff	-10.5487
fühl	-10.5488
▁traurige	-10.5506
gänge	-10.5507
▁Blei	-10.5509
unke	-10.5512
▁vornehmen	-10.5513
Schön	-10.5513
haupt	-10.5516
denn	-10.552
▁Stern	-10.5524
▁Schi	-10.5531
wies	-10.5536
führung	-10.5537
▁Ur	-10.5537
gebäude	-10.5539
▁Pfeife	-10.5539
▁Schwägerin	-10.5539
▁Vergangenheit	-10.5539
▁Vorbereitungen	-10.5539
▁gewartet	-10.5539
▁köstlich	-10.5539
▁sämtlich	-10.5539
▁zerbrochen	-10.5539
förmig	-10.5539
vermögen	-10.5539
▁gestützt	-10.5539
▁Räder	-10.5539
▁Moment	-10.5539
zehrt	-10.5539
▁verständig	-10.554
▁erstickt	-10.554
▁Rückkehr	-10.554
▁drauf	-10.5541
ika	-10.5541
▁gefällt	-10.5542
mahl	-10.5543
brett	-10.5546
▁Andre	-10.5546
geschnitten	-10.5552
▁beschlossen	-10.5552
▁Maus	-10.5554
▁glänzte	-10.5557
theit	-10.5558
▁Donner	-10.556
▁erstenmal	-10.5562
▁seinerseits	-10.5566
▁kaufen	-10.5573
▁zumute	-10.5575
▁Narr	-10.5577
▁gleiche	-10.5586
vo	-10.5596
▁geschmückt	-10.5601
Gib	-10.5603
▁Sterne	-10.5606
ziel	-10.5607
▁Vorder	-10.5608
▁gestanden	-10.5613
▁verlangen	-10.5622
Ma	-10.5629
▁Orte	-10.5637
mon	-10.5643
▁stehend	-10.5646
▁hingen	-10.5649
hol	-10.5657
▁unbekannt	-10.5659
mpel	-10.566
▁Har	-10.5664
▁scheu	-10.567
▁wisse	-10.5671
▁ach	-10.5675
▁gefahren	-10.5689
▁Walde	-10.5692
treu	-10.57
seinandersetzung	-10.5702
klang	-10.571
▁schnellen	-10.5716
▁wenigen	-10.572
äge	-10.5723
▁Geschäfts	-10.5725
wehr	-10.5729
eiß	-10.5732
lagen	-10.5747
▁Beinen	-10.5751
▁Rouault	-10.5789
▁befriedigt	-10.5789
▁erschreckt	-10.5789
▁gestört	-10.5789
▁sorgfältig	-10.5789
▁Brüder	-10.5789
▁Zigarre	-10.5789
▁vortrefflich	-10.5789
▁Kapelle	-10.5789
▁gewonnen	-10.5789
▁Kragen	-10.5789
▁rollte	-10.5789
▁unendlich	-10.5789
▁verwundert	-10.5789
stock	-10.5789
▁Montag	-10.579
▁lebendig	-10.579
▁verriet	-10.5791
▁Wiedersehen	-10.5791
gebrannt	-10.5794
▁Verlauf	-10.5794
▁Karenina	-10.5797
▁versteht	-10.5798
menschen	-10.5801
▁roh	-10.5804
hüte	-10.5809
▁beiseite	-10.581
wein	-10.5819
uhr	-10.582
▁fällt	-10.5823
▁Pfeiler	-10.5825
stände	-10.5838
▁kroch	-10.5846
▁persönliche	-10.5852
▁sehn	-10.5854
▁umgeben	-10.5859
▁Strahlen	-10.5861
zuschlagen	-10.5863
▁verfolgt	-10.5864
▁quälte	-10.5864
▁Türe	-10.5867
▁ändern	-10.5869
decke	-10.587
▁Geistlichen	-10.5875
▁zusammenge	-10.5876
▁Gi	-10.5877
▁ex	-10.5886
umpf	-10.5891
mus	-10.5892
nächst	-10.5898
▁Knabe	-10.5907
änge	-10.5909
▁allgemein	-10.591
▁Mai	-10.5914
▁Schwierigkeit	-10.5915
stoßend	-10.5918
▁Bande	-10.5931
▁Geliebte	-10.5935
▁wichtige	-10.5939
▁bedeutete	-10.5942
form	-10.5942
▁blaue	-10.5949
messen	-10.5962
Vo	-10.5977
▁aneinander	-10.598
▁gelangte	-10.598
zeichnen	-10.5988
▁Parteien	-10.5993
▁blasse	-10.5994
eisen	-10.6
▁denkt	-10.6005
▁beobachtet	-10.6019
fern	-10.6022
hier	-10.6023
▁sä	-10.6023
ordnet	-10.6025
▁behauptete	-10.6028
arbeiten	-10.6033
▁Lieb	-10.6036
▁Gesichtern	-10.6042
blätter	-10.6045
▁Coictier	-10.6046
▁Dächer	-10.6046
▁Finsternis	-10.6046
▁Gauner	-10.6046
▁Gürtel	-10.6046
▁Livres	-10.6046
▁Mademoiselle	-10.6046
▁bescheiden	-10.6046
▁betrifft	-10.6046
▁entzückend	-10.6046
▁höflich	-10.6046
▁unbehaglich	-10.6046
▁veranlaßt	-10.6046
▁vergeblich	-10.6046
▁Gespenst	-10.6046
▁Sehnsucht	-10.6046
▁boshaft	-10.6046
▁vergoldete	-10.6046
▁nennt	-10.6046
▁Scene	-10.6046
▁wuchs	-10.6046
▁küssen	-10.6046
▁bezahlen	-10.6046
▁verzichte	-10.6046
▁anscheinend	-10.6046
▁unterdrücken	-10.6046
▁edle	-10.6046
▁zurückkehren	-10.6046
▁Widerstand	-10.6046
▁Klausnerin	-10.6046
▁Harper	-10.6046
▁sauber	-10.6047
▁zerrissen	-10.6047
▁Bibel	-10.6047
▁Glut	-10.6047
▁schreien	-10.6047
▁fünfzig	-10.6047
▁Landstraße	-10.6047
▁Hotel	-10.6048
▁Suppe	-10.6048
▁Hosen	-10.6049
▁angezündet	-10.6049
▁Hausfrau	-10.6049
ismus	-10.605
▁Freundschaft	-10.605
qui	-10.605
▁scheinen	-10.6052
▁irgendwie	-10.6052
▁wovon	-10.6052
▁Wünsche	-10.6054
hänge	-10.6056
▁Ausgang	-10.6057
uelle	-10.6058
▁Innere	-10.6059
▁sähe	-10.6062
▁rechts	-10.6065
▁Stellen	-10.607
▁Klang	-10.6079
isches	-10.608
▁rund	-10.6086
▁Anstrengungen	-10.6088
▁Loch	-10.6094
▁Schal	-10.6098
▁helle	-10.6099
▁anblickte	-10.61
▁jemandem	-10.6101
wing	-10.6102
▁Jacke	-10.6112
adi	-10.6113
▁öde	-10.6115
▁Bach	-10.6118
▁eingetreten	-10.612
▁wilde	-10.612
▁bloßen	-10.6122
▁Pr	-10.6124
▁Gar	-10.6126
▁verursachte	-10.6127
▁entsetzt	-10.6128
▁befinde	-10.6133
will	-10.6138
▁Rande	-10.6145
▁hol	-10.6154
▁Hofe	-10.6157
kle	-10.6158
▁ergriffen	-10.6161
▁wen	-10.6164
berg	-10.6166
▁Graf	-10.6177
▁heilige	-10.6179
▁Kann	-10.618
‹«	-10.618
lossen	-10.618
▁liebsten	-10.6181
kö	-10.6182
▁gelaufen	-10.6186
▁Maß	-10.6189
▁Schtscherbazki	-10.6194
▁Elfte	-10.6198
▁empfinde	-10.6199
locken	-10.621
Anna	-10.6212
treiben	-10.6213
selben	-10.6215
Nur	-10.6216
ächte	-10.6232
▁trüben	-10.6241
▁grünen	-10.6243
pfel	-10.6247
▁Welch	-10.6248
▁Taschen	-10.6249
▁welch	-10.6271
▁annehmen	-10.628
brach	-10.6284
▁weichen	-10.629
reiche	-10.6296
▁Töchter	-10.6303
gebung	-10.6307
räumen	-10.6308
▁fester	-10.6308
schmerz	-10.6308
▁Bedürfnis	-10.6309
▁Hannah	-10.6309
▁Rechtsanwalt	-10.6309
▁Serpuchowskoi	-10.6309
▁Stillschweigen	-10.6309
▁beleidigt	-10.6309
▁entschuldigen	-10.6309
▁kümmern	-10.6309
▁unabhängig	-10.6309
▁unbedingt	-10.6309
▁unheimlich	-10.6309
▁Schmutz	-10.6309
▁Schlacht	-10.6309
▁gehandelt	-10.6309
▁verschwinden	-10.6309
▁Stoff	-10.6309
▁geneigt	-10.6309
▁Büro	-10.6309
▁Flur	-10.6309
▁riesige	-10.6309
▁Käse	-10.6309
▁billig	-10.6309
stuhl	-10.6309
▁grob	-10.6309
▁Zuerst	-10.6309
▁Andern	-10.631
▁gesamte	-10.631
▁Grundsätze	-10.631
▁heutigen	-10.6312
▁gelten	-10.6317
▁erfaßt	-10.6318
▁Vorsicht	-10.6321
▁bewies	-10.6321
fleck	-10.6322
▁Anschein	-10.6322
▁Bezug	-10.6325
▁Gesandten	-10.6328
▁Andere	-10.6329
▁Lichter	-10.6331
▁Lohn	-10.6332
gebildet	-10.6335
▁Tritt	-10.6339
osse	-10.634
▁erschrak	-10.6341
▁fehlte	-10.6343
▁fühlt	-10.6351
▁brachten	-10.6352
▁zweimal	-10.6355
scha	-10.6356
oli	-10.6371
▁Klage	-10.6381
lager	-10.639
▁Handlungen	-10.6395
▁Kommen	-10.6398
sonne	-10.6402
rauch	-10.6408
▁Anschauung	-10.6412
ex	-10.6415
ati	-10.6419
▁breite	-10.6426
▁hassen	-10.6428
▁wagen	-10.6448
▁schneller	-10.6456
oni	-10.6458
zählen	-10.646
▁Gebiete	-10.6464
▁schmal	-10.6475
hnung	-10.6481
züge	-10.6496
ua	-10.6512
▁Verse	-10.657
▁Engländer	-10.6573
▁schlich	-10.6577
wirtschaft	-10.6577
körper	-10.6578
gold	-10.6579
Gleichgültigkeit	-10.6579
▁Berührung	-10.6579
▁Ergebnis	-10.6579
▁Erlaubnis	-10.6579
▁Geduld	-10.6579
▁Gefängnis	-10.6579
▁Gegner	-10.6579
▁Geschlecht	-10.6579
▁Liebhaber	-10.6579
▁Murmelthier	-10.6579
▁Strümpfe	-10.6579
▁Terrasse	-10.6579
▁Unterthanen	-10.6579
▁aufgehört	-10.6579
▁dürfte	-10.6579
▁heftete	-10.6579
▁unbeweglich	-10.6579
▁Verachtung	-10.6579
▁Vorhang	-10.6579
▁Vormittag	-10.6579
▁Wasili	-10.6579
▁gegessen	-10.6579
▁Geschenk	-10.6579
▁Justin	-10.6579
stürzen	-10.6579
▁Treu	-10.6579
▁Weiter	-10.6579
farben	-10.6579
▁zierlich	-10.6579
▁deutsch	-10.6579
▁tanzte	-10.6579
▁Gesang	-10.6579
▁paßt	-10.6579
▁anfangs	-10.6579
▁zurückkehrte	-10.6579
▁Töne	-10.6579
▁bezahlt	-10.658
▁Ofen	-10.658
▁Wäre	-10.658
▁Auffassung	-10.6581
▁milde	-10.6581
▁verborgen	-10.6582
▁klarer	-10.6582
Wirklich	-10.6582
▁Binet	-10.6582
▁hohl	-10.6583
▁dringend	-10.6583
▁verwandt	-10.6583
▁Lichte	-10.6584
▁Fort	-10.6585
▁geschaffen	-10.6586
▁echt	-10.6587
▁möglichen	-10.6592
Im	-10.6593
▁gewaltig	-10.6595
▁Kasten	-10.6595
▁Bemerkungen	-10.6595
▁Leder	-10.6604
▁traurigen	-10.6609
▁Denken	-10.661
▁Sich	-10.6612
käm	-10.6613
▁erlaubt	-10.6614
▁Wissen	-10.6628
▁Kuß	-10.6628
▁Fällen	-10.663
aß	-10.663
rechnet	-10.663
▁niemandem	-10.6638
▁Universitäts	-10.6638
▁Kar	-10.6646
bogen	-10.665
▁woher	-10.6651
▁malen	-10.6655
▁begleitete	-10.6657
geschichte	-10.6663
macht	-10.6676
▁Zi	-10.6678
▁spitz	-10.669
▁nackten	-10.669
rett	-10.669
▁hört	-10.669
▁leider	-10.6706
▁pflegt	-10.6708
▁Grafen	-10.6715
bildung	-10.6716
▁niedrige	-10.6719
▁Beziehung	-10.6728
▁Berge	-10.6736
▁Arkadjewitschs	-10.6738
stunde	-10.6742
▁reiche	-10.6746
▁Bekannte	-10.6747
▁dürfe	-10.6747
▁deutlicher	-10.6747
fähig	-10.6753
günstig	-10.6758
▁Rand	-10.6758
Weil	-10.6759
▁Hochzeit	-10.676
Halt	-10.6762
Hast	-10.6768
ütze	-10.6771
zumachen	-10.6773
▁glaub	-10.6774
▁verständlich	-10.6777
▁schwe	-10.6784
▁brechen	-10.6795
▁Lauf	-10.6796
resse	-10.6803
▁blau	-10.6804
▁Gange	-10.6806
ränke	-10.6809
tum	-10.6811
werden	-10.6817
▁fehlt	-10.6821
▁sprich	-10.6821
▁Männern	-10.683
▁Besuche	-10.6834
▁Ansichten	-10.6835
schweif	-10.6852
▁Treppen	-10.6852
▁Beobachtung	-10.6857
▁Edelleute	-10.6857
▁Entscheidung	-10.6857
▁Käfig	-10.6857
▁Nerven	-10.6857
▁Peszow	-10.6857
▁Ungeduld	-10.6857
▁Verbeugung	-10.6857
▁beleidigen	-10.6857
▁erinnere	-10.6857
▁getrennt	-10.6857
▁italienische	-10.6857
▁nervös	-10.6857
▁verteidig	-10.6857
▁Geschrei	-10.6857
▁Schwager	-10.6857
▁Betrachtung	-10.6857
▁Grace	-10.6857
▁seelische	-10.6857
▁errötend	-10.6857
▁Flut	-10.6857
▁Taschentuch	-10.6857
▁gelungen	-10.6857
▁Druck	-10.6858
▁Spaß	-10.6858
▁gefühlt	-10.6858
▁Neugierde	-10.6859
Könn	-10.686
▁verbeugte	-10.6861
tracht	-10.6861
▁Wonne	-10.6861
▁Rosen	-10.6862
barkeit	-10.6864
▁Talent	-10.6864
▁Ausweg	-10.6864
▁eure	-10.6868
feld	-10.6869
▁Pfarrer	-10.6871
älte	-10.6874
▁Vergleich	-10.6875
boden	-10.6878
Nach	-10.6879
▁Samt	-10.689
▁nirgends	-10.6891
▁desselben	-10.6891
▁nachts	-10.6891
▁wendete	-10.6893
▁Amme	-10.6896
▁überdies	-10.6899
▁merken	-10.6902
▁Beste	-10.6902
Pa	-10.6902
▁Felsen	-10.6903
▁grau	-10.6904
▁Schöne	-10.6905
▁Masse	-10.6911
ak	-10.6912
▁Oh	-10.6919
▁sa	-10.692
▁kräftigen	-10.6921
regel	-10.6927
▁Fast	-10.6935
▁Neues	-10.6938
▁erregte	-10.6948
▁erleuchtet	-10.6949
▁Schreib	-10.695
▁geboren	-10.6961
▁wußten	-10.6963
▁Italiener	-10.6972
▁begegnet	-10.6981
▁besetzt	-10.6983
▁Farben	-10.6985
baum	-10.6987
▁Abende	-10.6988
▁Arztes	-10.6995
▁Gesichtes	-10.7004
▁würd	-10.7011
▁dumpfe	-10.7012
U	-10.7026
Wohin	-10.703
▁rühren	-10.7031
▁leuchtete	-10.7032
▁Wasch	-10.7032
▁Linie	-10.7033
▁par	-10.7036
▁angebracht	-10.7036
▁ärger	-10.7046
▁Bischof	-10.7046
wichtig	-10.7047
▁offene	-10.7047
▁Voll	-10.705
▁ernsten	-10.7055
▁liebst	-10.7056
gabe	-10.7062
▁Zinn	-10.7063
▁Thor	-10.7069
▁Bäumen	-10.7084
▁mitgebracht	-10.7086
▁Gehen	-10.7093
▁altes	-10.7106
▁Besonder	-10.7115
▁Ih	-10.7119
gung	-10.7123
richtung	-10.7126
▁solch	-10.7128
▁Tro	-10.7132
▁glänzend	-10.7133
schimmer	-10.7137
sprung	-10.714
▁elende	-10.7142
▁Verwaltung	-10.7142
▁Ehrgeiz	-10.7142
▁Glöckner	-10.7142
▁Grausamkeit	-10.7142
▁Grigori	-10.7142
▁Höflichkeit	-10.7142
▁Klavier	-10.7142
▁Notwendigkeit	-10.7142
▁Trennung	-10.7142
▁Unbekannte	-10.7142
▁Widerwillen	-10.7142
▁gerettet	-10.7142
▁sechzehn	-10.7142
▁spazieren	-10.7142
▁ununterbrochen	-10.7142
▁Folter	-10.7142
▁hungrig	-10.7142
▁verdammt	-10.7142
▁vermied	-10.7142
▁gekränkt	-10.7142
▁zwingen	-10.7142
▁Blatt	-10.7142
▁Schlosse	-10.7143
▁zuwider	-10.7143
▁Röcke	-10.7143
▁mischte	-10.7143
▁unsicher	-10.7143
▁Nägel	-10.7143
▁Nebenzimmer	-10.7143
▁Unsere	-10.7144
▁leisten	-10.7144
▁erfüllen	-10.7145
▁wunderte	-10.7145
geschoben	-10.7146
Warte	-10.7146
▁Bahnhof	-10.7146
▁Oper	-10.7146
▁Gefährt	-10.7147
schützen	-10.7153
▁lautete	-10.7153
▁hergekommen	-10.7156
▁Flucht	-10.716
▁zurückhalten	-10.7161
▁Pein	-10.7162
▁Schreck	-10.7166
kommt	-10.7167
▁wiederzusehen	-10.7175
▁Gasse	-10.7176
▁Wahrscheinlich	-10.7176
▁ergeben	-10.719
▁wenige	-10.72
kunst	-10.7201
▁Herrschaften	-10.7206
kind	-10.7209
Guten	-10.721
▁entdeckte	-10.7211
▁irre	-10.7213
▁umgab	-10.7215
gebot	-10.7218
erkenn	-10.7218
▁Westen	-10.7218
klinge	-10.7223
▁taub	-10.7224
▁Pflichten	-10.7248
ny	-10.7249
▁überkam	-10.7251
akt	-10.7253
▁falsch	-10.7257
▁großem	-10.7257
▁Monaten	-10.7262
▁Natürlich	-10.7264
▁schwerer	-10.7264
▁Schtscherbazkis	-10.7269
▁gehören	-10.7275
▁Körpers	-10.7278
▁inzwischen	-10.7287
schaffen	-10.7308
▁Staats	-10.7318
▁Moskauer	-10.7324
▁goldene	-10.7325
▁Brücke	-10.7326
Wollen	-10.7338
Für	-10.734
schlug	-10.734
führte	-10.7341
▁Zügen	-10.735
glocke	-10.736
Um	-10.7368
▁vierzig	-10.7371
▁erzogen	-10.7372
ndel	-10.7374
ität	-10.7377
rzte	-10.7387
▁arm	-10.7391
Ob	-10.7406
▁höheren	-10.7424
druck	-10.7426
sprache	-10.7428
blau	-10.7431
gegenwärtig	-10.7433
▁Jupiter	-10.7437
▁Maschine	-10.7437
▁Nahrung	-10.7437
▁Oliver	-10.7437
▁Raupe	-10.7437
▁Schnurrbart	-10.7437
▁Schüssel	-10.7437
▁Verteidigung	-10.7437
▁befriedigen	-10.7437
▁bezeichnet	-10.7437
▁eifersüchtig	-10.7437
▁empört	-10.7437
▁jünger	-10.7437
▁kostbar	-10.7437
▁schämte	-10.7437
▁verpflichtet	-10.7437
▁Beginn	-10.7437
▁Schluß	-10.7437
▁Stoß	-10.7437
▁angelangt	-10.7437
▁geschenkt	-10.7437
▁keineswegs	-10.7437
▁Ruhm	-10.7437
▁Pilz	-10.7437
▁verraten	-10.7437
messer	-10.7437
▁weibliche	-10.7437
▁Dankbarkeit	-10.7437
▁Schulzimmer	-10.7437
▁ungerecht	-10.7438
▁mehrmals	-10.7438
▁Urtheil	-10.7438
▁plauderte	-10.7438
▁erraten	-10.7438
▁rückte	-10.7439
▁sitzt	-10.7439
putz	-10.744
▁Muff	-10.744
▁gewandt	-10.7441
▁rauchen	-10.7441
▁Notar	-10.7441
▁Nacken	-10.7442
▁galt	-10.7443
▁verschaffen	-10.7448
▁beschloß	-10.7452
telet	-10.7457
▁wich	-10.7461
▁arg	-10.7462
▁glitt	-10.7462
▁Zeitlang	-10.7462
zehn	-10.7464
▁Besonderes	-10.7465
▁Heller	-10.7465
▁bildeten	-10.7468
▁Kindheit	-10.7472
▁graue	-10.7473
▁Rechts	-10.7482
Soll	-10.7487
▁leisen	-10.7489
▁überließ	-10.7492
▁glaubt	-10.7501
▁zahllosen	-10.7502
setzt	-10.7511
▁Formen	-10.7534
▁Weshalb	-10.7534
▁berühmten	-10.7535
▁ungeheuern	-10.7535
ändern	-10.7539
tier	-10.7541
stall	-10.7547
▁Linien	-10.7552
zuhalten	-10.7556
▁heiße	-10.7558
▁schickt	-10.7564
▁wiederholt	-10.7568
▁beruhigte	-10.7572
▁Dienste	-10.7574
namen	-10.7576
▁wohnt	-10.7603
▁Fliege	-10.7609
▁Herde	-10.761
▁Jeden	-10.7615
▁Beamte	-10.7632
▁Ausland	-10.7638
Weshalb	-10.764
▁bewegt	-10.7645
▁einziger	-10.7647
▁Tu	-10.766
itzt	-10.7661
▁Asche	-10.7662
▁Ursachen	-10.7664
warf	-10.7664
▁Gestalten	-10.7669
▁Wirt	-10.7673
▁freuen	-10.7695
▁Apotheke	-10.77
▁erlaubte	-10.7703
▁Hindernis	-10.7719
reihe	-10.7724
kunft	-10.7731
führer	-10.7735
▁Bahn	-10.7736
Verzeih	-10.7737
▁Volkes	-10.7738
sätze	-10.7738
▁Appetit	-10.774
▁Dienstboten	-10.774
▁Europa	-10.774
▁Flusse	-10.774
▁Händler	-10.774
▁Korridor	-10.774
▁Mönch	-10.774
▁Petrizki	-10.774
▁Telegramm	-10.774
▁Zettel	-10.774
▁befreit	-10.774
▁begegnen	-10.774
▁behilflich	-10.774
▁beunruhigt	-10.774
▁drüben	-10.774
▁empfing	-10.774
▁endgültig	-10.774
▁erkundigte	-10.774
▁erworben	-10.774
▁gewählt	-10.774
▁zwang	-10.774
thurm	-10.774
▁Nutzen	-10.774
▁harmlos	-10.774
▁Gitter	-10.774
▁Samsa	-10.774
▁nachzudenken	-10.774
▁Deutsch	-10.774
▁Schrank	-10.774
▁tapfer	-10.774
▁Knecht	-10.774
▁unsichtbar	-10.774
▁Enttäuschung	-10.774
▁Vermutung	-10.774
▁vereinigt	-10.774
▁Reue	-10.774
▁zahlreich	-10.774
▁Eisenbahn	-10.774
▁Tänzerin	-10.774
▁sinnlos	-10.774
▁Landvolk	-10.774
▁bewundern	-10.774
▁Wichtigkeit	-10.774
▁kindlich	-10.7741
▁Glückseligkeit	-10.7741
▁wißt	-10.7741
▁blonde	-10.7741
▁grad	-10.7741
▁Trotzdem	-10.7742
▁Abgrund	-10.7742
▁Apfel	-10.7742
ruhe	-10.7743
▁Hätte	-10.7743
▁zweihundert	-10.7747
▁Eingabe	-10.7751
▁Gefallen	-10.7752
▁Miet	-10.7754
▁vergraben	-10.7754
▁Kleidern	-10.7754
▁gefällig	-10.7755
ecke	-10.7757
ündige	-10.7757
▁Erkenntnis	-10.7758
▁Augenblicken	-10.7762
▁drin	-10.7764
▁trugen	-10.7765
▁zeigt	-10.7768
▁gesucht	-10.7768
stube	-10.7769
▁Dache	-10.7776
▁bevorstehende	-10.7786
versuch	-10.7788
▁versehen	-10.7788
▁sehnte	-10.7793
▁Regel	-10.7796
Glaub	-10.7799
Sieh	-10.78
▁wirkte	-10.7802
▁hegen	-10.7803
▁lebe	-10.781
liegende	-10.7811
▁eigentümliche	-10.7818
▁Thore	-10.7821
▁zart	-10.7824
▁Akten	-10.7824
▁Wachs	-10.7828
▁bleib	-10.7836
▁Ganzen	-10.7838
▁Verhör	-10.7844
▁Hochzeits	-10.7848
löschen	-10.7849
▁leere	-10.7851
Jawohl	-10.7856
▁fürchterliche	-10.7868
brauch	-10.7872
▁Ohre	-10.7874
▁Sohne	-10.7879
▁hie	-10.7885
▁Sin	-10.7889
▁niemanden	-10.789
▁werd	-10.7892
▁Gebiet	-10.7893
▁Streich	-10.7893
▁Rei	-10.7896
▁heimlich	-10.7907
▁hübsches	-10.7914
▁glich	-10.7931
▁Fünf	-10.7937
▁zitterten	-10.7939
▁Angeklagte	-10.7942
▁besitze	-10.7942
▁steigen	-10.7942
▁geheime	-10.7945
▁heut	-10.7949
ißt	-10.7951
gelte	-10.7952
Doch	-10.7955
steht	-10.7959
wetter	-10.7975
▁Kurz	-10.7977
▁Sohnes	-10.7978
▁Dah	-10.7992
▁berührt	-10.7993
▁Katzen	-10.7999
▁Einer	-10.7999
▁Parlament	-10.8001
▁Tri	-10.8008
bur	-10.8018
reicht	-10.8032
▁wünscht	-10.804
klopf	-10.8043
weisung	-10.8052
▁Arznei	-10.8052
▁Brunnen	-10.8052
▁Fassung	-10.8052
▁Georgina	-10.8052
▁Koffer	-10.8052
▁Mitternacht	-10.8052
▁Nikolajewna	-10.8052
▁Provinz	-10.8052
▁Täuschung	-10.8052
▁Unternehmung	-10.8052
▁angehört	-10.8052
▁geeignet	-10.8052
▁gelehrt	-10.8052
▁regungslos	-10.8052
▁starb	-10.8052
▁unnötig	-10.8052
▁Staunen	-10.8052
▁Städte	-10.8052
▁Miller	-10.8052
▁gehangen	-10.8052
▁Schürze	-10.8052
▁Zahn	-10.8052
▁Klub	-10.8052
▁schwöre	-10.8052
▁Orden	-10.8052
▁Poole	-10.8052
▁geschlafen	-10.8052
▁Sänger	-10.8052
▁versank	-10.8053
schossen	-10.8053
▁beliebt	-10.8053
▁unbedeutend	-10.8053
▁Geruch	-10.8053
▁Nieder	-10.8054
ußerung	-10.8054
▁wunderlich	-10.8054
▁strahlte	-10.8054
▁Ex	-10.8054
▁Geberde	-10.8054
▁Muster	-10.8055
▁Wider	-10.8055
▁befehlen	-10.8055
▁abermals	-10.8055
▁Büchern	-10.8055
▁Zucker	-10.8055
▁Frauenzimmer	-10.8055
luft	-10.8056
▁dermaßen	-10.8056
▁gespannt	-10.8057
▁getrunken	-10.8058
handel	-10.8058
▁elend	-10.8059
▁unverständlich	-10.806
▁Antrag	-10.8061
▁erinnert	-10.8063
▁Vorschlag	-10.8064
▁herüber	-10.8064
▁achtete	-10.8064
▁Kissen	-10.8064
▁vorübergehen	-10.8065
▁schreibt	-10.8067
▁strömte	-10.8069
jew	-10.8072
▁ju	-10.8072
▁Amts	-10.8073
▁öfters	-10.8081
▁folgten	-10.8081
▁wahren	-10.8083
▁Pfad	-10.8083
▁einsamen	-10.809
▁Schwä	-10.8092
▁nämlichen	-10.8099
▁Gemeinde	-10.81
▁Tal	-10.8104
ssache	-10.8107
▁Thüren	-10.8114
gesetz	-10.8114
▁Prozesses	-10.8115
▁freut	-10.8115
▁feine	-10.8117
rath	-10.8145
▁Feinde	-10.8146
▁gedrückt	-10.8153
▁Stall	-10.8153
Höre	-10.8155
▁Flammen	-10.8161
▁höchste	-10.8162
▁bedeuten	-10.8167
▁Liebling	-10.8173
▁suche	-10.8175
▁wund	-10.8183
▁Geliebten	-10.819
▁Bänder	-10.8193
worte	-10.8198
▁ewige	-10.821
▁fröhliche	-10.822
mitte	-10.824
▁gelben	-10.8241
▁nackt	-10.8244
▁warteten	-10.8248
▁verachtet	-10.8251
geborene	-10.8254
▁äußersten	-10.8255
▁Flamme	-10.8264
▁Wolke	-10.8264
▁armer	-10.8267
▁Zweige	-10.8268
Wieso	-10.8271
▁bloße	-10.8271
strich	-10.8272
▁kurzer	-10.8272
Sehen	-10.8275
Joe	-10.8277
▁sollt	-10.8278
▁fürchterlichen	-10.8286
▁versetzt	-10.8292
▁ewig	-10.8297
unddreißig	-10.8299
tat	-10.8314
▁hilf	-10.8317
▁pas	-10.8323
▁schwachen	-10.8323
▁bestehen	-10.8329
Zum	-10.8339
▁Spi	-10.8342
▁Kutsche	-10.8346
▁zarten	-10.8346
▁Sam	-10.8354
wirkung	-10.8356
▁spielten	-10.8356
flüster	-10.8373
▁Adjunkt	-10.8375
▁Begleiter	-10.8375
▁Eliza	-10.8375
▁Erfüllung	-10.8375
▁Eßzimmer	-10.8375
▁Sympathie	-10.8375
▁atmete	-10.8375
▁erledigt	-10.8375
▁gelernt	-10.8375
▁mitzuteilen	-10.8375
▁romanische	-10.8375
▁verhaßt	-10.8375
▁versammelt	-10.8375
▁wählen	-10.8375
zauber	-10.8375
▁Balkon	-10.8375
▁Dummheit	-10.8375
▁Dutzend	-10.8375
▁befestigt	-10.8375
▁kürz	-10.8375
▁umsonst	-10.8375
▁Fieber	-10.8375
▁Knochen	-10.8375
▁Hitze	-10.8375
▁Börse	-10.8375
▁beneide	-10.8375
▁Dolch	-10.8375
▁wischte	-10.8375
häuser	-10.8375
▁trennte	-10.8375
▁Stamm	-10.8375
▁üble	-10.8375
▁besitzt	-10.8375
▁undeutlich	-10.8375
▁wanderte	-10.8375
▁Helm	-10.8375
▁hinreichend	-10.8375
arzt	-10.8375
▁Sekunde	-10.8375
▁bereitet	-10.8375
▁Deshalb	-10.8375
▁Sitte	-10.8376
▁bewundert	-10.8376
▁verdiene	-10.8376
▁rieb	-10.8377
▁Auskunft	-10.8377
▁Rührung	-10.8377
▁Kinderstube	-10.8377
▁Unschuld	-10.8378
geredet	-10.8379
▁Brett	-10.8379
▁Gefangene	-10.838
▁enthielt	-10.8382
▁unterwegs	-10.8384
spannen	-10.8386
▁Aegypten	-10.839
▁Schicht	-10.839
▁Vorrat	-10.8394
plan	-10.8394
▁v	-10.8395
▁Gabel	-10.8397
▁Duft	-10.84
▁großartig	-10.8405
▁hinfahren	-10.8414
▁Warten	-10.8417
▁Maul	-10.8425
Leb	-10.8425
▁erlauben	-10.8427
geteilt	-10.844
auben	-10.8444
▁folg	-10.8445
▁müßt	-10.8446
▁Scheiben	-10.8447
▁düsteren	-10.8451
▁zieht	-10.8451
▁künftige	-10.8453
▁bleiche	-10.8453
▁Tau	-10.8459
wolke	-10.8464
▁Ketten	-10.8473
▁braunen	-10.8475
▁sonderbaren	-10.8485
▁entscheiden	-10.8487
▁ernstlich	-10.8488
▁Geister	-10.8494
ritt	-10.8497
▁Küchen	-10.8504
▁unangenehme	-10.8508
▁übrige	-10.8514
▁Abtei	-10.8524
▁einzig	-10.8527
hörig	-10.853
▁Spinne	-10.8534
▁runden	-10.8537
▁heftigen	-10.8549
▁Nachbarn	-10.855
▁Gl	-10.8552
schüttet	-10.8564
▁Berg	-10.8578
sion	-10.8582
▁entstand	-10.8595
▁berühmte	-10.8597
▁ungeheuer	-10.8597
wünscht	-10.8601
Liebe	-10.861
selbe	-10.8611
▁begleitet	-10.8612
gedrängt	-10.8613
gefaßt	-10.8614
flog	-10.8627
▁Herd	-10.8628
▁beabsichtigte	-10.8631
▁belebt	-10.8657
nacht	-10.8659
kann	-10.8662
sagte	-10.8687
gründen	-10.8687
stellt	-10.8688
▁Des	-10.8695
gespann	-10.8703
▁Früh	-10.8707
fläche	-10.8707
gepackt	-10.8708
▁Edelmann	-10.8708
▁Entschuldigung	-10.8708
▁Fächer	-10.8708
▁Jäger	-10.8708
▁Philipp	-10.8708
▁Predigt	-10.8708
▁Stärke	-10.8708
▁erschöpft	-10.8708
▁nöthig	-10.8708
▁unterscheiden	-10.8708
ographie	-10.8708
▁Bock	-10.8708
▁Dämmerung	-10.8708
▁Kellner	-10.8708
▁Tatsache	-10.8708
▁hörbar	-10.8708
▁mürrisch	-10.8708
▁verkauft	-10.8708
▁Robert	-10.8708
▁erweckt	-10.8708
▁zweifeln	-10.8708
▁Kohl	-10.8708
▁Eshton	-10.8708
▁gebunden	-10.8708
▁kahle	-10.8708
▁vernichtet	-10.8708
▁Gervaise	-10.8708
▁lauschte	-10.8708
▁Faust	-10.8708
▁gebraucht	-10.8708
▁Tausend	-10.8709
▁Pferdes	-10.8709
▁maman	-10.8709
▁Fackel	-10.8709
▁Nummer	-10.8709
▁tauchte	-10.8709
fleisch	-10.8709
▁Berta	-10.8709
▁trösten	-10.871
▁Baumeister	-10.871
▁Heide	-10.871
▁Gegensatz	-10.871
▁Geländer	-10.871
▁rauchte	-10.8711
▁Karren	-10.8711
▁Unordnung	-10.8711
▁frag	-10.8711
scheibe	-10.8712
▁erblicken	-10.8713
▁verkaufen	-10.8713
▁regte	-10.8714
▁unrecht	-10.8715
▁Landschaft	-10.8715
▁Lesen	-10.8718
▁schleppte	-10.8719
freundschaftlich	-10.8723
▁gerührt	-10.8723
▁paarmal	-10.8725
▁erlangt	-10.8726
▁Ritter	-10.8727
fließen	-10.8731
hauen	-10.8731
▁Anteil	-10.8732
▁Niemals	-10.8734
▁dazwischen	-10.8734
▁Auftrag	-10.8735
▁derselbe	-10.8742
krieg	-10.8744
▁schwarzes	-10.8745
▁berühren	-10.8747
▁diejenige	-10.8749
gedeckt	-10.8751
stunden	-10.8751
▁verfallen	-10.8755
jenige	-10.876
▁brave	-10.8763
▁feinen	-10.8769
ari	-10.8774
▁Weil	-10.8775
▁zuviel	-10.8776
amt	-10.8784
▁Schar	-10.8794
zufahren	-10.8798
▁steinernen	-10.8801
▁Hintergrunde	-10.8803
schlich	-10.8804
▁hoher	-10.881
▁prächtig	-10.8815
▁Dent	-10.8819
▁Platzes	-10.882
▁Auslande	-10.8827
setzung	-10.8827
sehr	-10.8842
▁bestellt	-10.8849
Den	-10.8849
▁Elften	-10.8851
▁Bettes	-10.8856
▁Lob	-10.886
▁gerufen	-10.8886
▁liebes	-10.8908
▁Lieblings	-10.8922
vier	-10.8922
▁trink	-10.8923
leuchtet	-10.8935
▁Stufe	-10.8943
Bist	-10.8944
genossen	-10.8953
läßt	-10.8954
geschrieben	-10.8955
Kann	-10.8957
Mir	-10.8962
dor	-10.8963
▁wachsen	-10.8974
▁Geschäfte	-10.8974
stieß	-10.8988
▁sau	-10.8992
richtete	-10.8992
▁häßlichen	-10.8994
▁klaren	-10.8998
▁fürchterlich	-10.9003
▁unterdrückte	-10.9009
▁dastand	-10.9014
Dein	-10.9015
riß	-10.9018
▁Gewohnheiten	-10.902
▁begriffen	-10.902
▁Kur	-10.9022
▁Freunden	-10.9029
mädchen	-10.9036
unt	-10.9042
▁haßte	-10.9042
mäht	-10.9045
▁Studi	-10.9052
schaf	-10.9052
▁Bedauern	-10.9053
▁Bewohner	-10.9053
▁Entwicklung	-10.9053
▁Faselhase	-10.9053
▁Gemälde	-10.9053
▁London	-10.9053
▁Lumpen	-10.9053
▁Millcote	-10.9053
▁Münze	-10.9053
▁Plätze	-10.9053
▁Publikum	-10.9053
▁Regiment	-10.9053
▁Sawyer	-10.9053
▁Schnaps	-10.9053
▁Tribüne	-10.9053
▁Warwara	-10.9053
▁behaglich	-10.9053
▁besorgen	-10.9053
▁drohte	-10.9053
▁energisch	-10.9053
▁funkelte	-10.9053
▁gefolgt	-10.9053
▁hauptsächlich	-10.9053
▁streifte	-10.9053
▁ursprünglich	-10.9053
▁Buchstaben	-10.9053
▁Prügel	-10.9053
▁Verwunderung	-10.9053
gesteckt	-10.9053
▁Räuber	-10.9053
▁Thema	-10.9053
▁Sonnenschein	-10.9053
▁deutete	-10.9053
▁allerliebst	-10.9053
▁erstarrt	-10.9053
▁gründlich	-10.9053
▁zuzuhören	-10.9053
▁Besinnung	-10.9053
▁Herbst	-10.9053
▁biß	-10.9053
▁Lwow	-10.9053
▁Oberrichter	-10.9053
▁trennen	-10.9053
▁pflegen	-10.9054
▁mittlere	-10.9054
▁beeilte	-10.9054
▁Pracht	-10.9054
▁gelegentlich	-10.9054
▁beschränkt	-10.9054
▁Korb	-10.9054
▁Kahn	-10.9054
▁überzeugen	-10.9054
▁Ben	-10.9055
▁zugrunde	-10.9055
▁beachtet	-10.9056
▁spürte	-10.9057
▁Angesicht	-10.9057
▁Letzt	-10.9057
▁Schülerinnen	-10.9057
▁Verlust	-10.9057
▁eingerichtet	-10.9058
gegriffen	-10.9058
▁auffallend	-10.906
rassel	-10.906
werke	-10.906
▁Anzahl	-10.906
thor	-10.9061
▁hinderte	-10.9061
▁Handschuhe	-10.9061
▁träumte	-10.9061
▁Solche	-10.9062
▁berichtete	-10.9064
▁Offiziere	-10.9064
lust	-10.9065
▁bekommt	-10.9066
▁römische	-10.9067
▁zählte	-10.9069
schiff	-10.9073
▁Wuth	-10.9074
issen	-10.9075
schütteln	-10.9075
zublicken	-10.9076
▁Hindernisse	-10.9077
▁eigenartige	-10.908
kal	-10.9081
▁sichtlich	-10.9081
▁Gedankengang	-10.9081
▁entgehen	-10.9084
▁verhalten	-10.9088
▁Su	-10.9089
▁Hoch	-10.9089
wegs	-10.909
rup	-10.9091
▁kommst	-10.9096
▁Ereignisse	-10.9098
topf	-10.9099
▁womit	-10.9101
▁Schenke	-10.9103
nisse	-10.9104
Vor	-10.9112
▁stellt	-10.9119
▁gebeugt	-10.9119
ix	-10.9125
▁Klein	-10.9125
▁offenen	-10.913
Welche	-10.9131
▁Seiden	-10.9135
▁darfst	-10.9137
▁lernte	-10.9142
▁Rund	-10.9143
▁Haushalt	-10.9144
▁starren	-10.9146
▁laßt	-10.9148
▁besonderer	-10.9168
▁höhere	-10.917
▁Pol	-10.9177
ckel	-10.9177
▁goldenen	-10.9185
▁liebliche	-10.919
▁entstanden	-10.9196
▁Zwecke	-10.9203
▁bog	-10.9223
▁lebhafte	-10.9238
▁aufgenommen	-10.9243
▁vieles	-10.9247
▁Abscheu	-10.9253
▁hasse	-10.9254
nehme	-10.9259
ücke	-10.9266
▁teils	-10.9267
▁Fremde	-10.927
▁scharfen	-10.9278
▁Waldes	-10.9282
▁Ber	-10.9294
von	-10.9296
▁Unterricht	-10.93
▁zugeben	-10.93
▁unterhielt	-10.9305
grün	-10.9307
▁Ger	-10.9307
▁dunkeln	-10.9309
nimmt	-10.9311
Will	-10.9311
Miß	-10.9314
▁Schrittes	-10.932
▁Posten	-10.933
rennen	-10.9337
▁Keine	-10.9337
▁Schlage	-10.9342
laut	-10.9345
▁bedauer	-10.9352
Bring	-10.9362
▁Bildnis	-10.9363
schreiben	-10.9368
gezeichnet	-10.9383
▁Häusern	-10.9386
▁solltest	-10.9387
gericht	-10.9392
▁solchem	-10.9397
▁voran	-10.9398
▁Schüler	-10.9404
▁erblickt	-10.9406
▁J	-10.9408
▁Michail	-10.9409
Unannehmlichkeit	-10.941
gefordert	-10.941
gefügt	-10.941
händler	-10.941
▁Abwesenheit	-10.941
▁Atlas	-10.941
▁Bucklige	-10.941
▁Fesseln	-10.941
▁Hippolyt	-10.941
▁Klarheit	-10.941
▁Mängel	-10.941
▁Schläge	-10.941
▁Trouillefou	-10.941
▁Wärterin	-10.941
▁Zwang	-10.941
▁betäubt	-10.941
▁entblößt	-10.941
▁erwidern	-10.941
▁ohnmächtig	-10.941
▁stürmisch	-10.941
▁täuschen	-10.941
▁verabschiedet	-10.941
▁August	-10.941
▁Burns	-10.941
▁Kanzlei	-10.941
▁Lebhaftigkeit	-10.941
▁Sklav	-10.941
▁Tanja	-10.941
▁albern	-10.941
▁schoß	-10.941
▁unbegreiflich	-10.941
▁General	-10.941
▁Vetter	-10.941
▁schwächer	-10.941
▁gewagt	-10.941
▁Anordnungen	-10.941
▁heulte	-10.941
▁Wendung	-10.941
▁stöhnte	-10.941
▁flüsternd	-10.941
▁entfernen	-10.941
kugel	-10.941
▁weckte	-10.941
▁Trupp	-10.941
stoff	-10.941
▁lästig	-10.941
▁Statu	-10.9411
▁Busen	-10.9411
▁Standpunkt	-10.9411
▁Bildsäule	-10.9411
▁Reichtum	-10.9411
▁Dritte	-10.9411
▁Schwarm	-10.9412
▁Schülerin	-10.9412
▁erwiesen	-10.9412
▁Szene	-10.9413
▁Griff	-10.9413
▁Irr	-10.9413
▁Ahnung	-10.9414
▁vorläufig	-10.9415
▁Degen	-10.9416
▁wundern	-10.9417
▁versprach	-10.9417
▁möglicherweise	-10.9417
▁enthalten	-10.9419
▁gehorchte	-10.942
▁Witz	-10.9423
▁Felde	-10.9423
▁Schild	-10.9424
▁Lehrerin	-10.9424
▁Gehalt	-10.9424
▁hingegen	-10.9433
kasten	-10.9435
▁weggehen	-10.9437
▁sicherlich	-10.9437
▁Menschheit	-10.9441
▁Djali	-10.9441
▁Anstand	-10.9442
▁durchgemacht	-10.9445
▁eisige	-10.945
▁bereitete	-10.9465
▁vorgenommen	-10.9472
▁angenehme	-10.9476
▁zweitens	-10.948
▁vernehmen	-10.9486
▁wohlbekannten	-10.949
▁Versuchung	-10.9501
ichtet	-10.9502
▁Grenzen	-10.9502
▁Glanze	-10.9517
▁erwarte	-10.9517
▁häufiger	-10.9518
▁schönsten	-10.9524
▁Soll	-10.9533
platte	-10.9536
▁fähig	-10.954
▁treiben	-10.9546
▁Bauch	-10.9548
▁leuchteten	-10.9553
▁Grün	-10.9562
möglich	-10.957
▁angelegt	-10.9575
▁dumpf	-10.958
▁Anschauungen	-10.9588
▁bemächtigte	-10.9588
▁zweiter	-10.9603
▁Cousine	-10.9608
▁heftiger	-10.9609
▁frage	-10.9611
Freilich	-10.9613
▁häßliche	-10.9617
masse	-10.9624
▁Balle	-10.9624
az	-10.9632
▁Vom	-10.9652
▁sitzend	-10.9657
▁frischen	-10.9664
▁Kette	-10.967
▁bringe	-10.9671
▁schnitt	-10.9673
▁bedeutend	-10.9678
uh	-10.9678
▁Fortschritte	-10.9678
War	-10.9682
Noch	-10.9683
gelegen	-10.9702
gedrückt	-10.9715
fache	-10.972
Kein	-10.9724
▁Tiere	-10.9724
▁Wahlen	-10.9725
▁Gemein	-10.9728
▁zärtlichen	-10.9737
▁Schreien	-10.9737
▁kleinste	-10.9749
▁gib	-10.9751
gestanden	-10.9758
Still	-10.9767
▁Bin	-10.9771
▁Gefährtin	-10.9774
zündete	-10.9776
▁Bekassine	-10.978
▁Besprechung	-10.978
▁Gepäck	-10.978
▁Metrow	-10.978
▁Million	-10.978
▁Profoß	-10.978
▁Sophie	-10.978
▁Zerstreuung	-10.978
▁ausgebreitet	-10.978
▁bestätigt	-10.978
▁getäuscht	-10.978
▁gewähren	-10.978
▁griechische	-10.978
röthe	-10.978
▁Französisch	-10.978
▁Getreide	-10.978
▁Präsident	-10.978
▁Prüfung	-10.978
▁beherrschen	-10.978
▁überraschend	-10.978
drängen	-10.978
fängt	-10.978
▁Iwan	-10.978
▁streichelte	-10.978
kragen	-10.978
▁kniete	-10.978
▁Gehirn	-10.978
▁gemerkt	-10.978
▁segne	-10.978
▁Hafer	-10.978
▁Thron	-10.978
▁gesessen	-10.978
▁Brauen	-10.9781
floß	-10.9781
▁änderte	-10.9781
▁Puls	-10.9781
▁litt	-10.9781
▁Chef	-10.9781
▁Blinde	-10.9781
▁vernichten	-10.9781
▁Schnelligkeit	-10.9781
▁leiten	-10.9782
▁Stube	-10.9782
▁Nächte	-10.9782
▁bedacht	-10.9782
▁sorgen	-10.9782
▁erscheint	-10.9782
▁unklar	-10.9782
▁vollendet	-10.9782
▁plaudern	-10.9782
▁Neid	-10.9783
▁Schlange	-10.9784
▁kleidete	-10.9785
▁hervorgerufen	-10.9785
▁Christus	-10.9786
▁Leah	-10.9786
streit	-10.9787
▁entgegengesetzt	-10.9787
▁hindern	-10.9787
ffnung	-10.9788
▁gehörig	-10.9789
▁aufgerichtet	-10.9789
▁Unternehmen	-10.9794
▁bebte	-10.9797
▁Kies	-10.9799
hemd	-10.98
▁ordnete	-10.98
▁ernsthaft	-10.9803
▁ausgestreckt	-10.9806
▁behauptet	-10.9806
▁Patienten	-10.9818
▁aussprechen	-10.9825
▁Geschöpfe	-10.983
hilfe	-10.9833
▁Bös	-10.984
▁schämen	-10.9842
▁bösen	-10.9848
▁versagt	-10.9852
zwei	-10.9853
▁Verein	-10.9859
▁Ta	-10.9873
▁Jene	-10.988
▁fünfzehnt	-10.988
▁zitternder	-10.988
▁wundervolle	-10.9891
▁hervortreten	-10.9899
▁verliehen	-10.9899
schild	-10.9917
Ei	-10.9924
▁anzunehmen	-10.9925
▁Suche	-10.9931
▁Dienerin	-10.9939
lustig	-10.9939
▁trage	-10.9939
▁versicherte	-10.9959
▁Ecken	-10.9961
▁gewährte	-10.9966
hängende	-10.997
formen	-10.9974
▁drängten	-10.9983
▁Seh	-10.9983
▁Mittags	-10.9986
▁spreche	-10.9993
▁verachte	-10.9997
▁aufstehen	-11
▁flogen	-11.0005
▁brennende	-11.001
weiß	-11.0012
▁vollzog	-11.0013
▁klugen	-11.0024
▁Hecken	-11.0031
zusteigen	-11.0038
▁gelb	-11.0046
▁Wange	-11.0055
▁beinah	-11.0061
▁ewigen	-11.0065
gefunden	-11.0066
sichtlich	-11.0073
ihr	-11.0077
▁begreife	-11.0081
wickelte	-11.0096
▁Landau	-11.01
▁prächtigen	-11.0109
▁melde	-11.0114
▁Mitglied	-11.0115
ualen	-11.013
▁schreit	-11.0131
strebt	-11.0137
wände	-11.0146
trunken	-11.0147
ond	-11.0149
kenntnis	-11.0154
▁Eiche	-11.0157
gekehrt	-11.016
gläubig	-11.0163
▁qualvolle	-11.0163
▁Spazier	-11.0164
▁Entdeckung	-11.0165
streifen	-11.0165
▁Annuschka	-11.0165
▁Archidiakonus	-11.0165
▁Beleidigung	-11.0165
▁Deßjatine	-11.0165
▁Energie	-11.0165
▁Gewölbe	-11.0165
▁Ingrimm	-11.0165
▁Institut	-11.0165
▁Kanapee	-11.0165
▁Köchin	-11.0165
▁Procurator	-11.0165
▁Spanier	-11.0165
▁Veranlassung	-11.0165
▁Wurzel	-11.0165
▁Wölbung	-11.0165
▁Zuneigung	-11.0165
▁befreien	-11.0165
▁behutsam	-11.0165
▁bückte	-11.0165
▁geduldig	-11.0165
▁gefürchtet	-11.0165
▁geringschätzig	-11.0165
▁klatschte	-11.0165
▁krampfhaft	-11.0165
▁mühsam	-11.0165
▁runzelte	-11.0165
▁unverändert	-11.0165
▁verdrießlich	-11.0165
▁zurückzukehren	-11.0165
▁überflüssig	-11.0165
▁Doppel	-11.0165
▁Ewigkeit	-11.0165
▁Offenbar	-11.0165
▁Privat	-11.0165
▁abwechselnd	-11.0165
▁benommen	-11.0165
▁gemütlich	-11.0165
▁geweckt	-11.0165
▁hartnäckig	-11.0165
▁himmlisch	-11.0165
▁kreischend	-11.0165
▁straff	-11.0165
▁wütend	-11.0165
wärter	-11.0165
▁Bänke	-11.0165
▁besorgt	-11.0165
▁üblich	-11.0165
nähme	-11.0165
▁armselig	-11.0165
▁gäbe	-11.0165
▁Erbarmen	-11.0165
▁kostet	-11.0165
▁Jelis	-11.0165
▁daneben	-11.0165
▁unverwandt	-11.0165
▁schwang	-11.0165
▁worüber	-11.0165
▁Hütte	-11.0165
▁Rym	-11.0165
▁gebrauchen	-11.0165
▁Klient	-11.0165
▁behandeln	-11.0165
▁rosig	-11.0165
▁Reims	-11.0165
▁Außen	-11.0165
▁Blüte	-11.0166
Nimm	-11.0166
▁Adern	-11.0166
▁flach	-11.0166
▁ausdrücken	-11.0166
▁Viertelstunde	-11.0166
▁vergiß	-11.0166
▁schimmernde	-11.0166
▁Robin	-11.0166
▁Sarg	-11.0166
▁Kleinigkeit	-11.0166
▁umarmte	-11.0167
▁begleiten	-11.0167
▁gewann	-11.0167
▁durchdringend	-11.0167
▁Bürgermeister	-11.0167
▁demütig	-11.0168
▁älteste	-11.0168
▁Moral	-11.0168
▁geistliche	-11.0168
▁langweilen	-11.0168
ville	-11.0169
▁zerreißen	-11.0169
▁Gebrauch	-11.017
▁Gewicht	-11.0171
▁Ruine	-11.0171
▁kämpfen	-11.0171
▁bilden	-11.0171
▁Zufall	-11.0173
▁aussehend	-11.0173
▁umringt	-11.0173
▁Grete	-11.0174
▁Rang	-11.0175
▁Titel	-11.0175
▁betrunken	-11.0176
▁Kenntnisse	-11.0187
▁harten	-11.0189
▁Ansehen	-11.019
▁Bann	-11.019
▁bisherige	-11.0193
licherweise	-11.0194
V	-11.0195
▁Zigeunerinnen	-11.0196
▁bewahren	-11.0198
▁passen	-11.0203
stamme	-11.0212
Nehmen	-11.022
kunde	-11.0222
▁gearbeitet	-11.0227
▁dumme	-11.0227
▁Herrenhause	-11.0228
▁steckt	-11.0236
stift	-11.024
▁kümmerte	-11.0241
ux	-11.0267
▁diente	-11.0268
▁Kleinen	-11.0274
▁Lasse	-11.0283
▁erlebt	-11.0286
▁Helden	-11.0291
▁Zweite	-11.0296
▁Bischofs	-11.0297
etzen	-11.0303
▁geheimen	-11.0305
jo	-11.0307
▁wirken	-11.0329
▁Rad	-11.033
▁größeren	-11.0342
▁Bade	-11.0345
▁aufgegeben	-11.0356
kette	-11.0362
▁band	-11.0372
fand	-11.0389
▁lebhafter	-11.0399
▁No	-11.0416
schall	-11.0417
▁thu	-11.0421
▁verwickelt	-11.0429
▁seltsamer	-11.0431
geschickt	-11.0439
pra	-11.044
breit	-11.0441
awe	-11.0451
▁dick	-11.0451
▁steinerne	-11.0454
Ho	-11.0454
▁linke	-11.0455
zustehen	-11.0456
▁Handlung	-11.046
Meister	-11.0466
gehoben	-11.0467
Lasse	-11.0468
krank	-11.0468
sieht	-11.047
gerechnet	-11.0489
▁verzog	-11.0496
fahr	-11.0522
▁Wi	-11.0525
lied	-11.0527
▁passende	-11.0534
gestreckt	-11.0537
▁abscheuliche	-11.0546
▁Werke	-11.055
▁Zuge	-11.0553
knecht	-11.0562
▁Pflege	-11.0564
▁Außer	-11.0564
▁Geschworne	-11.0565
▁Matwei	-11.0565
▁Twerskaja	-11.0565
▁bedarf	-11.0565
▁brummte	-11.0565
▁ermüdet	-11.0565
▁friedlich	-11.0565
▁gefüllt	-11.0565
▁gestohlen	-11.0565
▁hervorragend	-11.0565
▁jugendliche	-11.0565
▁mißbillig	-11.0565
▁nächtliche	-11.0565
▁schluchzte	-11.0565
▁verheiraten	-11.0565
▁vernommen	-11.0565
▁äußerlich	-11.0565
Bourbon	-11.0565
▁Demütigung	-11.0565
▁Fläche	-11.0565
▁wüthend	-11.0565
▁zuhörte	-11.0565
estätigung	-11.0565
▁Jemand	-11.0565
▁einigermaßen	-11.0565
▁Lady	-11.0565
▁Mittelalter	-11.0565
schleppen	-11.0565
verständnis	-11.0565
▁Bahnsteig	-11.0565
▁zweifelte	-11.0565
▁Donnerstag	-11.0565
▁verderben	-11.0565
▁Gesichtszüge	-11.0565
▁beteiligt	-11.0565
▁verboten	-11.0565
▁entdecken	-11.0565
Josef	-11.0565
gelöst	-11.0565
▁Flinte	-11.0565
▁umfaßte	-11.0565
▁Handlungsweise	-11.0565
▁Küssen	-11.0565
▁ersticken	-11.0565
▁Petrowna	-11.0566
▁infolgedessen	-11.0566
▁Bauwerke	-11.0566
▁Spaziergang	-11.0566
▁verdeckt	-11.0566
▁seht	-11.0567
▁Kaminfeuer	-11.0567
▁Schimmer	-11.0567
▁quer	-11.0567
▁Süd	-11.0568
▁dunkelrot	-11.0568
▁bekleidet	-11.0568
▁Aussprache	-11.0568
▁Behandlung	-11.0568
▁Tageslicht	-11.0568
▁Verhandlung	-11.0568
▁Verfassung	-11.0569
▁Bruch	-11.0569
▁wecken	-11.057
▁Gewehr	-11.0571
▁Wiederum	-11.0571
▁nunmehr	-11.0572
▁Angriff	-11.0573
▁Ansehn	-11.0573
▁festhielt	-11.0573
▁Töchterchen	-11.0574
▁reif	-11.0576
kram	-11.0582
▁gewachsen	-11.0586
▁lüg	-11.0589
▁glaubst	-11.0589
▁angekleidet	-11.0593
gal	-11.0596
▁verbrachte	-11.0601
▁Ausruf	-11.0609
▁wildes	-11.061
▁braun	-11.0611
▁Malerei	-11.0613
▁dreimal	-11.0614
sitzen	-11.0616
▁Wollt	-11.0623
▁erloschen	-11.0629
schicht	-11.0634
▁unternehmen	-11.0639
▁gemäß	-11.064
▁forderte	-11.0647
▁mitgeteilt	-11.065
▁wichtigste	-11.0651
▁Wann	-11.0657
ax	-11.067
Welch	-11.0671
▁Backen	-11.0675
äufer	-11.0679
▁eingeführt	-11.0694
▁prächtiger	-11.0696
▁vorgegangen	-11.0698
▁strenger	-11.0708
▁dunkler	-11.071
▁unterhielten	-11.0715
▁Pla	-11.0718
▁arbeite	-11.0718
▁Brücken	-11.0725
▁vorhin	-11.0726
gewinn	-11.0728
▁beschäftigen	-11.0732
veplatze	-11.0735
▁Lei	-11.0739
▁schmalen	-11.0761
unst	-11.0769
▁Tauben	-11.0771
▁prüfen	-11.0776
▁würdevoll	-11.0779
geld	-11.0794
▁endlose	-11.0796
▁vorkommen	-11.0798
▁dauernd	-11.082
▁mitunter	-11.0825
iel	-11.0846
▁Kenn	-11.0846
▁verlieh	-11.085
▁Soldat	-11.085
eifer	-11.0856
▁störte	-11.0863
▁Sterbende	-11.0867
herrschaft	-11.0873
gebrochen	-11.0874
▁älteren	-11.0876
Als	-11.0881
schrieb	-11.0882
gewendet	-11.0882
Huck	-11.0886
▁setzt	-11.0888
himmel	-11.0906
drang	-11.0925
▁Dich	-11.0929
linie	-11.0944
fisch	-11.0959
▁Mach	-11.0964
getan	-11.097
wechsel	-11.097
bewegung	-11.0974
▁wora	-11.0979
▁Rettung	-11.0982
▁Zuflucht	-11.0982
▁Andeutung	-11.0982
▁Bevölkerung	-11.0982
▁Fläschchen	-11.0982
▁Fröhlichkeit	-11.0982
▁Huckleberry	-11.0982
▁Januar	-11.0982
▁Müdigkeit	-11.0982
▁Sorgfalt	-11.0982
▁Stelldichein	-11.0982
▁Strumpfwirker	-11.0982
▁Triumph	-11.0982
▁Tuschkewitsch	-11.0982
▁Usher	-11.0982
▁allmächtig	-11.0982
▁bedurfte	-11.0982
▁beginnt	-11.0982
▁betrübt	-11.0982
▁bewahrt	-11.0982
▁ergreifen	-11.0982
▁gefaltet	-11.0982
▁gekauft	-11.0982
▁gelitten	-11.0982
▁geschieht	-11.0982
▁grenzenlos	-11.0982
▁kennengelernt	-11.0982
▁phantastisch	-11.0982
▁unpassend	-11.0982
▁unzählige	-11.0982
▁verhindert	-11.0982
▁vernachlässigt	-11.0982
▁verstehst	-11.0982
▁winkte	-11.0982
▁zeitweilig	-11.0982
▁Überzieher	-11.0982
gehängt	-11.0982
▁Mühle	-11.0982
▁ehrenhaft	-11.0982
▁gestattete	-11.0982
▁interessieren	-11.0982
▁Sattel	-11.0982
▁Vergessen	-11.0982
▁eingeschlafen	-11.0982
thätig	-11.0982
▁Parkett	-11.0982
öckchen	-11.0982
▁Gebärde	-11.0982
▁lenkte	-11.0982
▁drehen	-11.0982
blumen	-11.0982
▁Künste	-11.0982
▁Empfinden	-11.0982
▁Strecke	-11.0982
staat	-11.0982
▁Kugel	-11.0982
▁unnütz	-11.0982
▁faul	-11.0982
▁Nadel	-11.0982
treppe	-11.0982
schieben	-11.0982
▁feindlich	-11.0982
▁schenken	-11.0982
▁heulen	-11.0982
▁prüfte	-11.0982
▁Keller	-11.0982
▁Fäuste	-11.0982
▁Großmut	-11.0982
gießen	-11.0982
▁bange	-11.0983
▁beleuchtete	-11.0984
▁vergleichen	-11.0984
▁Linken	-11.0984
▁Trab	-11.0984
▁Lange	-11.0985
▁unnatürlich	-11.0985
bäume	-11.0985
▁Ausführung	-11.0985
▁Heimat	-11.0986
flasche	-11.0986
▁Waise	-11.0986
▁Puppe	-11.0986
▁folglich	-11.0987
▁Ausdrücke	-11.0987
stätte	-11.0988
▁schimmerte	-11.0988
▁betete	-11.0988
▁Kinderzimmer	-11.0988
▁Zwie	-11.0988
▁Engländerin	-11.099
Martin	-11.0991
▁beschrieb	-11.0993
▁ungeschickt	-11.0993
▁Tit	-11.0994
▁Vogt	-11.1
▁Kuh	-11.1002
▁schalt	-11.1002
▁Dauer	-11.1006
▁Inschrift	-11.1009
▁verband	-11.101
▁Brand	-11.1014
▁Beute	-11.1016
besuch	-11.1018
▁Kollegen	-11.1024
▁sammeln	-11.1027
▁Faden	-11.1035
▁Piraten	-11.1036
▁Schwein	-11.1036
▁meldete	-11.104
▁schätzen	-11.1042
▁benahm	-11.1045
▁erwacht	-11.1051
ürzt	-11.1052
▁Muth	-11.1065
▁öffentlich	-11.1073
▁geholt	-11.1074
▁gehoben	-11.1087
fuß	-11.1088
▁genossen	-11.1105
ius	-11.1107
▁Mich	-11.1109
▁entwickelt	-11.111
▁Eier	-11.1126
▁rege	-11.1137
▁Hat	-11.1143
▁wichtiger	-11.1152
gesicht	-11.1175
gesellschaft	-11.1176
▁prüfend	-11.1193
▁Straf	-11.1194
▁wiegte	-11.1198
träger	-11.1213
▁schwä	-11.1225
mehr	-11.1243
haltung	-11.1253
▁schlicht	-11.1256
alität	-11.126
wasser	-11.1263
fülle	-11.1263
smittel	-11.1263
▁Sehen	-11.1263
zusuchen	-11.128
gesprochen	-11.129
▁dank	-11.1291
▁gelbe	-11.13
▁eigentümlich	-11.1304
▁Grenze	-11.1305
▁verwe	-11.1307
▁Glaube	-11.1308
üttel	-11.1311
▁lautes	-11.1312
Fa	-11.1316
ufer	-11.1318
Alexei	-11.1318
kroch	-11.1321
▁Universität	-11.1321
▁stoßen	-11.1322
sprang	-11.1324
führt	-11.1338
Mama	-11.1338
paar	-11.1344
▁Kenntnis	-11.1392
Hat	-11.1413
▁Petrow	-11.1415
ströme	-11.1415
geschmack	-11.1416
Einbildungskraft	-11.1416
Gnädige	-11.1416
farbigen	-11.1416
gespräch	-11.1416
▁Canivet	-11.1416
▁Doctor	-11.1416
▁Droschke	-11.1416
▁Edward	-11.1416
▁Empörung	-11.1416
▁Erleichterung	-11.1416
▁Gladiator	-11.1416
▁Kommission	-11.1416
▁Mjachkaja	-11.1416
▁Northstone	-11.1416
▁Paradies	-11.1416
▁Scatcherd	-11.1416
▁Schweizer	-11.1416
▁Streifen	-11.1416
▁Verurtheilte	-11.1416
▁bedürfe	-11.1416
▁beherrschte	-11.1416
▁belästig	-11.1416
▁christliche	-11.1416
▁nothwendig	-11.1416
▁plump	-11.1416
▁praktisch	-11.1416
▁schwimmen	-11.1416
▁seufzen	-11.1416
▁töricht	-11.1416
▁verflucht	-11.1416
prügelt	-11.1416
▁Begebenheit	-11.1416
▁Morton	-11.1416
▁Pilot	-11.1416
▁Wärme	-11.1416
▁achtungsvoll	-11.1416
▁bedeutsam	-11.1416
▁bereuen	-11.1416
▁hoffnungslos	-11.1416
▁Boot	-11.1416
▁sammelte	-11.1416
Germain	-11.1416
▁Fußspitzen	-11.1416
streben	-11.1416
▁Abbot	-11.1416
▁klagte	-11.1416
▁Altar	-11.1416
▁Erdboden	-11.1416
zufügen	-11.1416
▁Breite	-11.1417
▁Kosten	-11.1417
gejagt	-11.1417
▁Lisa	-11.1417
▁Verdacht	-11.1417
prüche	-11.1417
▁gespielt	-11.1417
▁Trag	-11.1417
▁hölzerne	-11.1417
▁Schläfen	-11.1417
▁teuer	-11.1417
▁Vorhalle	-11.1418
▁stockte	-11.1418
▁unsrer	-11.1418
▁Studium	-11.1419
▁verharrte	-11.1419
▁anzuhören	-11.1419
▁Hülle	-11.142
▁wechselte	-11.142
▁teure	-11.142
▁Anklage	-11.142
klirr	-11.1421
▁bewaffnet	-11.1421
▁Tinte	-11.1421
▁Haken	-11.1422
▁Ehemann	-11.1422
▁Ratschläge	-11.1422
▁Kammer	-11.1423
▁schief	-11.1423
▁frech	-11.1423
▁Lehrerinnen	-11.1424
▁wechseln	-11.1425
▁Anzeichen	-11.1425
seligkeit	-11.1425
▁dienstliche	-11.1425
▁Mahl	-11.1427
▁Jammer	-11.1427
▁zurückzuhalten	-11.1427
▁Küste	-11.1428
▁jedermann	-11.1428
▁schlang	-11.143
unterricht	-11.1431
▁Beinchen	-11.1433
▁Vorfall	-11.1433
▁untersuchen	-11.1435
▁wehrte	-11.1438
▁Lebensweise	-11.1438
blatt	-11.1442
▁Amy	-11.1445
vater	-11.1446
▁Thaler	-11.1451
ator	-11.1452
▁Prinzen	-11.1461
▁Sieger	-11.1461
zuholen	-11.1462
▁Franzosen	-11.1464
▁Nu	-11.1466
▁jagte	-11.147
▁vorgefallen	-11.1471
▁Bemühungen	-11.1473
▁Rauschen	-11.1479
▁Grad	-11.148
▁hierbei	-11.1486
▁gestürzt	-11.1486
schar	-11.1496
rissen	-11.1501
▁überlegt	-11.1503
Mach	-11.1511
▁nasse	-11.1512
▁Schreiber	-11.1513
irren	-11.1514
hing	-11.1515
▁liebevoll	-11.1519
schuß	-11.152
▁Schiffe	-11.152
▁aushalten	-11.1525
▁dasaß	-11.1526
▁Mark	-11.1528
▁Verstandes	-11.1532
▁töten	-11.1535
▁innerlich	-11.1542
▁mach	-11.157
hülle	-11.1576
brücke	-11.1586
zufinden	-11.1592
zurufen	-11.1594
▁feiner	-11.1613
▁genügend	-11.1616
▁malte	-11.1626
richter	-11.1643
▁unbekannten	-11.1648
▁Eck	-11.1651
▁lege	-11.1661
wert	-11.1667
▁verlebt	-11.167
▁schwarzer	-11.1673
▁benutzte	-11.1676
zweig	-11.1695
Sofort	-11.1706
▁Festung	-11.1715
▁Sünder	-11.1715
▁verlange	-11.1719
▁Blume	-11.1735
zählt	-11.1738
▁Strahl	-11.174
schmückte	-11.1755
geholt	-11.1772
denklich	-11.1779
Mich	-11.1786
weichen	-11.1792
▁brav	-11.1797
▁kreuz	-11.1798
pferde	-11.1803
▁erkennt	-11.1815
schob	-11.1817
tretend	-11.1827
bekommen	-11.184
▁Gabe	-11.1845
holte	-11.1848
bus	-11.1855
▁lan	-11.1859
▁Scheu	-11.1866
geschäft	-11.1868
klammer	-11.187
llmählich	-11.187
geschrei	-11.1871
teaupers	-11.1871
Chantefleurie	-11.1871
imentskommandeur	-11.1871
männer	-11.1871
▁Begleitung	-11.1871
▁Bündel	-11.1871
▁Forderung	-11.1871
▁Hühner	-11.1871
▁Krawatte	-11.1871
▁Liebkosungen	-11.1871
▁Lösung	-11.1871
▁Maßregeln	-11.1871
▁Plattform	-11.1871
▁Porzellan	-11.1871
▁Postkutsche	-11.1871
▁Titorelli	-11.1871
▁Turowzün	-11.1871
▁Ungeheuer	-11.1871
▁Zusammenhang	-11.1871
▁flamländische	-11.1871
▁geleitet	-11.1871
▁männliche	-11.1871
▁spräche	-11.1871
▁studiert	-11.1871
▁trostlos	-11.1871
▁unbeschreiblich	-11.1871
▁ungezwungen	-11.1871
▁verdorben	-11.1871
▁verhüllt	-11.1871
▁verkündete	-11.1871
▁Überraschung	-11.1871
▁Birken	-11.1871
▁Marquis	-11.1871
▁Unzufriedenheit	-11.1871
▁blendend	-11.1871
▁fesseln	-11.1871
▁gewaltsam	-11.1871
▁vertieft	-11.1871
▁Kehle	-11.1871
▁jährlich	-11.1871
gedrungen	-11.1871
▁vermischt	-11.1871
anstalt	-11.1871
▁Redensart	-11.1871
▁Gesinnung	-11.1871
▁Trunk	-11.1871
▁pfiff	-11.1871
wühlt	-11.1871
▁Ausgaben	-11.1871
maschine	-11.1871
▁Kerker	-11.1871
▁verhaftet	-11.1871
▁blitzte	-11.1871
▁löste	-11.1871
▁erwecken	-11.1871
▁spanische	-11.1871
▁rosa	-11.1871
kraut	-11.1871
▁schwebte	-11.1871
▁ehemalige	-11.1871
▁Hirn	-11.1871
▁kosten	-11.1871
▁Kirchendiener	-11.1872
▁übertrieben	-11.1872
▁Freispruch	-11.1872
▁besinnen	-11.1872
▁anwesend	-11.1872
▁eingeschlossen	-11.1873
▁erscholl	-11.1873
ologische	-11.1873
▁Lücke	-11.1873
äugig	-11.1873
schluß	-11.1874
▁Spott	-11.1874
▁angestrengt	-11.1874
▁Zuweilen	-11.1875
▁leuchtenden	-11.1875
▁Nonne	-11.1875
▁Heft	-11.1876
▁Zoll	-11.1876
▁Stütze	-11.1876
▁Pult	-11.1876
weib	-11.1876
▁Festigkeit	-11.1877
▁weggefahren	-11.1877
▁kämpfte	-11.1877
▁Gunst	-11.1878
▁ruhen	-11.1879
▁wunderschön	-11.188
▁Handschuh	-11.188
flut	-11.188
▁Dienerschaft	-11.188
▁Hausherr	-11.1881
▁gemäht	-11.1881
▁Betragen	-11.1885
▁Muß	-11.1886
▁Lanz	-11.1887
▁wertvoll	-11.1888
▁machst	-11.1888
▁Bote	-11.1889
▁philosophische	-11.189
▁besprechen	-11.1892
▁Mont	-11.1893
▁aussprach	-11.1895
▁hinausging	-11.1896
▁Wuch	-11.1898
marsch	-11.1902
▁herauskommen	-11.1917
schnur	-11.1918
▁Ratten	-11.192
▁Länder	-11.1922
flug	-11.1927
▁Angel	-11.1928
▁Geheimnisse	-11.1928
▁vorstellte	-11.193
▁Mitglieder	-11.1931
▁Schnepfen	-11.1931
▁ausgeführt	-11.1945
▁Jahrhunderts	-11.1952
▁gestehen	-11.1952
▁Sollte	-11.1953
▁Gelehrten	-11.1957
▁Gebieter	-11.1965
▁breitete	-11.197
Thu	-11.1981
ding	-11.1983
▁beruh	-11.1985
stab	-11.1991
▁Zehn	-11.2025
▁Herrin	-11.2033
▁dauern	-11.2052
gesagt	-11.2063
▁Sechste	-11.2065
Maria	-11.2069
▁Go	-11.2075
▁Portale	-11.2124
▁bediente	-11.2138
braune	-11.2147
veplatz	-11.2149
ungslos	-11.217
▁verursacht	-11.2197
bänder	-11.2211
staunt	-11.2236
▁Thräne	-11.2237
▁erkenne	-11.2239
natürlich	-11.2246
würde	-11.225
▁Prozesse	-11.2251
wirklich	-11.2252
▁Akt	-11.2252
wirken	-11.2254
▁kümmert	-11.2254
▁unterrichtet	-11.2254
▁Rute	-11.2256
▁gemeint	-11.2267
Wahrhaftig	-11.2306
▁Silbe	-11.2317
prüf	-11.2345
▁wahrhaft	-11.2345
▁Schnell	-11.2346
händig	-11.2347
▁Atelier	-11.2347
▁Athem	-11.2347
▁Baudenkmäler	-11.2347
▁Bedienerin	-11.2347
▁Begierde	-11.2347
▁Behörde	-11.2347
▁Bescheid	-11.2347
▁Bournisien	-11.2347
▁Flamländer	-11.2347
▁Gedränge	-11.2347
▁Gondelaurier	-11.2347
▁Grimasse	-11.2347
▁Gudule	-11.2347
▁Heiterkeit	-11.2347
▁Kosnüschew	-11.2347
▁Lynn	-11.2347
▁Riesen	-11.2347
▁Verfügung	-11.2347
▁Walzer	-11.2347
▁Zittern	-11.2347
▁Zufriedenheit	-11.2347
▁enttäuscht	-11.2347
▁fleißig	-11.2347
▁forschend	-11.2347
▁genießen	-11.2347
▁gleichgiltig	-11.2347
▁glückselig	-11.2347
▁häusliche	-11.2347
▁politische	-11.2347
▁ungestört	-11.2347
▁unvermeidlich	-11.2347
▁verdächtig	-11.2347
▁versäumt	-11.2347
▁verwundet	-11.2347
▁zerstreuen	-11.2347
▁zögernd	-11.2347
▁äußerte	-11.2347
tücher	-11.2347
▁Häuschen	-11.2347
▁Thunes	-11.2347
▁klingelte	-11.2347
▁stundenlang	-11.2347
▁verstört	-11.2347
▁Butter	-11.2347
▁Bedingung	-11.2347
▁irdische	-11.2347
gekämmt	-11.2347
▁Schemel	-11.2347
▁Träumereien	-11.2347
▁Backenbart	-11.2347
▁außen	-11.2347
▁sozusagen	-11.2347
gedanke	-11.2347
▁Leuchter	-11.2347
▁versteinert	-11.2347
▁gilt	-11.2347
▁schräg	-11.2347
▁Störung	-11.2347
▁Kammerdiener	-11.2347
▁gerathen	-11.2347
▁kaufte	-11.2347
▁Schurke	-11.2347
▁angeblich	-11.2347
▁Bären	-11.2348
▁Klingel	-11.2348
▁Widerspruch	-11.2348
▁Statt	-11.2348
▁marter	-11.2348
▁Büsche	-11.2348
▁Indien	-11.2348
kuchen	-11.2348
▁begreiflich	-11.2348
▁verglich	-11.2348
▁verfolgen	-11.2349
▁Pflegerin	-11.2349
▁Gesamt	-11.2349
▁geschäftig	-11.2349
▁Krone	-11.2349
▁achtzehn	-11.2349
▁gegenwärtigen	-11.2349
▁verletzen	-11.235
▁qualvoll	-11.235
▁Mittelpunkt	-11.235
tätigkeit	-11.235
▁Maske	-11.2351
pforte	-11.2351
▁goldne	-11.2351
▁Nachdruck	-11.2351
▁Philosophie	-11.2351
▁urteilen	-11.2351
wurz	-11.2352
▁wusch	-11.2352
äckchen	-11.2352
▁außergewöhnlich	-11.2353
▁beweist	-11.2353
geflogen	-11.2353
röcke	-11.2354
▁Diner	-11.2354
▁Mord	-11.2354
öhne	-11.2355
▁Untergebene	-11.2355
▁mitteilen	-11.2355
▁Zauberei	-11.2355
BA	-11.2355
ichtigkeit	-11.2356
pflicht	-11.2356
▁Wirtin	-11.2357
bahn	-11.2357
▁heben	-11.2359
▁gefangen	-11.2366
▁traue	-11.2368
▁nachgedacht	-11.237
▁meist	-11.2372
fressen	-11.2376
sangelegenheiten	-11.2378
▁zurückgezogen	-11.2386
köpfe	-11.2387
▁behielt	-11.2387
Gestern	-11.2389
▁versetzen	-11.2393
▁Gläser	-11.2393
länder	-11.2394
▁angewiesen	-11.2395
riesel	-11.2396
▁raten	-11.2398
chmiede	-11.2401
▁beruhigend	-11.2402
mütze	-11.2405
▁Prä	-11.2406
▁Krankenhaus	-11.2411
▁Koch	-11.2412
▁Manche	-11.2414
▁Stich	-11.2415
▁verziehen	-11.2419
staub	-11.2425
▁bedauerte	-11.2426
gebet	-11.2431
speisen	-11.2439
▁vorgekommen	-11.2446
▁Einfall	-11.2456
▁wiedersehen	-11.2459
▁trocknete	-11.2474
▁hinkommen	-11.2476
▁Ferner	-11.2478
▁geringer	-11.2478
lebte	-11.2478
▁Hatte	-11.2482
▁geheimnisvoll	-11.2491
▁Kleides	-11.2508
▁verkehrte	-11.2515
Durchaus	-11.2533
▁Kiste	-11.2573
▁religiöse	-11.2578
▁Sorte	-11.2593
▁werth	-11.2595
▁Besitzer	-11.2635
ruhig	-11.2647
ohnt	-11.2672
stütz	-11.2695
▁Nest	-11.2706
▁Back	-11.2723
gedacht	-11.2727
api	-11.2732
▁wohlbekannte	-11.2736
▁zahllose	-11.2736
▁nenne	-11.2738
helfen	-11.2748
schicken	-11.2749
Phöbus	-11.2749
Wann	-11.275
oph	-11.28
▁Bibliothek	-11.2801
gewiesen	-11.2813
stehende	-11.2822
ffentlich	-11.2831
▁Minister	-11.2847
geschirr	-11.2847
mitglied	-11.2847
▁Abneigung	-11.2847
▁Agnes	-11.2847
▁Eitelkeit	-11.2847
▁Entschlusse	-11.2847
▁Eroberung	-11.2847
▁Galopp	-11.2847
▁Gisquette	-11.2847
▁Justizpalaste	-11.2847
▁Kammerjungfer	-11.2847
▁Leichnam	-11.2847
▁Machotin	-11.2847
▁Muskeln	-11.2847
▁Mütter	-11.2847
▁Rechenschaft	-11.2847
▁Rjabinin	-11.2847
▁Rätsel	-11.2847
▁Stremow	-11.2847
▁Tourangeau	-11.2847
▁Unterredung	-11.2847
▁Unwissenheit	-11.2847
▁Zeichnung	-11.2847
▁Zigarette	-11.2847
▁Zwölf	-11.2847
▁anvertraut	-11.2847
▁ausführlich	-11.2847
▁barmherzig	-11.2847
▁beantwortet	-11.2847
▁befunden	-11.2847
▁beraubt	-11.2847
▁bestrafen	-11.2847
▁betrogen	-11.2847
▁bewegungslos	-11.2847
▁ehrwürdig	-11.2847
▁ereignet	-11.2847
▁fliehen	-11.2847
▁geheftet	-11.2847
▁grüßte	-11.2847
▁mechanisch	-11.2847
▁nützt	-11.2847
▁pünktlich	-11.2847
▁scherzhaft	-11.2847
▁schändlich	-11.2847
▁tröstete	-11.2847
▁unerhört	-11.2847
▁unterschied	-11.2847
▁vergnüglich	-11.2847
▁verhindern	-11.2847
▁verknüpft	-11.2847
gesperrt	-11.2847
▁Bildhauer	-11.2847
▁Mörder	-11.2847
▁Regionen	-11.2847
▁Spannung	-11.2847
▁Verdienst	-11.2847
▁anstrenge	-11.2847
▁athme	-11.2847
▁herzzerreißend	-11.2847
▁versperrt	-11.2847
▁zögerte	-11.2847
▁Adresse	-11.2847
▁Mäher	-11.2847
▁Oeffnung	-11.2847
▁vertraue	-11.2847
predigt	-11.2847
▁Frühjahr	-11.2847
▁Leinwand	-11.2847
▁Strenge	-11.2847
▁scheußliche	-11.2847
▁auszudrücken	-11.2847
gepreßt	-11.2847
▁Pension	-11.2847
▁schaukelte	-11.2847
▁Partie	-11.2847
▁verwendet	-11.2847
▁Funken	-11.2847
▁Wappen	-11.2847
▁zweifle	-11.2847
▁Latein	-11.2847
▁Spitzbogen	-11.2847
▁Tostes	-11.2847
▁Fuchs	-11.2847
▁Ministerium	-11.2848
▁heutzutage	-11.2848
▁Gipfel	-11.2848
▁lärmend	-11.2848
▁Dachrinne	-11.2848
höhe	-11.2848
▁Speisesaal	-11.2848
papier	-11.2848
▁Zusammentreffen	-11.2848
▁Sprechen	-11.2848
▁Schmuck	-11.2848
schenkte	-11.2848
▁überwinden	-11.2848
▁Kram	-11.2849
▁Polster	-11.2849
▁berechtigt	-11.2849
▁anzufangen	-11.2849
▁Familienleben	-11.2849
▁Jim	-11.285
▁Werkzeug	-11.285
▁kletterte	-11.285
▁geheilt	-11.285
mantel	-11.285
▁Verbrecher	-11.285
▁Hüte	-11.285
▁zerbrach	-11.285
▁Gänge	-11.285
▁Nachtwache	-11.2851
▁großmütig	-11.2851
schirm	-11.2851
Darüber	-11.2852
▁Nord	-11.2852
▁seitwärts	-11.2853
▁einzeln	-11.2853
fassung	-11.2854
▁schwerfällig	-11.2854
▁erlangen	-11.2855
▁untreu	-11.2855
▁naß	-11.2855
summe	-11.2856
▁dreihundert	-11.2856
▁euer	-11.2857
▁Sack	-11.2857
▁Leicht	-11.2857
▁Reisenden	-11.2857
beamte	-11.2859
▁Klee	-11.286
▁erweisen	-11.2862
▁erriet	-11.2867
▁Affe	-11.2868
▁hinterlassen	-11.2868
▁hilflos	-11.2871
▁Wenige	-11.2872
▁Armut	-11.2872
▁bleibst	-11.2875
▁dahinter	-11.2876
▁betrat	-11.2881
schließt	-11.2884
▁Fremder	-11.2889
▁ihrerseits	-11.289
▁Gerichtshof	-11.289
▁gestickte	-11.2893
seitig	-11.2895
▁hingeben	-11.2897
▁reiste	-11.2906
rosen	-11.2911
▁amtliche	-11.2912
▁Stande	-11.292
▁Marie	-11.2922
wohnt	-11.2925
▁Tischchen	-11.293
▁Probe	-11.2942
▁unterdrückt	-11.2944
▁lautem	-11.2946
Bleib	-11.2947
▁kluger	-11.295
▁beabsichtigt	-11.2964
▁com	-11.2966
▁rühr	-11.2995
▁dicker	-11.2996
gebogen	-11.3006
äße	-11.3008
▁drücken	-11.3012
beugen	-11.3033
skreise	-11.3034
runde	-11.3034
▁Näh	-11.3057
anti	-11.308
▁gewährt	-11.3114
rivi	-11.3133
frische	-11.3134
▁Spitz	-11.3143
▁einfältig	-11.3166
▁Geschick	-11.321
▁drückend	-11.321
kul	-11.3213
▁wundervoll	-11.3218
osa	-11.3218
wache	-11.3219
schickte	-11.3222
wissenschaft	-11.3222
▁Zo	-11.3233
▁rührend	-11.3239
▁verzeih	-11.3242
▁feurige	-11.3249
▁Seide	-11.3252
▁Verwandte	-11.3264
▁Glied	-11.3267
während	-11.3268
▁Madam	-11.327
Selbst	-11.3275
›	-11.3275
zieht	-11.3275
Kommt	-11.3291
▁stattliche	-11.3291
gebeugt	-11.3294
öse	-11.3294
▁seidene	-11.3304
gnädig	-11.3305
Mag	-11.3308
▁Fehl	-11.3315
▁Pfeil	-11.3315
angelegenheit	-11.334
öhnte	-11.3352
handlung	-11.3363
fluß	-11.3367
▁Begeisterung	-11.3373
▁Bräutigam	-11.3373
▁Champagne	-11.3373
▁Douglas	-11.3373
▁Geschwätz	-11.3373
▁Häßlichkeit	-11.3373
▁Louvre	-11.3373
▁Mädel	-11.3373
▁Römer	-11.3373
▁Schornstein	-11.3373
▁Tamburin	-11.3373
▁Tüvache	-11.3373
▁Vicomte	-11.3373
▁Wimpern	-11.3373
▁Wollust	-11.3373
▁beabsichtige	-11.3373
▁drohend	-11.3373
▁durchnäßt	-11.3373
▁empfindlich	-11.3373
▁erhöht	-11.3373
▁erkundigen	-11.3373
▁geantwortet	-11.3373
▁gebückt	-11.3373
▁geleistet	-11.3373
▁grübelte	-11.3373
▁kirchliche	-11.3373
▁klassische	-11.3373
▁leugnen	-11.3373
▁musterte	-11.3373
▁schläfrig	-11.3373
▁schläft	-11.3373
▁schlägt	-11.3373
▁schwamm	-11.3373
▁studieren	-11.3373
▁treibt	-11.3373
▁unermüdlich	-11.3373
▁unwiderstehlich	-11.3373
▁verdoppelt	-11.3373
▁wechselseitig	-11.3373
büchse	-11.3373
▁Genesung	-11.3373
▁Knöpfe	-11.3373
▁Kopfkissen	-11.3373
▁Narrenpapst	-11.3373
▁anhörte	-11.3373
▁bemitleide	-11.3373
rechnung	-11.3373
▁anerkannt	-11.3373
▁mitleidig	-11.3373
▁hitzig	-11.3373
▁Drachen	-11.3374
▁Fratze	-11.3374
▁Geständnis	-11.3374
▁Gewinn	-11.3374
▁Sammet	-11.3374
▁Tempel	-11.3374
▁Verhaftung	-11.3374
▁ausschließlich	-11.3374
▁jenseit	-11.3374
lassung	-11.3374
winkel	-11.3374
▁betraf	-11.3374
▁flink	-11.3374
lampe	-11.3374
▁Krug	-11.3374
stiefel	-11.3374
▁besessen	-11.3374
▁Nordstadt	-11.3374
blühen	-11.3374
▁andermal	-11.3374
▁Vision	-11.3374
▁beurteilen	-11.3374
▁Viertel	-11.3374
▁Buben	-11.3374
▁Becher	-11.3374
▁verkehren	-11.3374
▁erobert	-11.3374
▁Honig	-11.3375
▁Abteilung	-11.3375
▁Burgund	-11.3375
▁Aufforderung	-11.3375
▁Kühe	-11.3375
strick	-11.3375
▁Liebschaft	-11.3376
▁stattfinden	-11.3376
▁einschlafen	-11.3376
▁Nachbarschaft	-11.3376
▁Reisetasche	-11.3376
▁gebaut	-11.3376
▁Leichtigkeit	-11.3376
▁geläufig	-11.3376
▁Brille	-11.3376
schlüsse	-11.3377
Danke	-11.3377
▁widerstehen	-11.3377
▁tags	-11.3378
▁Hörner	-11.3378
▁flammte	-11.338
▁meinetwegen	-11.338
schießen	-11.338
geblickt	-11.3381
▁Krach	-11.3382
gesprungen	-11.3382
aux	-11.3383
▁Befinden	-11.3385
▁satt	-11.3386
▁Erstens	-11.3387
▁Stange	-11.3387
▁Schwert	-11.3387
▁klopfen	-11.3388
geachtet	-11.3389
▁Bevor	-11.339
▁entlassen	-11.3391
▁beschaffen	-11.3393
▁Wogen	-11.3393
▁ausdrückte	-11.3398
▁Aufsehen	-11.3398
undvierzig	-11.3401
preis	-11.3405
diener	-11.3406
▁lastete	-11.3409
Hol	-11.3411
▁vorkommt	-11.3411
▁hinausgehen	-11.3415
▁vermutete	-11.342
▁Stückchen	-11.3425
▁Osten	-11.3427
reißt	-11.3434
▁zurückkam	-11.3437
▁Königreich	-11.3448
zucht	-11.3451
▁Il	-11.3453
▁Straßenecke	-11.3463
gereicht	-11.3478
▁Weste	-11.3484
▁Bast	-11.3497
esgleichen	-11.351
karte	-11.3512
zubleiben	-11.3519
▁Lehns	-11.3533
Geschicklichkeit	-11.354
▁schönste	-11.3558
blickend	-11.3602
▁Jahrhundert	-11.3604
▁endlos	-11.3616
▁Cousin	-11.3626
schließ	-11.3628
nebel	-11.3634
▁wagt	-11.366
Z	-11.3695
▁gehöre	-11.3708
▁Erlös	-11.373
▁entzog	-11.3741
▁Held	-11.375
reitung	-11.3755
▁Wahnsinn	-11.3762
niedergeschlagen	-11.3765
kenntlich	-11.3772
träumt	-11.378
▁trockne	-11.3783
▁qua	-11.379
▁Eigenschaft	-11.3801
Weiß	-11.381
▁Meile	-11.3821
geblieben	-11.3821
räume	-11.3827
kräftig	-11.3829
Wissen	-11.383
kriechen	-11.3833
▁Herrenhaus	-11.3858
klage	-11.3884
▁lichte	-11.3896
▁Nä	-11.3905
harrt	-11.3906
gerät	-11.3907
fort	-11.3914
▁Jüng	-11.3928
▁Junggeselle	-11.3929
Wenigstens	-11.3929
löcher	-11.3929
stotterte	-11.3929
wölk	-11.3929
▁Annäherung	-11.3929
▁Barmherzigkeit	-11.3929
▁Bestimmtheit	-11.3929
▁Bestürzung	-11.3929
▁Blanche	-11.3929
▁Cäsar	-11.3929
▁Einwohner	-11.3929
▁Eminenz	-11.3929
▁Erwähnung	-11.3929
▁Früchte	-11.3929
▁Gehorsam	-11.3929
▁Gerücht	-11.3929
▁Gottesdienst	-11.3929
▁Gärtner	-11.3929
▁Halbdunkel	-11.3929
▁Häupter	-11.3929
▁Kanzleidirektor	-11.3929
▁Korsunski	-11.3929
▁Lebewohl	-11.3929
▁Meldung	-11.3929
▁Pawlowna	-11.3929
▁Polizei	-11.3929
▁Rahmen	-11.3929
▁Snetkow	-11.3929
▁Tabak	-11.3929
▁Traurigkeit	-11.3929
▁Venezianer	-11.3929
▁Verehrung	-11.3929
▁Verschwörung	-11.3929
▁Versöhnung	-11.3929
▁Verteidiger	-11.3929
▁altmodisch	-11.3929
▁befohlen	-11.3929
▁begnüg	-11.3929
▁bestraft	-11.3929
▁erfolgt	-11.3929
▁erschüttert	-11.3929
▁freigebig	-11.3929
▁gequält	-11.3929
▁knüpfte	-11.3929
▁majestätisch	-11.3929
▁moralisch	-11.3929
▁nachlässig	-11.3929
▁närrisch	-11.3929
▁schädlich	-11.3929
▁vornherein	-11.3929
▁winzig	-11.3929
▁zeichnete	-11.3929
▁Übel	-11.3929
▁überwältigt	-11.3929
▁Besorgnis	-11.3929
▁Seligkeit	-11.3929
▁Umfang	-11.3929
▁Vorübergehen	-11.3929
▁furchtsam	-11.3929
▁gehorchen	-11.3929
▁liebkosen	-11.3929
▁stammelte	-11.3929
▁Freiwilligen	-11.3929
▁Juwel	-11.3929
▁nützen	-11.3929
▁trübselig	-11.3929
▁verleihen	-11.3929
▁Ideal	-11.3929
▁Kanzel	-11.3929
▁gewaschen	-11.3929
▁schauderte	-11.3929
▁Schneide	-11.3929
▁Sonnenstrahl	-11.3929
freude	-11.3929
▁verschlungen	-11.3929
▁klingt	-11.3929
▁erwerben	-11.3929
▁Giebel	-11.3929
▁siebzehn	-11.3929
▁schmerzhaft	-11.3929
Verdammt	-11.3929
▁ordnen	-11.3929
gesandt	-11.3929
▁Satan	-11.3929
läuter	-11.3929
▁Achseln	-11.3929
▁minder	-11.3929
▁Schaufel	-11.3929
spritzt	-11.3929
▁brauchst	-11.3929
▁Dampf	-11.3929
▁Raben	-11.3929
furcht	-11.3929
▁tastete	-11.3929
▁stürmte	-11.393
▁Bastille	-11.393
▁träumen	-11.393
▁Trommel	-11.393
▁denkbar	-11.393
▁besann	-11.393
▁ruft	-11.393
▁Ohnmacht	-11.393
▁Speisezimmer	-11.393
zwäng	-11.393
▁Vergnügungen	-11.393
▁Operation	-11.393
schielte	-11.393
▁bestimmen	-11.3931
▁Söhne	-11.3931
▁unbewußt	-11.3931
▁ausgeschlossen	-11.3931
▁zerriß	-11.3931
▁abgeschlossen	-11.3932
▁rasend	-11.3932
▁teilweise	-11.3932
rüttelt	-11.3932
▁eingeladen	-11.3933
▁Schlafrock	-11.3933
Holla	-11.3934
▁ringsum	-11.3934
▁leichtsinnig	-11.3934
▁Bettdecke	-11.3934
▁Spalte	-11.3934
▁Ebenso	-11.3935
▁Wellen	-11.3935
▁gestalten	-11.3935
▁stützen	-11.3935
▁drinnen	-11.3936
▁Zustimmung	-11.3936
sonderlich	-11.3936
▁Acker	-11.3937
▁lacht	-11.3937
Gaul	-11.3937
▁verbrannt	-11.3937
▁bauen	-11.3938
▁Ekel	-11.3938
▁Bälle	-11.3939
▁Mehrere	-11.394
▁Bissen	-11.394
▁bewohnt	-11.3941
▁Annahme	-11.3942
▁zustande	-11.3942
▁niedergelassen	-11.3943
▁tausendmal	-11.3943
▁Bestimmung	-11.3944
▁Viele	-11.3944
▁Andenken	-11.3947
▁wegfahren	-11.3947
▁bebend	-11.3948
illy	-11.3949
▁Platte	-11.3949
▁Freitag	-11.3951
▁begraben	-11.3955
▁abscheulich	-11.3955
▁Anfall	-11.3956
▁Karten	-11.3957
Ha	-11.3958
▁unterdessen	-11.3959
▁Manieren	-11.396
▁Vorzug	-11.3961
▁Char	-11.3961
▁Netz	-11.3963
▁hergestellt	-11.3963
▁flehend	-11.3967
▁Meter	-11.3969
garten	-11.3969
▁schwand	-11.3974
▁unterbrechen	-11.3974
▁vertragen	-11.3978
▁Mannschaft	-11.3979
▁Gent	-11.3988
eisig	-11.3991
zöge	-11.4009
narde	-11.4013
Steh	-11.4014
Seht	-11.4014
▁Schwere	-11.4048
▁oberste	-11.4052
▁gerieth	-11.4076
▁Christi	-11.4078
▁Bro	-11.4086
viel	-11.409
Denis	-11.4137
ilde	-11.4138
▁Hecke	-11.4143
▁bedenke	-11.4158
▁wiederhole	-11.4165
wachte	-11.4165
▁brennen	-11.4167
▁Fünfte	-11.4189
▁Schrecklich	-11.4204
▁Schwan	-11.4206
▁zittern	-11.4228
▁entspreche	-11.423
sack	-11.4282
▁trüb	-11.4321
▁Lehnsherr	-11.4342
▁kleinlich	-11.435
Geb	-11.4355
▁Gelehrte	-11.4407
▁Fälle	-11.4417
schlägen	-11.4425
▁quäl	-11.4436
▁bestehende	-11.444
▁hege	-11.4444
Viel	-11.447
fell	-11.4472
glänzt	-11.4474
▁Fluch	-11.4482
▁Messe	-11.4489
schleppt	-11.4497
▁Fabrik	-11.4504
wurf	-11.4514
kletter	-11.4515
begleit	-11.4515
pflaster	-11.4516
▁Landwirt	-11.4517
▁Geburt	-11.4517
antwortung	-11.4517
kräfte	-11.4517
▁Bequemlichkeit	-11.4517
▁Beschaffenheit	-11.4517
▁Brüstung	-11.4517
▁Dummkopf	-11.4517
▁Erwiderung	-11.4517
▁Futter	-11.4517
▁Gemahlin	-11.4517
▁Gewöhnlich	-11.4517
▁Gleichgewicht	-11.4517
▁Haushälterin	-11.4517
▁Heuchelei	-11.4517
▁Luxus	-11.4517
▁Matrona	-11.4517
▁Melodie	-11.4517
▁Pierrat	-11.4517
▁Praxis	-11.4517
▁Prügler	-11.4517
▁Pyramide	-11.4517
▁Resultat	-11.4517
▁Subdirektor	-11.4517
▁Symbol	-11.4517
▁System	-11.4517
▁Tapferkeit	-11.4517
▁Testament	-11.4517
▁Unterbrechung	-11.4517
▁Unterstützung	-11.4517
▁Weihnacht	-11.4517
▁Wiederholung	-11.4517
▁Wälder	-11.4517
▁durchbrochene	-11.4517
▁erbittert	-11.4517
▁flatterte	-11.4517
▁funkelnde	-11.4517
▁gefreut	-11.4517
▁geheiratet	-11.4517
▁göttliche	-11.4517
▁obendrein	-11.4517
▁ohngefähr	-11.4517
▁schluchzen	-11.4517
▁schlüpfte	-11.4517
▁stampfte	-11.4517
▁verfehlt	-11.4517
▁vernehmbar	-11.4517
▁vertraulich	-11.4517
▁ärztliche	-11.4517
galopp	-11.4517
▁Aberglaube	-11.4517
▁Dampfboot	-11.4517
▁Komitee	-11.4517
▁Pflanze	-11.4517
▁Samstag	-11.4517
▁Schätze	-11.4517
▁betrügen	-11.4517
▁erstaunlich	-11.4517
▁geübt	-11.4517
▁muthig	-11.4517
▁rechtzeitig	-11.4517
▁unbemerkt	-11.4517
▁übernommen	-11.4517
uniform	-11.4517
▁Aufruhr	-11.4517
▁Begräbnis	-11.4517
▁März	-11.4517
▁blank	-11.4517
▁drüber	-11.4517
▁sorglos	-11.4517
▁veranlassen	-11.4517
▁Anhänger	-11.4517
▁Kusma	-11.4517
▁Walliser	-11.4517
Antoine	-11.4517
dächer	-11.4517
▁Menschenmenge	-11.4517
▁naiv	-11.4517
▁Väter	-11.4517
▁gestrige	-11.4517
stinktiv	-11.4517
▁Anstalt	-11.4517
▁Peitsche	-11.4517
▁Schnitt	-11.4517
▁gewechselt	-11.4517
▁vereinigen	-11.4517
▁Ehrfurcht	-11.4517
▁Schriftsteller	-11.4517
▁abreisen	-11.4517
▁erlitten	-11.4517
▁goß	-11.4517
▁rechtfertigen	-11.4517
▁Frost	-11.4517
▁Anspielung	-11.4517
▁gereist	-11.4517
läuft	-11.4518
▁Hieb	-11.4518
▁Schlechtes	-11.4518
Jungfer	-11.4518
▁Laufbahn	-11.4518
pflege	-11.4518
▁Möge	-11.4518
▁Scheide	-11.4518
▁kennst	-11.4518
ündigung	-11.4518
▁schlau	-11.4518
pelz	-11.4518
▁Besitztum	-11.4518
▁gedruckt	-11.4518
Schlecht	-11.4518
▁grell	-11.4518
▁geformt	-11.4518
schmuck	-11.4518
▁mindesten	-11.4518
▁betreffende	-11.4519
findig	-11.4519
▁Mailand	-11.4519
schleichen	-11.4519
▁eigensinnig	-11.4519
Etwa	-11.4519
▁Notiz	-11.4519
▁Erscheinen	-11.4519
dwirtschaftliche	-11.4519
▁Abhandlung	-11.452
▁Dämme	-11.452
▁Mondlicht	-11.452
▁Ehebruch	-11.452
▁stehengeblieben	-11.452
▁Juni	-11.452
▁mißfiel	-11.452
▁blutige	-11.4521
▁Gift	-11.4521
▁entsprach	-11.4521
tröst	-11.4522
▁locker	-11.4522
▁Finn	-11.4522
▁Verzeihen	-11.4523
▁Abendmahl	-11.4523
▁Schlinge	-11.4524
ähnliche	-11.4526
▁Sinnbild	-11.4526
▁Vorzüge	-11.4526
▁Meß	-11.4528
▁untersuchte	-11.4529
▁Handbewegung	-11.4529
▁immerfort	-11.4529
▁Vaterland	-11.4529
▁abgebrochen	-11.453
▁Hauch	-11.453
▁Gedächtnisse	-11.4531
▁Segen	-11.4532
glas	-11.4532
▁nebeneinander	-11.4535
▁beschreiben	-11.4535
▁Georg	-11.4536
▁klagen	-11.4537
▁Späß	-11.4538
▁selig	-11.4539
▁nebenbei	-11.454
▁Schauder	-11.454
▁Husten	-11.454
▁entziehen	-11.4541
▁dankte	-11.4542
züg	-11.4545
▁Schwanz	-11.4546
▁Tanne	-11.4546
▁Juden	-11.4547
▁verweilen	-11.4549
▁Darum	-11.4549
▁Bal	-11.4554
▁Pacht	-11.4555
steuer	-11.4558
gerichtshofe	-11.4561
▁abgenommen	-11.4562
▁Anmut	-11.4563
▁Umrisse	-11.4565
Sprich	-11.4567
Denk	-11.4589
Schade	-11.4612
pferd	-11.4615
stange	-11.463
▁Fortschritt	-11.4685
schaffte	-11.4696
zureden	-11.4704
▁liege	-11.4742
Wohlan	-11.475
▁neb	-11.475
▁wette	-11.4752
segel	-11.4757
▁Hell	-11.4762
▁Gas	-11.4794
▁genügen	-11.486
▁reichlich	-11.4864
▁entscheidende	-11.4924
▁Wahr	-11.4941
▁antworte	-11.495
▁künftig	-11.4991
sprach	-11.4998
▁erzähle	-11.5015
▁Haufe	-11.5032
flehen	-11.5039
gestürzt	-11.5042
besondere	-11.5043
Übrigens	-11.5043
spricht	-11.5044
Peter	-11.5044
gethan	-11.5044
getrieben	-11.5047
▁Marsch	-11.5088
▁Nische	-11.5099
▁schweigen	-11.5099
▁Thal	-11.5104
▁Frack	-11.5141
▁Schlittschuh	-11.5142
schiedenheit	-11.5142
bürger	-11.5142
-------------	-11.5142
flusse	-11.5142
▁Begrüßung	-11.5142
▁Bezirk	-11.5142
▁Dmitri	-11.5142
▁Drohung	-11.5142
▁Einladung	-11.5142
▁Erfindung	-11.5142
▁Erwägung	-11.5142
▁Eustache	-11.5142
▁Existenz	-11.5142
▁Fjodor	-11.5142
▁Freigebigkeit	-11.5142
▁Freisprechung	-11.5142
▁Gentleman	-11.5142
▁Geschirr	-11.5142
▁Intelligenz	-11.5142
▁Irgend	-11.5142
▁Klugheit	-11.5142
▁Livree	-11.5142
▁Lukitsch	-11.5142
▁Löwenwirtin	-11.5142
▁Newjedowski	-11.5142
▁Pantoffel	-11.5142
▁Politik	-11.5142
▁Porträt	-11.5142
▁Schieblade	-11.5142
▁Schlitten	-11.5142
▁Shawl	-11.5142
▁Sparsamkeit	-11.5142
▁Trauung	-11.5142
▁Tumult	-11.5142
▁Unabhängigkeit	-11.5142
▁Unglaube	-11.5142
▁Wahrnehmung	-11.5142
▁Wichtiges	-11.5142
▁Zurückhaltung	-11.5142
▁abhängig	-11.5142
▁begründet	-11.5142
▁brüllte	-11.5142
▁dünkte	-11.5142
▁empfahl	-11.5142
▁eröffnet	-11.5142
▁gekrümmt	-11.5142
▁gesteigert	-11.5142
▁glühte	-11.5142
▁greifen	-11.5142
▁grimmig	-11.5142
▁hustete	-11.5142
▁höhnisch	-11.5142
▁lateinische	-11.5142
▁modernen	-11.5142
▁schmiegte	-11.5142
▁schwankte	-11.5142
▁schwatzen	-11.5142
▁selbstsüchtig	-11.5142
▁umdrehte	-11.5142
▁unglaublich	-11.5142
▁verstorbene	-11.5142
▁zerschmettert	-11.5142
bücher	-11.5142
▁Füßchen	-11.5142
▁Unmöglichkeit	-11.5142
▁ausgestattet	-11.5142
▁beschleunigte	-11.5142
▁ersparen	-11.5142
▁gedämpft	-11.5142
▁gelobt	-11.5142
▁lösen	-11.5142
▁trifft	-11.5142
▁unzweifelhaft	-11.5142
▁ängstig	-11.5142
▁üppig	-11.5142
aterina	-11.5142
▁Bitterkeit	-11.5142
▁Getöse	-11.5142
▁Stickerei	-11.5142
▁gelangweilt	-11.5142
▁kauerte	-11.5142
▁vermutlich	-11.5142
▁Andry	-11.5142
▁Schiefer	-11.5142
▁beisammen	-11.5142
▁frommen	-11.5142
▁dagewesen	-11.5142
▁Rosette	-11.5142
▁Prolog	-11.5142
▁staune	-11.5142
häuschen	-11.5142
▁beschwor	-11.5142
▁erhellte	-11.5142
▁begeistert	-11.5142
hüpft	-11.5142
▁anderseits	-11.5142
▁kunstvoll	-11.5142
▁Röte	-11.5142
▁verstecken	-11.5142
▁Front	-11.5142
▁ruhelos	-11.5143
▁Wirtshaus	-11.5143
▁Diejenigen	-11.5143
▁Billardzimmer	-11.5143
▁Zimmerherren	-11.5143
glanz	-11.5143
hebung	-11.5143
▁ungewohnte	-11.5143
bohrt	-11.5143
▁wandern	-11.5143
▁passiert	-11.5143
gerüst	-11.5143
▁Eigentum	-11.5143
▁verlieben	-11.5143
▁gelingen	-11.5143
schrank	-11.5143
▁Schnur	-11.5143
▁entkleidet	-11.5143
▁geputzt	-11.5143
mindest	-11.5143
▁rollen	-11.5143
▁tätig	-11.5143
▁Vereinigung	-11.5143
vorhänge	-11.5143
▁verspürte	-11.5144
▁Erwachsenen	-11.5144
▁Milde	-11.5144
▁denjenigen	-11.5144
▁Heftigkeit	-11.5144
gruppe	-11.5144
▁bereut	-11.5144
▁dulden	-11.5145
▁Wanze	-11.5145
▁dächte	-11.5145
▁irrte	-11.5145
▁ebensoviel	-11.5145
▁verschlang	-11.5146
▁Halstuch	-11.5146
▁ungern	-11.5146
vergegenwärtigte	-11.5147
▁lehren	-11.5147
▁überreichte	-11.5147
▁Teilnahme	-11.5148
▁Lichtstrahl	-11.5148
▁Brieftasche	-11.5148
▁Gebot	-11.5148
▁festzuhalten	-11.5148
▁Stehen	-11.5148
▁Thorheit	-11.5149
▁betroffen	-11.5149
▁selbstbewußt	-11.515
▁reizte	-11.515
▁Riegel	-11.515
volk	-11.515
▁zurückgeblieben	-11.5151
▁geträumt	-11.5151
▁unfähig	-11.5151
▁Vorgänge	-11.5152
▁fährt	-11.5153
▁entschließen	-11.5153
▁Anmuth	-11.5154
▁gewahrte	-11.5154
▁Austern	-11.5155
etwegen	-11.5156
▁entreißen	-11.5156
▁gleichmütig	-11.5157
▁Hay	-11.5159
▁Tischler	-11.5159
ahmt	-11.5163
▁wahrnahm	-11.5163
▁Genie	-11.5164
▁haßt	-11.5164
▁Schuß	-11.5164
zuwerfen	-11.517
Sonntagsschul	-11.517
▁Nachteil	-11.5171
▁Schriftstück	-11.5173
lärm	-11.5175
▁erzeugt	-11.5192
▁Groll	-11.5195
▁eingehend	-11.5197
▁baut	-11.52
▁gewissenhaft	-11.5209
jahre	-11.5212
jacke	-11.5224
▁Goldne	-11.5227
weide	-11.523
▁Gehör	-11.5233
gewalt	-11.5258
▁Duell	-11.5258
▁richte	-11.5261
▁schätzte	-11.5275
Wohn	-11.528
interess	-11.532
▁Wahnsinnige	-11.5334
▁stete	-11.5342
▁Dick	-11.5342
▁begrüßt	-11.5379
▁schwankend	-11.5383
gue	-11.5409
▁Warze	-11.5417
Fürchte	-11.545
▁bestehe	-11.5451
mangel	-11.5465
greift	-11.5486
▁führe	-11.5488
▁Hacke	-11.5526
▁va	-11.5594
▁Hintergrund	-11.5621
▁Wette	-11.5632
▁Scheibe	-11.5659
▁setze	-11.5684
▁schäme	-11.5698
▁geschehe	-11.5699
▁wohne	-11.5704
▁Gouvernement	-11.5709
groß	-11.571
grauen	-11.5711
Unsinn	-11.5712
richtsschreiber	-11.5714
wickel	-11.5715
▁wendet	-11.5721
befehl	-11.5748
schule	-11.5786
würfe	-11.5805
Sprech	-11.5807
pfeife	-11.5809
Gleichgiltigkeit	-11.5809
Verflucht	-11.5809
flüchtet	-11.5809
gläser	-11.5809
prügeln	-11.5809
verhältnisse	-11.5809
wunderungswürdig	-11.5809
▁Ankömmling	-11.5809
▁Anziehungskraft	-11.5809
▁Autorität	-11.5809
▁Branntwein	-11.5809
▁Erlebnisse	-11.5809
▁Flamel	-11.5809
▁Flandern	-11.5809
▁Friedhof	-11.5809
▁Führer	-11.5809
▁Gouverneur	-11.5809
▁Hivert	-11.5809
▁Hochachtung	-11.5809
▁Jedoch	-11.5809
▁Kränkung	-11.5809
▁Neapel	-11.5809
▁Orsini	-11.5809
▁Poussepain	-11.5809
▁Prediger	-11.5809
▁Rector	-11.5809
▁Rosamond	-11.5809
▁Schärpe	-11.5809
▁Verheiratung	-11.5809
▁Vorsehung	-11.5809
▁Wabbel	-11.5809
▁abzuwarten	-11.5809
▁angeklagt	-11.5809
▁begierig	-11.5809
▁beträchtliche	-11.5809
▁entschuldigte	-11.5809
▁erschrecken	-11.5809
▁flehte	-11.5809
▁funfzehn	-11.5809
▁geholfen	-11.5809
▁genötigt	-11.5809
▁gespenstige	-11.5809
▁geäußert	-11.5809
▁hinlänglich	-11.5809
▁materielle	-11.5809
▁nördlich	-11.5809
▁senkrecht	-11.5809
▁unablässig	-11.5809
▁unausgesetzt	-11.5809
▁unverzüglich	-11.5809
▁verblüfft	-11.5809
▁versöhnen	-11.5809
▁verurtheilt	-11.5809
▁väterliche	-11.5809
▁Überlegenheit	-11.5809
▁Abendbrot	-11.5809
▁Anwesenden	-11.5809
▁Bosheit	-11.5809
▁Bühne	-11.5809
▁Frisur	-11.5809
▁Gewitter	-11.5809
▁Kirchhof	-11.5809
▁Klapper	-11.5809
▁Messing	-11.5809
▁Möcht	-11.5809
▁Riemen	-11.5809
▁Thürhüter	-11.5809
▁Treiben	-11.5809
▁Weisheit	-11.5809
▁bewerkstellig	-11.5809
▁ehrerbietig	-11.5809
▁erwählt	-11.5809
▁genoß	-11.5809
▁gesammelt	-11.5809
▁gewöhnen	-11.5809
▁romantisch	-11.5809
▁schleuderte	-11.5809
▁tadellos	-11.5809
▁unerklärlich	-11.5809
▁verstimmt	-11.5809
brust	-11.5809
▁Album	-11.5809
▁Knopf	-11.5809
▁Paquette	-11.5809
▁Pulver	-11.5809
▁Thibau	-11.5809
▁Träg	-11.5809
▁ahnte	-11.5809
▁ausbreitete	-11.5809
▁Streben	-11.5809
▁wesentlich	-11.5809
▁Schluck	-11.5809
▁mühe	-11.5809
▁bekennen	-11.5809
▁bemerkbar	-11.5809
▁tobte	-11.5809
▁tränen	-11.5809
▁verehrt	-11.5809
teppich	-11.5809
▁Pinsel	-11.5809
▁Weizen	-11.5809
▁ungestüm	-11.5809
▁Barbier	-11.5809
▁Fußpfad	-11.5809
▁Jedesmal	-11.5809
▁dürre	-11.5809
▁müßig	-11.5809
▁blühenden	-11.5809
▁Kupfer	-11.5809
▁Andacht	-11.5809
▁Baronin	-11.5809
▁heiser	-11.5809
mordet	-11.5809
▁vorteilhaft	-11.5809
▁Kreide	-11.5809
▁rauschte	-11.5809
▁beklagen	-11.5809
▁krumm	-11.5809
gegossen	-11.5809
▁Schlimmes	-11.5809
▁lenken	-11.5809
▁nachdachte	-11.5809
▁Kusse	-11.5809
▁sandte	-11.5809
▁mangelhaft	-11.5809
▁vertraut	-11.5809
fieber	-11.5809
▁Kranz	-11.5809
Worüber	-11.5809
▁Zaum	-11.5809
▁Sankt	-11.581
▁Schirm	-11.581
rganisation	-11.581
▁Bogenschützen	-11.581
▁verurteilt	-11.581
▁Teich	-11.581
▁Missionär	-11.581
▁demjenigen	-11.581
▁direkt	-11.581
▁verbraucht	-11.581
▁Typ	-11.581
▁Langsam	-11.5811
▁Zusammensein	-11.5811
▁stach	-11.5811
▁klammerte	-11.5811
onnte	-11.5811
▁Versteck	-11.5811
▁verschränkte	-11.5811
▁Mascha	-11.5811
▁Pastete	-11.5812
▁hüten	-11.5812
▁geboten	-11.5812
▁Sauce	-11.5812
▁Haide	-11.5812
▁Sonder	-11.5813
▁Bezeichnung	-11.5813
▁klebte	-11.5813
üffel	-11.5813
▁achtzig	-11.5814
▁mitteilte	-11.5815
Hurra	-11.5815
▁herantrat	-11.5815
▁Ritze	-11.5816
nachbar	-11.5816
▁freiwillig	-11.5816
▁damalige	-11.5816
wald	-11.5817
haarige	-11.5818
▁theils	-11.5819
Thomas	-11.5819
▁Anführer	-11.5819
geritten	-11.582
▁vornehmlich	-11.582
▁fett	-11.582
▁Busch	-11.5821
▁festzustellen	-11.5822
▁garstige	-11.5823
▁kurzum	-11.5824
▁festhalten	-11.5826
fizier	-11.5826
▁geordnet	-11.5828
Merkwürdig	-11.5834
säule	-11.5836
▁physisch	-11.5836
▁Kunstwerk	-11.5837
▁Wehe	-11.5838
geräth	-11.584
▁wertlos	-11.5841
rmchen	-11.5846
▁Greis	-11.5853
▁erachtet	-11.5854
▁Siebente	-11.5858
Versteh	-11.5864
Setz	-11.5888
wallte	-11.5905
zuweisen	-11.5907
hieb	-11.5911
▁Haube	-11.5966
ova	-11.5985
ehntes	-11.5988
hnliches	-11.5988
▁Fußweg	-11.5994
▁Sterben	-11.5997
Wieviel	-11.6001
▁benutzt	-11.6105
thürme	-11.6117
▁Binde	-11.6125
▁Portal	-11.6133
▁forder	-11.6134
verletz	-11.6138
held	-11.6192
▁spielt	-11.6262
▁schließe	-11.6264
▁erkläre	-11.6316
▁töte	-11.6328
erfüllt	-11.6355
gekleidet	-11.6377
kaufen	-11.6385
▁interessiert	-11.6411
▁erlaube	-11.6416
fällt	-11.6417
▁merke	-11.6417
▁errichtet	-11.6421
klar	-11.6423
wünsche	-11.6424
Teufel	-11.6425
Kitty	-11.6425
Arme	-11.6426
gemäß	-11.6426
gerade	-11.6434
▁sechzig	-11.6448
Fahr	-11.6457
▁träge	-11.6491
ziehung	-11.6498
zutreiben	-11.6514
▁leuchten	-11.6517
zeichnung	-11.6519
willkürlich	-11.652
▁Organ	-11.6522
Schtscherbazkaja	-11.6523
▁Experiment	-11.6523
▁Material	-11.6523
▁Pergament	-11.6523
▁Verbesserung	-11.6523
▁Vertretung	-11.6523
▁atemlos	-11.6523
▁entfloh	-11.6523
▁gefesselt	-11.6523
▁geschwunden	-11.6523
▁geschützt	-11.6523
▁gräm	-11.6523
▁künstlich	-11.6523
▁prachtvoll	-11.6523
▁schwärmerisch	-11.6523
▁stahl	-11.6523
▁stolper	-11.6523
▁Übung	-11.6523
Hermite	-11.6523
gestimmt	-11.6523
künstler	-11.6523
wölbung	-11.6523
▁Besseres	-11.6523
▁Besserung	-11.6523
▁Boulanger	-11.6523
▁Briggs	-11.6523
▁Chaos	-11.6523
▁Chirurg	-11.6523
▁Dämon	-11.6523
▁Erdhöcker	-11.6523
▁Filimonowna	-11.6523
▁Florian	-11.6523
▁Flüßchen	-11.6523
▁Französin	-11.6523
▁Führung	-11.6523
▁Griechenland	-11.6523
▁Handgelenk	-11.6523
▁Hausflur	-11.6523
▁Henriet	-11.6523
▁Hieroglyphe	-11.6523
▁Instrument	-11.6523
▁Klinke	-11.6523
▁Krüppel	-11.6523
▁Mißtrauen	-11.6523
▁Roggen	-11.6523
▁Rolandsthurme	-11.6523
▁Schwiegermutter	-11.6523
▁Schädel	-11.6523
▁Schöpfer	-11.6523
▁Sekretär	-11.6523
▁Steuereinnehmer	-11.6523
▁Ungestüm	-11.6523
▁Unwahrheit	-11.6523
▁Vaubyessard	-11.6523
▁Zirkus	-11.6523
▁Zuversicht	-11.6523
▁beantworten	-11.6523
▁beauftragt	-11.6523
▁befolgt	-11.6523
▁befragt	-11.6523
▁elektrische	-11.6523
▁erbärmlich	-11.6523
▁erleichtert	-11.6523
▁faltete	-11.6523
▁fluchte	-11.6523
▁geblendet	-11.6523
▁gedankenlos	-11.6523
▁gehorsam	-11.6523
▁gekostet	-11.6523
▁gelähmt	-11.6523
▁genöthigt	-11.6523
▁geärgert	-11.6523
▁gähnte	-11.6523
▁ironisch	-11.6523
▁knarrte	-11.6523
▁leistete	-11.6523
▁melancholisch	-11.6523
▁päpstliche	-11.6523
▁rötlich	-11.6523
▁schweigsam	-11.6523
▁unentschlossen	-11.6523
▁verscheuchen	-11.6523
▁vorwurfsvoll	-11.6523
▁weigerte	-11.6523
▁widmete	-11.6523
▁zerlumpt	-11.6523
▁zerstören	-11.6523
▁zwecklos	-11.6523
▁ägyptische	-11.6523
▁Friedensrichter	-11.6523
▁Langeweile	-11.6523
▁Redner	-11.6523
▁Sonnenschirm	-11.6523
▁Vertreter	-11.6523
▁Volksmenge	-11.6523
▁geirrt	-11.6523
▁mähen	-11.6523
▁stöhnen	-11.6523
schlüpfen	-11.6523
▁Jegor	-11.6523
▁Schlucht	-11.6523
▁Wartezimmer	-11.6523
▁vorhergehenden	-11.6523
▁Adler	-11.6523
▁Sicherlich	-11.6523
▁Tadel	-11.6523
▁einrichten	-11.6523
▁entwickeln	-11.6523
▁Echo	-11.6523
▁beteiligen	-11.6523
House	-11.6523
▁Verpflichtung	-11.6523
▁verursachen	-11.6523
▁Vorsteher	-11.6523
▁verbinden	-11.6523
skaja	-11.6523
▁Darstellung	-11.6523
▁Schwarz	-11.6523
▁vermuthe	-11.6523
▁übte	-11.6523
▁leblos	-11.6523
▁bezaubernd	-11.6523
▁Aermel	-11.6523
▁reizbar	-11.6523
schmelz	-11.6523
▁erstarb	-11.6523
▁ertappt	-11.6523
▁Metall	-11.6523
▁listig	-11.6523
▁Belieben	-11.6524
▁Buße	-11.6524
▁schuldbewußt	-11.6524
▁verweilte	-11.6524
▁Großvater	-11.6524
▁Kommode	-11.6524
▁Wipfel	-11.6524
▁viereckige	-11.6524
▁Fortsetzung	-11.6524
▁Südstadt	-11.6524
▁Marmorplatte	-11.6524
▁Apfelwein	-11.6524
▁flammende	-11.6524
▁Blitzstrahl	-11.6524
▁Plauder	-11.6524
▁Vorderseite	-11.6524
▁Taille	-11.6524
▁durchsichtig	-11.6525
▁Gerät	-11.6525
▁Murren	-11.6525
▁kindisch	-11.6525
stärke	-11.6525
▁Gebetbuch	-11.6525
Später	-11.6525
▁versöhnt	-11.6525
umdrehen	-11.6525
Höh	-11.6525
▁Fahne	-11.6526
▁Moos	-11.6526
▁Abschluß	-11.6526
äubchen	-11.6527
▁Warja	-11.6527
▁Beihilfe	-11.6527
▁Härte	-11.6528
▁Hausknecht	-11.6528
▁irgendwohin	-11.6528
ühlung	-11.6529
▁lockig	-11.6529
▁entzwei	-11.6529
▁Frucht	-11.653
▁widerfahren	-11.6531
▁wirtschaftlich	-11.6531
▁Wohlstand	-11.6531
▁drum	-11.6532
▁Landhause	-11.6533
▁dreizehn	-11.6533
geräumt	-11.6533
▁Durst	-11.6534
▁Fülle	-11.6536
geruch	-11.6536
▁sann	-11.6537
▁lud	-11.6538
sammengetroffen	-11.654
hügel	-11.6543
Erzähle	-11.6544
▁fange	-11.6548
▁erbaut	-11.6549
monat	-11.6563
▁zupfte	-11.657
drängte	-11.6589
▁flehe	-11.6593
gewirkt	-11.6599
▁Bou	-11.6617
▁entstellt	-11.6621
▁Wall	-11.6627
▁Scheune	-11.6635
▁Zuruf	-11.6645
prall	-11.6653
schlingen	-11.6662
▁sonstige	-11.6779
▁religiös	-11.6926
▁vermocht	-11.6951
▁zieh	-11.7001
Davon	-11.7054
strömt	-11.7086
▁silber	-11.712
▁schreib	-11.7128
▁Fels	-11.7162
▁rann	-11.7181
Niemand	-11.7193
▁nirgend	-11.7197
trinken	-11.7197
▁längs	-11.7198
geraten	-11.7204
gestickt	-11.7222
tönt	-11.7241
▁Pfarr	-11.7263
lastet	-11.7278
▁Neugier	-11.7287
▁zitt	-11.7289
Schläf	-11.7291
flamme	-11.7292
nswürdigkeit	-11.7292
▁Billard	-11.7292
▁Instinkt	-11.7292
▁gewölbt	-11.7292
Genoveva	-11.7292
plätz	-11.7292
▁Almosen	-11.7292
▁Atmosphäre	-11.7292
▁Befürchtung	-11.7292
▁Beschreibung	-11.7292
▁Bischöfe	-11.7292
▁Deutlichkeit	-11.7292
▁Empfehlung	-11.7292
▁Entbindung	-11.7292
▁Estouteville	-11.7292
▁Falourdel	-11.7292
▁Florenz	-11.7292
▁Fremdvölker	-11.7292
▁Gattung	-11.7292
▁Grashalm	-11.7292
▁Gutsschreiber	-11.7292
▁Hebamme	-11.7292
▁Hilfs	-11.7292
▁Louisa	-11.7292
▁Löffel	-11.7292
▁Masurka	-11.7292
▁Merkalowa	-11.7292
▁Methode	-11.7292
▁Papagei	-11.7292
▁Podium	-11.7292
▁Rascheln	-11.7292
▁Republik	-11.7292
▁Romagna	-11.7292
▁Sappho	-11.7292
▁Skizze	-11.7292
▁Sonnenuntergang	-11.7292
▁Strömung	-11.7292
▁Terrain	-11.7292
▁Völker	-11.7292
▁Zeigefinger	-11.7292
▁begrenzt	-11.7292
▁bläuliche	-11.7292
▁donnernd	-11.7292
▁düstre	-11.7292
▁eintönig	-11.7292
▁erleichtern	-11.7292
▁gedemütigt	-11.7292
▁gekrönt	-11.7292
▁geschnitzte	-11.7292
▁knirschte	-11.7292
▁opfern	-11.7292
▁regnete	-11.7292
▁schärfer	-11.7292
▁thöricht	-11.7292
▁tödlich	-11.7292
▁unterworfen	-11.7292
▁unvorsichtig	-11.7292
▁vergewisser	-11.7292
▁verstohlen	-11.7292
▁verworren	-11.7292
▁zukünftige	-11.7292
▁zweifelhaft	-11.7292
▁Abwechselung	-11.7292
▁Erdgescho	-11.7292
▁Flitter	-11.7292
▁Händchen	-11.7292
▁Stift	-11.7292
▁Vertheidigung	-11.7292
▁Vorbeigehen	-11.7292
▁gehofft	-11.7292
▁regelrecht	-11.7292
▁steigerte	-11.7292
▁Aufschub	-11.7292
▁Beratung	-11.7292
▁Mächtig	-11.7292
▁Vorfälle	-11.7292
▁befreundet	-11.7292
▁gemischt	-11.7292
▁geschlungen	-11.7292
▁unbequem	-11.7292
▁untergeordnet	-11.7292
▁vergoß	-11.7292
künfte	-11.7292
▁Heuernte	-11.7292
▁beiderseitig	-11.7292
▁vergrößert	-11.7292
▁verneigte	-11.7292
nadeln	-11.7292
▁aufgewacht	-11.7292
▁leitete	-11.7292
▁rückwärts	-11.7292
▁Konzert	-11.7292
▁Krocket	-11.7292
▁Likör	-11.7292
▁Vierzehnte	-11.7292
▁vorgelesen	-11.7292
▁Pflüge	-11.7293
▁Zünd	-11.7293
▁langweilte	-11.7293
▁Gefäß	-11.7293
▁Gedicht	-11.7293
▁Untreue	-11.7293
▁geweint	-11.7293
▁Sonnenlicht	-11.7293
stöße	-11.7293
▁Augenlider	-11.7293
▁fahle	-11.7293
tönende	-11.7293
▁ergoß	-11.7293
▁reckte	-11.7293
▁verhöhn	-11.7293
▁Geburtstag	-11.7293
▁Vorliebe	-11.7293
▁knapp	-11.7293
▁Weisung	-11.7293
zettel	-11.7293
Moulin	-11.7293
▁Schlimmste	-11.7293
▁abwesend	-11.7293
▁Takte	-11.7293
▁Bertaux	-11.7293
▁liest	-11.7293
▁pfeifend	-11.7293
Juchhe	-11.7293
▁Nachfolger	-11.7293
▁Rundbogen	-11.7293
▁Bleistift	-11.7293
▁Vorsitzende	-11.7293
▁Rasen	-11.7293
▁kraftlos	-11.7293
▁Schelm	-11.7293
▁immerdar	-11.7293
▁Strich	-11.7293
▁gestaltet	-11.7293
kamerad	-11.7293
▁Kammerherr	-11.7293
▁Hafen	-11.7293
▁Jüngling	-11.7294
▁geflüstert	-11.7294
▁Lehne	-11.7294
▁verschmäht	-11.7294
▁überschritten	-11.7294
▁Oberfläche	-11.7294
▁Halbkreis	-11.7294
▁kochen	-11.7294
▁stattgefunden	-11.7294
strom	-11.7294
▁Gemeinwohl	-11.7294
▁verrückt	-11.7294
▁bekundet	-11.7294
▁ungemein	-11.7295
▁herbeigeführt	-11.7295
▁Dodo	-11.7295
thema	-11.7295
ümpfe	-11.7295
▁unbefangen	-11.7295
▁Russen	-11.7295
▁kriegen	-11.7296
▁Grafschaft	-11.7296
▁Jedermann	-11.7296
▁herabhing	-11.7296
▁errathen	-11.7296
▁darnach	-11.7296
sturm	-11.7297
ußeres	-11.7297
▁eingestehen	-11.7298
▁Horn	-11.7298
▁wirbelte	-11.7298
▁Leere	-11.7299
▁ausgesucht	-11.7301
▁Brenn	-11.7302
▁Hammer	-11.7302
Genug	-11.7302
▁Elfe	-11.7303
▁streiten	-11.7303
▁Rinde	-11.7303
▁aufregend	-11.7307
▁Eintretende	-11.7308
efangenheit	-11.7309
lederne	-11.731
▁aufsteigende	-11.731
▁Lilie	-11.7311
Meinetwegen	-11.7317
Schwimm	-11.7319
▁tönte	-11.7321
berechtig	-11.7337
gerückt	-11.7345
▁strebte	-11.735
Steuer	-11.7354
▁Heimweg	-11.7357
fehler	-11.736
▁vielfach	-11.7373
▁Vorschläge	-11.7394
▁Gasthaus	-11.7397
▁wogte	-11.7398
schupp	-11.7457
▁arbeits	-11.7458
Unmöglich	-11.7527
bedeckten	-11.7561
gewickelt	-11.7576
post	-11.7639
▁Matt	-11.7656
vogel	-11.7694
▁bemächtigt	-11.7713
erregende	-11.7713
▁Ehr	-11.7738
▁betrachte	-11.7779
Sehet	-11.7786
▁verkehrt	-11.7835
▁möcht	-11.7843
Dumm	-11.7863
▁bildet	-11.789
arbeitete	-11.7898
verschiedenartig	-11.7914
wirkte	-11.7953
▁vergesse	-11.7966
beugte	-11.798
▁erlosch	-11.7996
rannte	-11.7997
▁Schnepfe	-11.8014
▁bemerke	-11.8016
Wahrscheinlich	-11.8026
Gerade	-11.8027
Dolly	-11.8027
Mutter	-11.8027
jetzt	-11.8028
Zwei	-11.8028
oje	-11.8028
▁Gläs	-11.8052
▁Ritt	-11.8081
stünde	-11.8084
ländische	-11.8095
gehorcht	-11.8108
spürt	-11.8117
plauder	-11.8118
weist	-11.8119
▁geräusch	-11.812
brecher	-11.8121
nachmittag	-11.8126
geschnürt	-11.8126
völker	-11.8126
▁April	-11.8126
▁Ehescheidung	-11.8126
▁Ellenbogen	-11.8126
▁Geläute	-11.8126
▁Jenseits	-11.8126
▁Kapital	-11.8126
▁Montfaucon	-11.8126
▁Märtyrer	-11.8126
▁Plünderung	-11.8126
▁Scharlach	-11.8126
▁empören	-11.8126
Buchdruckerkunst	-11.8126
Ungefähr	-11.8126
geschlecht	-11.8126
getrocknet	-11.8126
richtskanzleien	-11.8126
sprüht	-11.8126
sprüng	-11.8126
unerschütterlich	-11.8126
verbindung	-11.8126
vertiefung	-11.8126
▁Auskunftgeber	-11.8126
▁Balustrade	-11.8126
▁Baudenkmal	-11.8126
▁Begründung	-11.8126
▁Box	-11.8126
▁Büßerin	-11.8126
▁Criminal	-11.8126
▁Darlegung	-11.8126
▁Diplomat	-11.8126
▁Dollar	-11.8126
▁Enthüllung	-11.8126
▁Erfrischung	-11.8126
▁Ermüdung	-11.8126
▁Evangelium	-11.8126
▁Exzellenz	-11.8126
▁Frauensperson	-11.8126
▁Gemurmel	-11.8126
▁Geringschätzung	-11.8126
▁Geschwindigkeit	-11.8126
▁Gewissensbisse	-11.8126
▁Harmonie	-11.8126
▁Heiligtum	-11.8126
▁Kaminsims	-11.8126
▁Kartoffeln	-11.8126
▁Klatsch	-11.8126
▁Kühnheit	-11.8126
▁Lloyd	-11.8126
▁Löcher	-11.8126
▁Margarethe	-11.8126
▁Natalja	-11.8126
▁Nicola	-11.8126
▁Obstgarten	-11.8126
▁Paläste	-11.8126
▁Pilatus	-11.8126
▁Processe	-11.8126
▁Sanftmut	-11.8126
▁Schmeichelei	-11.8126
▁Seelenzustand	-11.8126
▁Sprungfeder	-11.8126
▁Theodor	-11.8126
▁Varens	-11.8126
▁Verdruß	-11.8126
▁Violine	-11.8126
▁Wamms	-11.8126
▁athemlos	-11.8126
▁aufforderte	-11.8126
▁ausdrücklich	-11.8126
▁bedeutungsvoll	-11.8126
▁beeinträchtigt	-11.8126
▁beschmutzt	-11.8126
▁besondre	-11.8126
▁einzurichten	-11.8126
▁erfordert	-11.8126
▁ergötzt	-11.8126
▁famos	-11.8126
▁gedreht	-11.8126
▁geflissentlich	-11.8126
▁gemietet	-11.8126
▁gemächlich	-11.8126
▁jämmerlich	-11.8126
▁kandidieren	-11.8126
▁knochige	-11.8126
▁liebgewonnen	-11.8126
▁massive	-11.8126
▁nähte	-11.8126
▁ringsherum	-11.8126
▁schlummerte	-11.8126
▁schweißbedeckte	-11.8126
▁spähte	-11.8126
▁unfehlbar	-11.8126
▁unregelmäßige	-11.8126
▁unschlüssig	-11.8126
▁unumgänglich	-11.8126
▁unveränderlich	-11.8126
▁unwissend	-11.8126
▁verabredet	-11.8126
▁verleugne	-11.8126
▁vertheidigt	-11.8126
▁zermalmt	-11.8126
geschmolzen	-11.8126
gewohnheit	-11.8126
▁Beruhigung	-11.8126
▁Biegung	-11.8126
▁Kritik	-11.8126
▁Märchen	-11.8126
▁Närrin	-11.8126
▁abergläubisch	-11.8126
▁absolut	-11.8126
▁berichten	-11.8126
▁beschwöre	-11.8126
▁gefüttert	-11.8126
▁gerunzelt	-11.8126
▁kahlköpfig	-11.8126
▁musikalisch	-11.8126
▁unaussprechlich	-11.8126
▁verzehren	-11.8126
▁Behagen	-11.8126
▁Groschen	-11.8126
▁Vorlesung	-11.8126
▁auszuruhen	-11.8126
▁gleiten	-11.8126
brüder	-11.8126
▁Umarmung	-11.8126
▁läugne	-11.8126
▁ratsam	-11.8126
▁wankte	-11.8126
▁Gewerbe	-11.8126
▁Kontrast	-11.8126
▁liebkoste	-11.8126
▁zuversichtlich	-11.8126
▁schildern	-11.8126
▁Salz	-11.8126
▁Behauptung	-11.8126
▁unmerklich	-11.8126
gruben	-11.8126
▁Anerbieten	-11.8126
▁flott	-11.8126
wägt	-11.8126
▁dauerhaft	-11.8126
▁unfreundlich	-11.8126
▁angeregt	-11.8126
ündchen	-11.8126
▁Aufträge	-11.8126
▁Knoten	-11.8126
▁ideale	-11.8126
▁Zeugnis	-11.8126
▁bedienen	-11.8126
▁Gymnasium	-11.8126
▁galant	-11.8126
Sehenswürdigkeit	-11.8126
▁ehemals	-11.8126
▁Text	-11.8126
Möglich	-11.8126
▁Gerüst	-11.8126
▁Sprung	-11.8126
▁regiert	-11.8126
palast	-11.8126
▁gedungen	-11.8126
Vermutlich	-11.8126
▁Banknote	-11.8126
▁Leistung	-11.8126
▁begehrt	-11.8126
▁erhebt	-11.8126
▁Kessel	-11.8126
ivilisation	-11.8126
▁deckte	-11.8127
Entschuldige	-11.8127
▁Freitreppe	-11.8127
▁hinderlich	-11.8127
▁nachmittags	-11.8127
▁Klopfe	-11.8127
▁Kriegsmacht	-11.8127
▁Hochmut	-11.8127
▁Straßenpflaster	-11.8127
▁Getränk	-11.8127
UC	-11.8127
▁Lamm	-11.8127
▁Lahme	-11.8127
▁Genau	-11.8128
▁Marktplatz	-11.8128
▁hagere	-11.8128
▁natur	-11.8128
▁geschäftliche	-11.8128
▁klingende	-11.8128
▁beachten	-11.8128
▁Gemeinschaft	-11.8128
▁gesungen	-11.8128
▁weltliche	-11.8128
▁Sprecher	-11.8128
▁Kalb	-11.8129
▁Entwe	-11.8129
▁Semmel	-11.8129
▁erbarme	-11.8129
▁schweifen	-11.813
flutete	-11.8131
büsche	-11.8131
▁luftig	-11.8131
▁geräuschvoll	-11.8131
▁Pfote	-11.8132
perlen	-11.8132
nennung	-11.8132
▁verteilt	-11.8134
▁Rente	-11.8134
▁sinnliche	-11.8136
▁Jesu	-11.8139
▁zugewandt	-11.8144
▁Senat	-11.8145
▁Lieg	-11.8147
▁Wink	-11.815
▁harrte	-11.8158
▁theilte	-11.8158
▁Verkauf	-11.816
wirbel	-11.8172
Schlimm	-11.8177
▁feig	-11.8207
rutsch	-11.8227
▁Säcke	-11.8271
▁Blau	-11.8294
▁dreht	-11.8322
▁feurig	-11.8329
frühstück	-11.843
▁öffne	-11.8663
▁schwanken	-11.869
▁schätz	-11.8712
Rette	-11.878
▁lernt	-11.8798
▁Rausch	-11.8902
Nehm	-11.8919
bewußt	-11.8922
▁Löwe	-11.8924
▁schicke	-11.893
schrak	-11.8933
sammeln	-11.8935
schwarze	-11.8936
Johann	-11.8936
Morgen	-11.8936
–	-11.8937
Allerdings	-11.8937
▁schreck	-11.901
▁gewahr	-11.9017
▁geschm	-11.9021
▁Rühr	-11.9028
▁Mission	-11.9033
▁Tänze	-11.9034
gitter	-11.9034
gestreift	-11.9035
klapper	-11.9035
▁Bereitschaft	-11.9035
▁Deichsel	-11.9035
▁Filipp	-11.9035
▁Mißgeschick	-11.9035
▁Oktober	-11.9035
▁Orchester	-11.9035
▁Pokrowskoje	-11.9035
▁Restaurant	-11.9035
▁Staatsanwalt	-11.9035
▁Technik	-11.9035
▁Trompete	-11.9035
▁erfreulich	-11.9035
▁erwägen	-11.9035
▁gebieterisch	-11.9035
▁gedauert	-11.9035
▁triumphierend	-11.9035
▁verheimlichen	-11.9035
Boulevard	-11.9035
Eigentümlichkeit	-11.9035
Unwahrhaftigkeit	-11.9035
gewölbe	-11.9035
lehrerin	-11.9035
pflückt	-11.9035
thümer	-11.9035
uadrille	-11.9035
▁Abhängigkeit	-11.9035
▁Ausdauer	-11.9035
▁Befreiung	-11.9035
▁Beleuchtung	-11.9035
▁Beschützer	-11.9035
▁Betrübnis	-11.9035
▁Betäubung	-11.9035
▁Botschaft	-11.9035
▁Boulogne	-11.9035
▁Butterbrot	-11.9035
▁Celine	-11.9035
▁Einfachheit	-11.9035
▁Ernährung	-11.9035
▁Eroberer	-11.9035
▁Erschöpf	-11.9035
▁Feiertag	-11.9035
▁Findelkind	-11.9035
▁Flußdamm	-11.9035
▁Flüsterton	-11.9035
▁Generation	-11.9035
▁Genossenschaft	-11.9035
▁Gesandtschaft	-11.9035
▁Gesichtsfarbe	-11.9035
▁Giovanni	-11.9035
▁Gitterstäbe	-11.9035
▁Gläubige	-11.9035
▁Grammatik	-11.9035
▁Heinrich	-11.9035
▁Hexensabbath	-11.9035
▁Knöchel	-11.9035
▁Kopeke	-11.9035
▁Kronleuchter	-11.9035
▁Krähen	-11.9035
▁Köpfchen	-11.9035
▁Literatur	-11.9035
▁Lowton	-11.9035
▁Niedrig	-11.9035
▁Opium	-11.9035
▁Pfeffer	-11.9035
▁Phrase	-11.9035
▁Pöbel	-11.9035
▁Revolution	-11.9035
▁Richard	-11.9035
▁Schaffner	-11.9035
▁Sorokina	-11.9035
▁Taugenichts	-11.9035
▁Uebel	-11.9035
▁Ueberraschung	-11.9035
▁Ulme	-11.9035
▁Ungewißheit	-11.9035
▁Ungewöhnliche	-11.9035
▁Unhöflichkeit	-11.9035
▁Unterwürfigkeit	-11.9035
▁Venedig	-11.9035
▁Verfasser	-11.9035
▁Verwandtschaft	-11.9035
▁Wechslerbrücke	-11.9035
▁Workujew	-11.9035
▁allermeisten	-11.9035
▁beeinflußt	-11.9035
▁befindliche	-11.9035
▁befürchten	-11.9035
▁beschämt	-11.9035
▁beteuerte	-11.9035
▁dehnte	-11.9035
▁ekelhaft	-11.9035
▁erbarmungslos	-11.9035
▁erfreuen	-11.9035
▁europäische	-11.9035
▁fesselte	-11.9035
▁flackerte	-11.9035
▁fährst	-11.9035
▁geweiht	-11.9035
▁gewidmet	-11.9035
▁herkömmlich	-11.9035
▁kritisch	-11.9035
▁loszuwerden	-11.9035
▁mißverstanden	-11.9035
▁murmeln	-11.9035
▁orientalische	-11.9035
▁scherzend	-11.9035
▁schlenderte	-11.9035
▁slawische	-11.9035
▁spaßhaft	-11.9035
▁stammt	-11.9035
▁städtische	-11.9035
▁unerreichbar	-11.9035
▁unzugänglich	-11.9035
▁verbessern	-11.9035
▁verbesserte	-11.9035
▁verbittert	-11.9035
▁verdanken	-11.9035
▁vernachlässigen	-11.9035
▁verschwommen	-11.9035
▁verzerrte	-11.9035
▁vormittag	-11.9035
▁wollüstig	-11.9035
▁zweckmäßig	-11.9035
▁zweifelsohne	-11.9035
▁überdrüssig	-11.9035
täfel	-11.9035
▁Amulet	-11.9035
▁Betrüger	-11.9035
▁Gliedmaßen	-11.9035
▁Kanonen	-11.9035
▁Pfuhl	-11.9035
▁Pistole	-11.9035
▁Schublade	-11.9035
▁Unangenehm	-11.9035
▁Wachskerze	-11.9035
▁Wohnsitz	-11.9035
▁gedient	-11.9035
▁gespenstisch	-11.9035
▁harmonisch	-11.9035
▁lüftete	-11.9035
▁nähren	-11.9035
▁unternommen	-11.9035
▁Aufrichtigkeit	-11.9035
▁Bohl	-11.9035
▁Christentum	-11.9035
▁Kürze	-11.9035
▁Perlen	-11.9035
▁Portion	-11.9035
▁Pächter	-11.9035
▁Schwermut	-11.9035
▁nähen	-11.9035
▁stehlen	-11.9035
▁verneinend	-11.9035
▁Beachtung	-11.9035
▁Bronze	-11.9035
▁berauscht	-11.9035
▁besichtigen	-11.9035
▁geschwind	-11.9035
▁vorzulesen	-11.9035
balken	-11.9035
▁Belagerung	-11.9035
▁Schwamm	-11.9035
▁Unmenge	-11.9035
▁Gesprächsstoff	-11.9035
▁gescheit	-11.9035
bündel	-11.9035
▁erfunden	-11.9035
▁insofern	-11.9035
▁Ergebenheit	-11.9035
▁Stöhnen	-11.9035
▁befühlte	-11.9035
▁schaudernd	-11.9035
tschaftsbetrieb	-11.9035
▁Rogers	-11.9035
▁Mondenschein	-11.9035
▁zusammentraf	-11.9035
▁Häscher	-11.9035
▁Poesie	-11.9035
▁Tracht	-11.9035
▁darbot	-11.9035
höhle	-11.9035
▁Caf	-11.9035
▁Reinheit	-11.9035
▁Carter	-11.9035
▁Ferkel	-11.9035
▁Schuppen	-11.9035
▁ländliche	-11.9035
▁Vasen	-11.9035
▁Furchtbares	-11.9035
▁Kichern	-11.9035
▁Paket	-11.9035
▁Müller	-11.9035
▁ansichtig	-11.9035
▁gewunden	-11.9035
▁Leuchten	-11.9035
▁Badeorte	-11.9035
▁gewichen	-11.9035
▁blies	-11.9035
▁spannte	-11.9035
▁Schlafengehen	-11.9035
▁Linon	-11.9035
gestopft	-11.9035
▁Widerstreben	-11.9035
▁Beschwerde	-11.9035
▁Strohsack	-11.9035
▁geendet	-11.9035
▁geizig	-11.9035
▁schlaff	-11.9035
▁Kalk	-11.9035
▁überliefert	-11.9035
macher	-11.9035
▁Turm	-11.9035
▁blätterte	-11.9036
▁eingetroffen	-11.9036
Herrgott	-11.9036
▁Geringste	-11.9036
▁Urkunde	-11.9036
▁Fett	-11.9036
träfe	-11.9036
▁loben	-11.9036
▁Richtige	-11.9036
▁Sturz	-11.9036
▁vertrieben	-11.9036
▁Bull	-11.9036
▁vergittert	-11.9036
▁Entschiedenheit	-11.9036
▁Zipfel	-11.9036
▁Begehr	-11.9036
▁flackernde	-11.9036
▁gerötet	-11.9037
▁gesinnt	-11.9037
▁Mißerfolg	-11.9037
chleuder	-11.9037
▁tragisch	-11.9038
▁überdachte	-11.9038
Pierre	-11.9038
▁Erzeugnis	-11.9039
▁sorgt	-11.9039
tafel	-11.904
korb	-11.9041
▁Ungläubige	-11.9041
▁wärmte	-11.9041
▁Warnung	-11.9041
▁Geleit	-11.9043
▁wälzte	-11.9043
▁zeitig	-11.9044
▁Fuhre	-11.9044
▁Zange	-11.9048
braten	-11.9049
gestrichen	-11.9051
Erinner	-11.9057
▁solide	-11.9071
falten	-11.9072
▁Strauß	-11.9075
brauste	-11.9075
▁blühte	-11.9083
▁libe	-11.9106
schwester	-11.9116
▁Medizin	-11.9118
gelockt	-11.9133
zustoßen	-11.9138
gebiete	-11.9183
Eigentlich	-11.9192
▁krieche	-11.9197
▁Zelt	-11.9228
brenne	-11.9284
Zieh	-11.9332
Überall	-11.9361
▁bedient	-11.9456
gebilde	-11.9562
▁Sechs	-11.9611
▁beschäftige	-11.9617
Gieb	-11.9634
zuschauen	-11.9683
waffnet	-11.9686
▁störe	-11.9709
Bah	-11.9746
Finde	-11.9759
gemach	-11.9785
▁konnt	-11.9791
▁Bemühung	-11.9903
▁Vergnüg	-11.9903
▁Pirat	-11.9903
▁entschied	-11.9904
▁Franzose	-11.9923
▁gestehe	-11.9923
findet	-11.9925
Durch	-11.9936
Stiwa	-11.9936
Hauptmann	-11.9936
längst	-11.9936
Konstantin	-11.9936
Während	-11.9936
Sergei	-11.9937
Frau	-11.9937
»	-11.9937
sondern	-11.9937
▁öfter	-11.9939
klären	-11.9939
Rote	-11.9955
raußen	-11.9991
troffen	-11.9993
▁verbracht	-11.9998
▁Merk	-12.0007
ekannt	-12.0009
Solch	-12.002
löschte	-12.0023
forderung	-12.0032
▁Allgemein	-12.0035
▁Dünger	-12.0035
▁Garderobe	-12.0035
▁Kandidat	-12.0035
Monsieur	-12.0035
Zwanzig	-12.0035
altblütig	-12.0035
marmorne	-12.0035
skommission	-12.0035
undfünfzig	-12.0035
urchdringliche	-12.0035
▁Alchymie	-12.0035
▁Anekdote	-12.0035
▁Anhänglichkeit	-12.0035
▁Ankleidezimmer	-12.0035
▁Aprikose	-12.0035
▁Belehrung	-12.0035
▁Bestrebungen	-12.0035
▁Blässe	-12.0035
▁Colonna	-12.0035
▁Dauphin	-12.0035
▁Detail	-12.0035
▁Ehegatten	-12.0035
▁Eleganz	-12.0035
▁Elfenbein	-12.0035
▁Entgegnung	-12.0035
▁Entrüstung	-12.0035
▁Erhöhung	-12.0035
▁Erschütterung	-12.0035
▁Erzbischof	-12.0035
▁Erörterung	-12.0035
▁Fensterläden	-12.0035
▁Gardinen	-12.0035
▁Gummischuhe	-12.0035
▁Hilflosigkeit	-12.0035
▁Himbeeren	-12.0035
▁Kapitonütsch	-12.0035
▁Klumpen	-12.0035
▁Krizki	-12.0035
▁Labyrinth	-12.0035
▁Leibeigenschaft	-12.0035
▁Leibeskräften	-12.0035
▁Lektüre	-12.0035
▁Madeira	-12.0035
▁Napoleon	-12.0035
▁Nebenbuhler	-12.0035
▁Nüstern	-12.0035
▁Pappeln	-12.0035
▁Periode	-12.0035
▁Physiognomie	-12.0035
▁Picknick	-12.0035
▁Proceß	-12.0035
▁Regierungsrat	-12.0035
▁Samowar	-12.0035
▁Schwangerschaft	-12.0035
▁Schüchternheit	-12.0035
▁Sforza	-12.0035
▁Springbrunnen	-12.0035
▁Titularrat	-12.0035
▁Umwälzung	-12.0035
▁Ungethüm	-12.0035
▁Vagabund	-12.0035
▁Verhängnis	-12.0035
▁Verschleppung	-12.0035
▁Winkeladvokaten	-12.0035
▁Zickzack	-12.0035
▁abgemagerte	-12.0035
▁abschlägige	-12.0035
▁angstvoll	-12.0035
▁aufbewahrt	-12.0035
▁bejahend	-12.0035
▁belehrt	-12.0035
▁entledigt	-12.0035
▁entschlüpfte	-12.0035
▁erfrischt	-12.0035
▁erzürnt	-12.0035
▁fortdauern	-12.0035
▁frostige	-12.0035
▁gefehlt	-12.0035
▁gegründet	-12.0035
▁geküßt	-12.0035
▁geläutet	-12.0035
▁gemeißelt	-12.0035
▁genähert	-12.0035
▁geräumig	-12.0035
▁geschafft	-12.0035
▁geschworen	-12.0035
▁geschwärzt	-12.0035
▁giftig	-12.0035
▁herrührt	-12.0035
▁keuchend	-12.0035
▁knarrende	-12.0035
▁kratzte	-12.0035
▁kreischte	-12.0035
▁mahnte	-12.0035
▁oberflächlich	-12.0035
▁rotbackige	-12.0035
▁rücksichtslos	-12.0035
▁südlich	-12.0035
▁telephonisch	-12.0035
▁theure	-12.0035
▁tödtet	-12.0035
▁umzukleiden	-12.0035
▁unermeßlich	-12.0035
▁unglückselige	-12.0035
▁unrichtig	-12.0035
▁unvernünftig	-12.0035
▁vereinzelt	-12.0035
▁verschwindet	-12.0035
▁verstummen	-12.0035
▁wahrnehmbar	-12.0035
▁äußern	-12.0035
dürftig	-12.0035
kräusel	-12.0035
▁Arseni	-12.0035
▁Crack	-12.0035
▁Eichenholz	-12.0035
▁Entschließung	-12.0035
▁Gerichtsbeamten	-12.0035
▁Gänse	-12.0035
▁Lehnsessel	-12.0035
▁Lektion	-12.0035
▁Militär	-12.0035
▁Mittwoch	-12.0035
▁Reflex	-12.0035
▁Salomo	-12.0035
▁Schilling	-12.0035
▁Schleppe	-12.0035
▁Selbstachtung	-12.0035
▁Severus	-12.0035
▁Säugling	-12.0035
▁Unterlippe	-12.0035
▁Verschwendung	-12.0035
▁Zartheit	-12.0035
▁betäuben	-12.0035
▁entbehren	-12.0035
▁ermahnt	-12.0035
▁schmeckt	-12.0035
▁schmächtig	-12.0035
▁selbständig	-12.0035
▁stemmte	-12.0035
▁verdutzt	-12.0035
▁überwunden	-12.0035
▁Floß	-12.0035
▁Gebüsch	-12.0035
▁Leintuch	-12.0035
▁Schwindel	-12.0035
▁Schöppe	-12.0035
▁Stämme	-12.0035
▁Umgegend	-12.0035
▁Vesper	-12.0035
▁ausrichten	-12.0035
▁auszufüllen	-12.0035
▁gefeiert	-12.0035
▁gehaßt	-12.0035
▁herrschende	-12.0035
▁kriegerisch	-12.0035
▁schwenkte	-12.0035
zudrehen	-12.0035
▁Betonung	-12.0035
▁Folglich	-12.0035
▁Gesinde	-12.0035
▁gefrühstückt	-12.0035
▁petit	-12.0035
gehäuft	-12.0035
▁Einwilligung	-12.0035
▁Gruft	-12.0035
▁Vollkommenheit	-12.0035
▁abgereist	-12.0035
▁beendigt	-12.0035
▁belehren	-12.0035
▁besiegt	-12.0035
▁geerbt	-12.0035
▁verwirren	-12.0035
▁Helfer	-12.0035
▁Klima	-12.0035
▁Schuft	-12.0035
▁Sprichwort	-12.0035
▁geheiligt	-12.0035
▁lasterhaft	-12.0035
▁Heiratsantr	-12.0035
▁Profil	-12.0035
▁Strumpf	-12.0035
▁regieren	-12.0035
brüten	-12.0035
▁Blech	-12.0035
▁Erholung	-12.0035
▁tobend	-12.0035
▁unsagbar	-12.0035
▁violette	-12.0035
▁saftig	-12.0035
▁fieberhaft	-12.0035
▁scheiden	-12.0035
▁Bluse	-12.0035
▁klapperten	-12.0035
Michael	-12.0035
▁Erwerb	-12.0035
▁duldete	-12.0035
▁Schober	-12.0035
▁mutlos	-12.0035
▁Walter	-12.0035
▁lebst	-12.0035
▁Ferien	-12.0035
▁Enkel	-12.0035
▁endigte	-12.0035
▁namenlose	-12.0035
▁schottische	-12.0035
▁erwischt	-12.0035
anschauung	-12.0035
▁stetig	-12.0035
▁anordnen	-12.0035
▁erobern	-12.0035
▁spüren	-12.0035
▁verliert	-12.0035
▁Gewänder	-12.0035
gepaßt	-12.0035
köpfige	-12.0035
▁Eva	-12.0035
▁anheim	-12.0035
▁spiegelte	-12.0035
▁hernieder	-12.0035
▁Stätte	-12.0035
kranz	-12.0035
▁gelingt	-12.0035
▁jammerte	-12.0035
▁poetische	-12.0035
▁buschige	-12.0035
▁stramm	-12.0035
▁welke	-12.0035
▁Raub	-12.0035
▁floh	-12.0035
▁Insasse	-12.0035
▁Merkmale	-12.0035
▁eitel	-12.0035
▁sparen	-12.0035
stürmen	-12.0035
▁kokett	-12.0035
▁verfüg	-12.0036
▁Sporen	-12.0036
▁benutzen	-12.0036
▁schmerzte	-12.0036
saat	-12.0036
▁hütete	-12.0036
nirschen	-12.0036
sammenzutreffen	-12.0036
▁rauschen	-12.0036
▁vermehrte	-12.0036
▁Hanf	-12.0036
▁Ladung	-12.0036
▁bekämpfen	-12.0036
▁gefühllos	-12.0036
▁Beichte	-12.0037
▁Großartige	-12.0037
übung	-12.0038
gäste	-12.0038
▁Vitell	-12.0039
gemeinschaftlich	-12.0039
▁anredete	-12.0039
▁inständig	-12.004
gearbeitet	-12.004
▁hinkend	-12.0041
türmte	-12.0046
▁Stäb	-12.0047
▁Schnecke	-12.0047
siebzig	-12.0049
▁schweifte	-12.005
geschritten	-12.0053
briefe	-12.0054
borgen	-12.0061
▁entlegene	-12.0063
▁Emp	-12.0071
kirche	-12.0086
schwingen	-12.0091
Seltsam	-12.0096
schleife	-12.0109
▁Aussage	-12.017
schreiber	-12.0182
blon	-12.0203
▁widerspreche	-12.0233
Daran	-12.025
räumte	-12.0261
Frühstückszimmer	-12.0329
▁stört	-12.0335
▁unverseh	-12.0337
Gestatte	-12.0428
ustausch	-12.0493
▁Vornehm	-12.0516
chnauben	-12.0752
▁auseinandersetz	-12.0826
▁Aufschrei	-12.0931
schreitend	-12.0993
horchte	-12.104
bedeutend	-12.1042
Fünf	-12.1046
Djali	-12.1046
Donner	-12.1047
glitt	-12.1047
Becky	-12.1047
Kleine	-12.1048
bringt	-12.1051
Kind	-12.1053
Wünsch	-12.1109
▁Gebrech	-12.1118
Schweig	-12.113
flammt	-12.1133
empfindung	-12.1144
mütter	-12.1145
▁Zivil	-12.1145
größe	-12.1146
▁Semjon	-12.1146
Leuchtturm	-12.1146
aragraphen	-12.1146
▁Aufklärung	-12.1146
▁Boudoir	-12.1146
▁Büchse	-12.1146
▁Englisch	-12.1146
▁Flüssigkeit	-12.1146
▁Konversation	-12.1146
▁Mäntel	-12.1146
▁Sachwalter	-12.1146
▁Schlummer	-12.1146
▁Schokolade	-12.1146
▁Schwärmerei	-12.1146
▁Syracus	-12.1146
▁Verirrung	-12.1146
▁Verlobung	-12.1146
▁beschämend	-12.1146
▁geknickt	-12.1146
▁gekreuzt	-12.1146
▁gekümmert	-12.1146
▁knackte	-12.1146
▁mittelalterlich	-12.1146
▁sarkastisch	-12.1146
▁sentiment	-12.1146
▁theoretisch	-12.1146
▁unbändig	-12.1146
▁unerfreulich	-12.1146
▁unordentlich	-12.1146
▁verdunkelt	-12.1146
▁verworfen	-12.1146
▁zaghaft	-12.1146
apitäl	-12.1146
bruder	-12.1146
erklärung	-12.1146
figuren	-12.1146
gepflanzt	-12.1146
geschätzt	-12.1146
knöpfen	-12.1146
rubelschein	-12.1146
sdestoweniger	-12.1146
▁Accent	-12.1146
▁Annonce	-12.1146
▁Apostel	-12.1146
▁Baßstimme	-12.1146
▁Bestandteile	-12.1146
▁Bittsteller	-12.1146
▁Brjanski	-12.1146
▁Chorpult	-12.1146
▁Colombe	-12.1146
▁Cyrus	-12.1146
▁Draperie	-12.1146
▁Durchlaucht	-12.1146
▁Feigheit	-12.1146
▁Flüstern	-12.1146
▁Frömmigkeit	-12.1146
▁Färbung	-12.1146
▁Genugtuung	-12.1146
▁Georgiana	-12.1146
▁Gewebe	-12.1146
▁Grinjewitsch	-12.1146
▁Guillaumin	-12.1146
▁Hilfstruppen	-12.1146
▁Hochaltar	-12.1146
▁Kapuze	-12.1146
▁Kastanienbaum	-12.1146
▁Kirchturm	-12.1146
▁Kneipe	-12.1146
▁Komödie	-12.1146
▁Käppchen	-12.1146
▁Körbchen	-12.1146
▁Kümmernisse	-12.1146
▁Lächerlich	-12.1146
▁Marcus	-12.1146
▁Melancholie	-12.1146
▁Männchen	-12.1146
▁Münster	-12.1146
▁Normandie	-12.1146
▁Ottomane	-12.1146
▁Pagenkorps	-12.1146
▁Parfüm	-12.1146
▁Prinzip	-12.1146
▁Renaissance	-12.1146
▁Rumpelkammer	-12.1146
▁Schlamm	-12.1146
▁Schlupfwinkel	-12.1146
▁Schlusse	-12.1146
▁Schwiegervater	-12.1146
▁September	-12.1146
▁Sheriff	-12.1146
▁Sonnabend	-12.1146
▁Spatzen	-12.1146
▁Strolch	-12.1146
▁Tagesanbruch	-12.1146
▁Temperament	-12.1146
▁Thätigkeit	-12.1146
▁Torterue	-12.1146
▁Trübsal	-12.1146
▁Tschirikow	-12.1146
▁Uneinigkeit	-12.1146
▁Ungerechtigkeit	-12.1146
▁Verspätung	-12.1146
▁Vervollkommnung	-12.1146
▁Whitcroß	-12.1146
▁Wichtigste	-12.1146
▁Wörterbuch	-12.1146
▁Zeitvertreib	-12.1146
▁Zerstreutheit	-12.1146
▁Zögern	-12.1146
▁abhängt	-12.1146
▁anmuthig	-12.1146
▁anzugreifen	-12.1146
▁beaufsichtig	-12.1146
▁bedächtig	-12.1146
▁beeinflussen	-12.1146
▁begrüßen	-12.1146
▁beschattete	-12.1146
▁deklamierte	-12.1146
▁empfehle	-12.1146
▁erschüttern	-12.1146
▁eröffnen	-12.1146
▁gefärbt	-12.1146
▁gemeldet	-12.1146
▁gepflegt	-12.1146
▁geringfügig	-12.1146
▁geschmeichelt	-12.1146
▁geschrien	-12.1146
▁gesorgt	-12.1146
▁gestrenge	-12.1146
▁glitzerte	-12.1146
▁graziös	-12.1146
▁hochgewachsene	-12.1146
▁liberale	-12.1146
▁militärisch	-12.1146
▁mystische	-12.1146
▁räusperte	-12.1146
▁schmeichelnd	-12.1146
▁schwitzen	-12.1146
▁schwärmte	-12.1146
▁stillschweigend	-12.1146
▁stämmig	-12.1146
▁unehrenhaft	-12.1146
▁unumstößlich	-12.1146
▁verabscheue	-12.1146
▁verabscheut	-12.1146
▁verdreht	-12.1146
▁verfaulte	-12.1146
▁vergönnt	-12.1146
▁vermindert	-12.1146
▁versäumen	-12.1146
▁vertilgen	-12.1146
▁vertilgt	-12.1146
▁wimmelte	-12.1146
▁wächst	-12.1146
▁zuverlässig	-12.1146
▁übereinstimmt	-12.1146
▁überhäuft	-12.1146
▁Todesangst	-12.1146
▁Verwandlung	-12.1146
▁Zuletzt	-12.1146
▁abzureisen	-12.1146
▁aufzuheben	-12.1146
▁daselbst	-12.1146
▁erheblich	-12.1146
▁sittliche	-12.1146
▁verdankte	-12.1146
▁vergossen	-12.1146
▁verleiht	-12.1146
▁versenkte	-12.1146
tümer	-12.1146
▁Fußgänger	-12.1146
▁Lebenswandel	-12.1146
▁Nachttischchen	-12.1146
▁Prozent	-12.1146
▁Zuckungen	-12.1146
▁erlösen	-12.1146
▁tadeln	-12.1146
▁unsaubere	-12.1146
polster	-12.1146
▁Baby	-12.1146
▁Buckel	-12.1146
▁Orgie	-12.1146
▁Tapete	-12.1146
▁kennzeichne	-12.1146
▁rächen	-12.1146
▁Veranda	-12.1146
▁barfuß	-12.1146
▁bauschte	-12.1146
▁erprob	-12.1146
▁Abhang	-12.1146
▁Anwalt	-12.1146
▁Fünfzehnte	-12.1146
▁überhört	-12.1146
▁Bestechung	-12.1146
▁streute	-12.1146
▁Hengst	-12.1146
▁Kuppel	-12.1146
▁Trug	-12.1146
▁logische	-12.1146
Musnier	-12.1146
schlösse	-12.1146
▁Spött	-12.1146
Entschlossenheit	-12.1146
▁Thatsache	-12.1146
▁auftauchte	-12.1146
▁stehn	-12.1146
▁Gesichtspunkte	-12.1146
▁Orgel	-12.1146
▁verbrecherische	-12.1146
▁geheißen	-12.1146
▁Unwillen	-12.1146
▁gebadet	-12.1146
▁vermißt	-12.1146
▁Pisa	-12.1146
▁wirksam	-12.1146
▁Zwist	-12.1146
▁krachte	-12.1146
▁Beschauer	-12.1146
geschleudert	-12.1146
▁herabfielen	-12.1146
zünden	-12.1146
▁stechend	-12.1146
▁Flechten	-12.1146
▁läuten	-12.1146
▁Atmen	-12.1146
▁Gemisch	-12.1146
▁herzlose	-12.1146
▁spärlich	-12.1146
▁sonnigen	-12.1146
▁Stürme	-12.1146
▁Gerichtsamte	-12.1146
▁Genüsse	-12.1146
▁jegliche	-12.1146
▁zähe	-12.1147
▁prangte	-12.1147
▁beseitigt	-12.1147
▁Grinse	-12.1147
▁erstarren	-12.1147
▁mütterliche	-12.1147
▁Koth	-12.1148
▁Kava	-12.1148
gräb	-12.1148
Ruhig	-12.1148
▁Aeußer	-12.1148
▁Barone	-12.1148
Vergiß	-12.1148
▁Salbe	-12.1148
▁verhandelt	-12.1148
▁verlockend	-12.1148
gewordne	-12.1149
▁Cardi	-12.115
▁begehre	-12.115
zuhängen	-12.1151
▁belebend	-12.1152
▁betaste	-12.1152
Daneben	-12.1154
▁bestürmt	-12.1154
spült	-12.1157
▁Theolog	-12.1157
▁ständig	-12.1157
ulösen	-12.1158
▁Kriech	-12.1158
gezahlt	-12.1159
schwärme	-12.1161
▁Schweigsam	-12.1165
Bube	-12.1175
polter	-12.1179
▁wogende	-12.1192
▁Kehr	-12.1205
▁Ungeschick	-12.1214
gebissen	-12.1268
▁Hinweis	-12.1375
erträglich	-12.1418
immermehr	-12.1443
Vollkommen	-12.1582
forderliche	-12.1696
▁vollziehe	-12.1795
▁lächelt	-12.1846
geknöpft	-12.1899
▁platt	-12.1958
▁schütt	-12.1987
▁verschafft	-12.2017
sellschaftliche	-12.2221
▁Prinz	-12.2264
▁Patient	-12.2264
▁Kolleg	-12.2269
Niemals	-12.2296
freudig	-12.2297
Gleich	-12.2297
Jacob	-12.2297
Endlich	-12.2297
Ruhe	-12.2298
vergessen	-12.2298
Emma	-12.2298
▁Verweis	-12.2302
glühende	-12.2302
blüht	-12.233
hütte	-12.2355
öchstens	-12.2367
läufig	-12.2369
Erkläre	-12.2374
Richtig	-12.2375
ologie	-12.2383
wälzt	-12.2384
▁Burg	-12.2394
▁jäh	-12.2396
schneidet	-12.2396
▁Elektri	-12.2396
▁Erniedrigung	-12.2396
▁Gutmütigkeit	-12.2396
▁Kognak	-12.2396
▁Kostüm	-12.2396
▁Kälber	-12.2396
▁Manschetten	-12.2396
▁Picard	-12.2396
▁Schwefel	-12.2396
▁Verabredung	-12.2396
▁Verletzung	-12.2396
▁besudelt	-12.2396
▁farblos	-12.2396
▁gemartert	-12.2396
▁geschwätzig	-12.2396
▁träumerisch	-12.2396
▁unüberwindlich	-12.2396
▁wohlthuend	-12.2396
Boucherie	-12.2396
Michaelsbrücke	-12.2396
Selbstverwaltung	-12.2396
Wosdwischenskoje	-12.2396
geblasen	-12.2396
lchymist	-12.2396
männische	-12.2396
othwälsch	-12.2396
sträucher	-12.2396
vorsteher	-12.2396
▁Anspannung	-12.2396
▁Arabesken	-12.2396
▁Artillerie	-12.2396
▁Ausschmückung	-12.2396
▁Berechtigung	-12.2396
▁Beschämung	-12.2396
▁Bessubow	-12.2396
▁Bewußtlosigkeit	-12.2396
▁Borgia	-12.2396
▁Collegium	-12.2396
▁Drehbank	-12.2396
▁Eidechse	-12.2396
▁Entwickelung	-12.2396
▁Ferndean	-12.2396
▁Flamingo	-12.2396
▁Fuhrwerk	-12.2396
▁Fußschemel	-12.2396
▁Fährmann	-12.2396
▁Fässer	-12.2396
▁Galiläa	-12.2396
▁Gehäuse	-12.2396
▁Gelübde	-12.2396
▁Gemüthsart	-12.2396
▁Gewächs	-12.2396
▁Herzensgüte	-12.2396
▁Hüchette	-12.2396
▁Impuls	-12.2396
▁Jerguschowo	-12.2396
▁Justiz	-12.2396
▁Kapitän	-12.2396
▁Katastrophe	-12.2396
▁Kinnbacken	-12.2396
▁Kirillow	-12.2396
▁Knickepeter	-12.2396
▁Koketterie	-12.2396
▁Konfekt	-12.2396
▁Kruzifix	-12.2396
▁Kupferstiche	-12.2396
▁Mißbilligung	-12.2396
▁Nothwendigkeit	-12.2396
▁November	-12.2396
▁Palastvogt	-12.2396
▁Palazzo	-12.2396
▁Präsentierbrett	-12.2396
▁Raserei	-12.2396
▁Residenz	-12.2396
▁Respekt	-12.2396
▁Rückgrat	-12.2396
▁Schlußfolgerung	-12.2396
▁Schnauze	-12.2396
▁Selbstvertrauen	-12.2396
▁Situation	-12.2396
▁Skelett	-12.2396
▁Sonnenaufgang	-12.2396
▁Sorglosigkeit	-12.2396
▁Sprünge	-12.2396
▁Theorie	-12.2396
▁Todeskampf	-12.2396
▁Todesqual	-12.2396
▁Turban	-12.2396
▁Verzückung	-12.2396
▁Wohlthäterin	-12.2396
▁Wohlwollen	-12.2396
▁Wronskaja	-12.2396
▁Wägelchen	-12.2396
▁Zartgefühl	-12.2396
▁ablenken	-12.2396
▁anbetrifft	-12.2396
▁anvertrauen	-12.2396
▁anzuknüpfen	-12.2396
▁bejahrte	-12.2396
▁bestärkt	-12.2396
▁blinkte	-12.2396
▁eingehüllt	-12.2396
▁entfremdet	-12.2396
▁entwischt	-12.2396
▁erledigen	-12.2396
▁folgendermaßen	-12.2396
▁fürwahr	-12.2396
▁gekünstelte	-12.2396
▁geschmeidig	-12.2396
▁gesegnete	-12.2396
▁gesichert	-12.2396
▁gespeist	-12.2396
▁gestochen	-12.2396
▁getödtet	-12.2396
▁getötet	-12.2396
▁kennenlernte	-12.2396
▁kennenzulernen	-12.2396
▁kerzengerade	-12.2396
▁konventionelle	-12.2396
▁krönte	-12.2396
▁moderner	-12.2396
▁mündete	-12.2396
▁schattigen	-12.2396
▁schleifte	-12.2396
▁schnarchen	-12.2396
▁schwindlig	-12.2396
▁schäumende	-12.2396
▁selbstzufrieden	-12.2396
▁stumpfsinnig	-12.2396
▁täuschte	-12.2396
▁umgedreht	-12.2396
▁unberührt	-12.2396
▁unbesorgt	-12.2396
▁unentbehrlich	-12.2396
▁unergründlich	-12.2396
▁unverschämt	-12.2396
▁unverzeihlich	-12.2396
▁verblüffen	-12.2396
▁verdoppeln	-12.2396
▁vergiftet	-12.2396
▁wisperte	-12.2396
▁übersiedeln	-12.2396
Jacques	-12.2396
Victor	-12.2396
gespenster	-12.2396
plätscher	-12.2396
▁Angenehmes	-12.2396
▁Bangigkeit	-12.2396
▁Bäcker	-12.2396
▁Carlo	-12.2396
▁Fliesen	-12.2396
▁Gesammt	-12.2396
▁Haupteingang	-12.2396
▁Irland	-12.2396
▁Kämpfe	-12.2396
▁Sprechzimmer	-12.2396
▁Stubenmädchen	-12.2396
▁Säulchen	-12.2396
▁bedankte	-12.2396
▁bedauernswerte	-12.2396
▁beschieden	-12.2396
▁bärtige	-12.2396
▁gebessert	-12.2396
▁gelenkt	-12.2396
▁lump	-12.2396
▁türkische	-12.2396
▁unauffällig	-12.2396
▁verrostete	-12.2396
▁verschämt	-12.2396
▁Hürde	-12.2396
▁Kanzler	-12.2396
▁Kleidungsstücke	-12.2396
▁Matratze	-12.2396
▁Mähen	-12.2396
▁Sonderbares	-12.2396
▁erneuern	-12.2396
▁erspäh	-12.2396
▁geahnt	-12.2396
▁gekocht	-12.2396
▁schroffe	-12.2396
▁thierische	-12.2396
▁weinerlich	-12.2396
▁Anfälle	-12.2396
▁Feinheit	-12.2396
▁Motiv	-12.2396
▁betrüben	-12.2396
▁blutrot	-12.2396
▁kicherte	-12.2396
▁marschierte	-12.2396
▁strauchel	-12.2396
▁verstreut	-12.2396
dringlichkeit	-12.2396
▁Alltags	-12.2396
▁Kittel	-12.2396
▁Pfaffen	-12.2396
▁Stöße	-12.2396
▁bestreut	-12.2396
▁Josas	-12.2396
▁Kaschin	-12.2396
▁Weigerung	-12.2396
▁Zufluchtsort	-12.2396
▁besiegen	-12.2396
▁ermüden	-12.2396
▁gesät	-12.2396
schädigt	-12.2396
▁Kühle	-12.2396
▁Schimpf	-12.2396
▁erlöst	-12.2396
▁schützt	-12.2396
▁thäte	-12.2396
gestraft	-12.2396
▁Gelenk	-12.2396
▁entwischen	-12.2396
▁sorglich	-12.2396
▁widerstrebend	-12.2396
spect	-12.2396
▁Blumenbeet	-12.2396
▁Spalier	-12.2396
sundheitszustand	-12.2396
▁Dreizehnte	-12.2396
▁Schweif	-12.2396
würgen	-12.2396
▁aussähe	-12.2396
▁schatten	-12.2396
▁frühzeitig	-12.2396
▁schimpf	-12.2396
ebälk	-12.2396
genützt	-12.2396
plitter	-12.2396
▁einflußreich	-12.2396
▁geschmackvoll	-12.2396
▁Morast	-12.2396
▁keuchte	-12.2396
▁stutz	-12.2396
▁gierig	-12.2396
▁Anfäng	-12.2396
▁zappel	-12.2396
eschleunig	-12.2396
▁offne	-12.2396
▁prof	-12.2396
▁fortschrittlich	-12.2396
▁Räume	-12.2396
▁sperrte	-12.2396
▁Bürde	-12.2397
▁wuchtig	-12.2397
▁Mäuse	-12.2397
höfe	-12.2397
▁Geleise	-12.2397
dergutzumachen	-12.2397
▁bürgerliche	-12.2397
wächter	-12.2397
▁Prunk	-12.2397
▁Kalesch	-12.2397
Tantchen	-12.2398
▁bemerkenswerte	-12.2398
▁beliebige	-12.2399
Katja	-12.24
Beinahe	-12.2401
▁Bitternis	-12.2403
▁versink	-12.2427
anfang	-12.2436
▁ausländisch	-12.2444
Bravo	-12.2457
▁stünd	-12.2464
Bibliothekzimmer	-12.2516
▁vollbracht	-12.256
rlamentsgerichts	-12.2614
Wunderbar	-12.27
genehm	-12.2865
knöpfte	-12.2919
Wahrlich	-12.2938
▁Schränk	-12.2945
weize	-12.3079
arriere	-12.319
▁Unterdrück	-12.3387
▁beobachte	-12.3433
▁glänzen	-12.3518
▁Phantas	-12.3654
▁Gesandte	-12.3714
▁erwidert	-12.3719
glänzende	-12.3725
schrecklich	-12.3725
Kreuz	-12.3726
Gregor	-12.3726
Schwester	-12.3726
gewöhnt	-12.3779
underschöne	-12.3819
hölzer	-12.3823
eutzutage	-12.3823
▁Gymnas	-12.3824
▁Schwiegert	-12.3825
▁Nachforschung	-12.3825
▁Reaktion	-12.3825
▁Serviette	-12.3825
▁Steinmetzarbeit	-12.3825
▁durchtränkt	-12.3825
▁flatternd	-12.3825
▁geflochten	-12.3825
▁rabenschwarz	-12.3825
▁rätselhaft	-12.3825
▁schmeichelhaft	-12.3825
▁trügerisch	-12.3825
▁unbeugsam	-12.3825
▁unförmlich	-12.3825
▁verstümmelt	-12.3825
Geistesgegenwart	-12.3825
Katharine	-12.3825
Mannigfaltigkeit	-12.3825
Selterswasser	-12.3825
Verschiedene	-12.3825
beschaffenheit	-12.3825
fräulein	-12.3825
gepflügt	-12.3825
geprägt	-12.3825
gottesdienst	-12.3825
heirathet	-12.3825
katholische	-12.3825
nfangsbuchstaben	-12.3825
rsichtsmaßregel	-12.3825
svollstreckung	-12.3825
ursache	-12.3825
versammlung	-12.3825
zurühren	-12.3825
▁Ablenkung	-12.3825
▁Abwechslung	-12.3825
▁Akazien	-12.3825
▁Albernheit	-12.3825
▁Alexejewitsch	-12.3825
▁Antipathie	-12.3825
▁Architekt	-12.3825
▁Argueil	-12.3825
▁Argument	-12.3825
▁Barbedienne	-12.3825
▁Bedeutsamkeit	-12.3825
▁Belohnung	-12.3825
▁Beredsamkeit	-12.3825
▁Birkenpilz	-12.3825
▁Bologna	-12.3825
▁Borisowna	-12.3825
▁Bärenjagd	-12.3825
▁Ceremonie	-12.3825
▁Compagnie	-12.3825
▁Derozerays	-12.3825
▁Dobbins	-12.3825
▁Dorfschulze	-12.3825
▁Düpuis	-12.3825
▁Einzelnheiten	-12.3825
▁Entbehrungen	-12.3825
▁Equipage	-12.3825
▁Erledigung	-12.3825
▁Erschrocken	-12.3825
▁Februar	-12.3825
▁Fermo	-12.3825
▁Fledermäuse	-12.3825
▁Florentiner	-12.3825
▁Gaillefontaine	-12.3825
▁Gamaschen	-12.3825
▁Gemächer	-12.3825
▁Genugthuung	-12.3825
▁Gereiztheit	-12.3825
▁Gestrüpp	-12.3825
▁Griechisch	-12.3825
▁Heloise	-12.3825
▁Hiob	-12.3825
▁Imperatoren	-12.3825
▁Irdische	-12.3825
▁Jalousie	-12.3825
▁Kartasow	-12.3825
▁Keuschheit	-12.3825
▁Klafter	-12.3825
▁Kommunismus	-12.3825
▁Kredit	-12.3825
▁Kusowlew	-12.3825
▁Lawrence	-12.3825
▁Leaven	-12.3825
▁Lombardei	-12.3825
▁Lucia	-12.3825
▁Madonna	-12.3825
▁Mathias	-12.3825
▁Miethstruppen	-12.3825
▁Mißvergnüg	-12.3825
▁Morphium	-12.3825
▁Mühseligkeit	-12.3825
▁Mündung	-12.3825
▁Nirgend	-12.3825
▁Niveau	-12.3825
▁Orkan	-12.3825
▁Pathos	-12.3825
▁Protodiakon	-12.3825
▁Rasseln	-12.3825
▁Refektorium	-12.3825
▁Rennbahn	-12.3825
▁Rüstung	-12.3825
▁Schießscharten	-12.3825
▁Schlauheit	-12.3825
▁Schreibpult	-12.3825
▁Schöpfung	-12.3825
▁Sicili	-12.3825
▁Sljudin	-12.3825
▁Stadium	-12.3825
▁Staffelei	-12.3825
▁Starrheit	-12.3825
▁Substanz	-12.3825
▁Thronsessel	-12.3825
▁Tölpel	-12.3825
▁Tücher	-12.3825
▁Ueberlieferung	-12.3825
▁Umfassungsmauer	-12.3825
▁Unbehagen	-12.3825
▁Unentschlossen	-12.3825
▁Unsicherheit	-12.3825
▁Verdammnis	-12.3825
▁Vereinsamung	-12.3825
▁Verletzendes	-12.3825
▁Versicherung	-12.3825
q	-13.1841
Ü	-13.8325
